[PAD]
[UNK]
[CLS]
[SEP]
[MASK]
A
B
C
D
E
F
G
H
I
J
K
L
M
N
O
P
Q
R
S
T
U
V
W
X
Y
Z
a
b
c
d
e
f
g
h
i
j
k
l
m
n
o
p
q
r
s
t
u
v
w
x
y
z
ㄱ
ㄴ
ㄷ
ㄹ
ㅁ
ㅂ
ㅅ
ㅇ
ㅈ
ㅊ
ㅋ
ㅌ
ㅍ
ㅎ
ㅏ
ㅗ
ㅡ
ㅣ
ㆍ
가
각
간
갇
갈
갉
감
갑
값
갓
갔
강
갖
같
갚
갛
개
객
갠
갤
갬
갭
갯
갱
갸
걀
걍
걔
거
걱
건
걷
걸
검
겁
것
겉
겊
게
겐
겔
겟
겠
겨
격
겪
견
결
겸
겹
겼
경
곁
계
곗
고
곡
곤
곧
골
곰
곱
곳
공
곶
과
곽
관
괄
괏
광
괘
괜
괴
괸
굄
굉
교
굣
구
국
군
굳
굴
굵
굶
굼
굽
굿
궁
궂
궈
권
궐
궜
궤
귀
귄
귈
귓
규
균
귤
그
극
근
귿
글
긁
금
급
긋
긍
기
긱
긴
길
김
깁
깃
깅
깊
까
깍
깎
깐
깔
깜
깝
깡
깥
깨
깬
깰
깽
꺼
꺽
꺾
껌
껍
껏
껐
껑
께
껴
꼈
꼬
꼭
꼰
꼴
꼼
꼽
꽁
꽂
꽃
꽈
꽉
꽝
꽤
꽥
꾀
꾸
꾹
꾺
꾼
꿀
꿇
꿈
꿉
꿋
꿍
꿔
꿨
꿰
꿸
뀌
뀐
뀔
뀜
뀝
끄
끈
끊
끌
끎
끓
끔
끗
끙
끝
끼
끽
낀
낄
낌
낍
낏
낑
나
낙
낚
난
날
낡
남
납
낫
났
낭
낮
낯
낱
낳
내
낵
낸
낼
냄
냅
냇
냈
냉
냐
냠
냥
너
넉
넋
넌
널
넓
넘
넙
넛
넜
넝
넣
네
넥
넨
넬
넴
넷
넸
녀
녁
년
념
녔
녕
녘
노
녹
논
놀
놈
놉
놋
농
높
놓
놔
놨
뇌
뇨
누
눅
눈
눌
눔
눕
눗
눠
눴
뉘
뉜
뉠
뉩
뉴
뉼
늄
느
늑
는
늘
늙
늠
능
늦
늪
늬
니
닉
닌
닐
님
닙
닛
닝
닢
다
닥
닦
단
닫
달
닭
닮
닳
담
답
닷
당
닻
닿
대
댁
댄
댈
댐
댑
댓
댔
댕
더
덕
던
덜
덟
덤
덥
덧
덩
덫
덮
데
덱
덴
델
뎀
뎁
뎃
뎅
뎌
뎠
도
독
돈
돋
돌
돔
돕
돗
동
돛
돼
됐
되
된
될
됨
됩
됴
두
둑
둔
둘
둠
둡
둥
둬
뒀
뒤
뒷
뒹
듀
듄
듈
듐
드
득
든
듣
들
듦
듬
듭
듯
등
디
딕
딘
딛
딜
딤
딥
딧
딩
딪
따
딱
딴
딸
땀
땄
땅
땋
때
땐
땔
땜
땠
땡
떠
떡
떤
떨
떴
떻
떼
뗀
뗄
뗏
또
똑
똘
똥
뚜
뚝
뚠
뚤
뚫
뚱
뛰
뛴
뛸
뜀
뜨
뜩
뜬
뜯
뜰
뜸
뜻
띄
띈
띔
띕
띠
띤
띱
띵
라
락
란
랄
람
랍
랏
랐
랑
랖
랗
래
랙
랜
랠
램
랩
랫
랬
랭
랴
략
량
러
럭
런
럴
럼
럽
럿
렀
렁
렇
레
렉
렌
렐
렘
렙
렛
렝
려
력
련
렬
렴
렵
렷
렸
령
례
로
록
론
롤
롬
롭
롯
롱
뢰
료
룡
루
룩
룬
룰
룸
룹
룻
룽
뤄
뤘
뤼
뤽
류
륙
륜
률
륨
륭
르
륵
른
를
름
릅
릇
릉
릎
리
릭
린
릴
림
립
릿
링
마
막
만
많
맏
말
맑
맘
맙
맛
망
맞
맟
맡
매
맥
맨
맬
맴
맵
맷
맸
맹
맺
머
먹
먼
멀
멈
멉
멋
멍
메
멕
멘
멜
멤
멧
멩
며
멱
면
멸
몄
명
몇
모
목
몫
몬
몰
몸
몹
못
몽
뫼
묘
묜
무
묵
묶
문
묻
물
뭄
뭅
뭇
뭉
뭐
뭔
뭘
뭣
뮈
뮌
뮐
뮤
뮬
므
믈
미
믹
민
믿
밀
밈
밉
밋
밌
밍
및
밑
바
박
밖
반
받
발
밝
밟
밤
밥
밧
방
밭
배
백
밴
밸
뱀
뱁
뱃
뱅
뱉
버
벅
번
벌
범
법
벗
벙
벚
베
벡
벤
벨
벱
벳
벵
벼
벽
변
별
볍
볏
볐
병
볕
보
복
볶
본
볼
봄
봅
봇
봉
봐
봤
뵈
뵙
부
북
분
붇
불
붉
붐
붓
붕
붙
뷔
뷰
뷸
브
븐
블
비
빅
빈
빌
빔
빕
빗
빙
빚
빛
빠
빡
빤
빨
빴
빵
빼
빽
뺀
뺄
뺏
뺐
뺑
뺨
뻐
뻑
뻔
뻗
뻣
뻤
뻥
뻬
뼈
뼛
뽀
뽐
뽑
뽕
뾰
뿅
뿌
뿍
뿐
뿔
뿜
쁘
쁜
쁠
쁨
쁩
삐
사
삭
산
살
삶
삼
삽
삿
샀
상
샅
새
색
샌
샐
샘
샜
생
샤
샨
샬
샴
샵
샷
샹
섀
섈
서
석
섞
선
섣
설
섦
섬
섭
섯
섰
성
세
섹
센
셀
셈
셉
셋
셍
셔
션
셜
셧
셨
셰
셸
소
속
솎
손
솔
솜
솝
솟
송
쇄
쇠
쇤
쇰
쇳
쇼
숀
숄
숌
숍
숏
숑
수
숙
순
숟
술
숨
숩
숫
숭
숯
숱
숲
숴
쉐
쉑
쉔
쉘
쉬
쉰
쉴
쉼
쉽
쉿
슁
슈
슉
슌
슐
슛
슝
스
슥
슨
슬
슴
습
슷
승
시
식
신
싣
실
싫
심
십
싯
싱
싶
싸
싹
싼
쌀
쌉
쌌
쌍
쌓
쌔
쌤
쌩
써
썩
썬
썰
썸
썹
썼
썽
쎄
쎈
쏘
쏙
쏜
쏟
쏠
쏭
쏴
쐐
쑤
쑥
쓰
쓱
쓴
쓸
씀
씁
씌
씨
씩
씬
씰
씹
씻
씽
아
악
안
앉
않
알
앎
앓
암
압
앗
았
앙
앞
애
액
앤
앨
앰
앱
앳
앴
앵
야
약
얀
얄
얇
얌
얏
양
얕
얗
얘
어
억
언
얹
얻
얼
얽
엄
업
없
엇
었
엉
엊
엎
에
엑
엔
엘
엠
엡
엣
엥
여
역
엮
연
열
염
엽
엿
였
영
옅
옆
옇
예
옌
옐
옛
오
옥
온
올
옮
옳
옴
옵
옷
옹
와
왁
완
왈
왑
왓
왔
왕
왜
왠
외
왼
욋
요
욕
욘
욜
욧
용
우
욱
운
울
움
웁
웃
웅
워
웍
원
월
웜
웝
웠
웡
웤
웨
웬
웰
웹
위
윅
윈
윌
윔
윕
윗
윙
유
육
윤
율
윳
융
윷
으
윽
은
을
읊
음
읍
응
읔
의
이
익
인
일
읽
잃
임
입
잇
있
잉
잊
잎
자
작
잔
잖
잘
잠
잡
잣
장
잦
재
잭
잰
잴
잼
잽
쟁
쟈
쟉
저
적
젂
전
절
젊
점
접
젓
정
젖
제
젝
젠
젤
젬
젯
져
젼
졌
졍
조
족
존
졸
좀
좁
좃
종
좇
좋
좌
죄
죠
주
죽
준
줄
줌
줍
줏
중
줘
줬
줴
쥐
쥔
쥘
쥬
쥴
쥼
즈
즉
즌
즐
즘
증
지
직
진
짇
질
짊
짐
집
짓
징
짖
짙
짚
짜
짝
짠
짤
짧
짬
짭
짰
짱
째
쨌
쨍
쩌
쩍
쩐
쩔
쩡
쪄
쪼
쪽
쫄
쫌
쫐
쫑
쫒
쫓
쫙
쬐
쭈
쭉
쭐
쭤
쯔
쯤
찌
찍
찐
찔
찜
찝
찡
찢
차
착
찬
찮
찰
참
찹
찻
찼
창
찾
채
책
챌
챔
챕
챗
챘
챙
챠
챨
처
척
천
철
첨
첩
첫
청
체
첵
첸
첼
쳇
쳉
쳐
쳔
쳤
초
촉
촌
촐
촘
촛
총
촤
촬
최
쵸
추
축
춘
출
춤
춥
춧
충
춰
췄
췌
취
츄
츠
측
츤
츨
츰
층
치
칙
친
칠
침
칩
칫
칭
카
칵
칸
칼
캄
캅
캇
캉
캐
캔
캘
캠
캡
캣
캥
커
컥
컨
컫
컬
컴
컵
컷
컸
컹
케
켄
켈
켐
켓
켜
켠
켤
켰
코
콕
콘
콜
콤
콥
콧
콩
콰
콴
쾅
쾌
쾨
쿄
쿠
쿡
쿤
쿨
쿰
쿱
쿵
쿼
퀀
퀄
퀘
퀴
퀵
퀸
퀼
큇
큉
큐
큘
큠
크
큰
클
큼
큽
키
킥
킨
킬
킴
킵
킷
킹
타
탁
탄
탈
탉
탐
탑
탓
탔
탕
태
택
탠
탤
탬
탭
탯
탰
탱
터
턱
턴
털
텀
텁
텃
텄
텅
테
텍
텐
텔
템
텝
텟
텨
텼
토
톡
톤
톨
톰
톱
통
톺
퇴
투
툭
툰
툴
툼
퉁
퉈
튀
튄
튐
튕
튜
튠
튤
튬
트
특
튼
튿
틀
틈
틔
티
틱
틴
틸
팀
팁
팅
파
팍
팎
판
팔
팜
팝
팟
팠
팡
팥
패
팩
팬
팰
팸
팹
팻
팽
퍼
퍽
펀
펄
펌
펍
펑
페
펙
펜
펠
펨
펩
펫
펭
펴
편
펼
폄
폈
평
폐
포
폭
폰
폴
폼
폿
퐁
표
푯
푸
푹
푼
풀
품
풉
풋
풍
퓨
퓰
프
픈
플
픔
픕
피
픽
핀
필
핌
핍
핏
핑
하
학
한
할
핥
함
합
핫
항
해
핵
핸
핼
햄
햅
햇
했
행
향
허
헉
헌
헐
험
헙
헛
헝
헤
헥
헨
헬
헵
헷
헹
혀
혁
현
혈
혐
협
혔
형
혜
호
혹
혼
홀
홈
홉
홋
홍
홑
화
확
환
활
황
횃
회
획
횟
횡
효
횻
후
훅
훈
훌
훑
훔
훗
훤
훨
훼
휘
휙
휜
휠
휩
휴
휼
흄
흉
흐
흑
흔
흘
흙
흠
흡
흥
흩
희
흰
히
힉
힌
힐
힘
힙
힝
##포
##감
##을
##부
##해
##졌
##다
##뢰
##기
##반
##어
##준
##차
##를
##V
##속
##D
##P
##R
##은
##작
##본
##텍
##스
##트
##축
##도
##혀
##져
##s
##e
##S
##l
##c
##t
##o
##r
##의
##h
##i
##과
##이
##란
##열
##변
##수
##한
##아
##보
##쳐
##프
##리
##하
##록
##더
##로
##서
##n
##a
##M
##p
##E
##g
##y
##조
##될
##장
##님
##라
##면
##v
##u
##격
##파
##별
##득
##커
##출
##는
##데
##모
##비
##b
##k
##경
##가
##며
##C
##에
##화
##함
##F
##금
##흐
##름
##표
##드
##간
##만
##호
##용
##m
##N
##U
##B
##형
##d
##J
##원
##메
##시
##O
##T
##요
##청
##링
##되
##지
##랍
##핑
##으
##정
##직
##대
##그
##래
##선
##와
##A
##X
##문
##법
##칙
##x
##교
##자
##치
##여
##진
##런
##랙
##공
##성
##사
##틴
##터
##방
##식
##판
##턴
##전
##처
##럼
##주
##저
##닝
##I
##Q
##림
##캐
##쟁
##려
##G
##휘
##된
##할
##셨
##던
##워
##고
##약
##봤
##나
##신
##킹
##질
##곱
##털
##일
##활
##야
##폭
##적
##인
##료
##값
##봅
##니
##ㆍ
##안
##른
##L
##W
##맨
##확
##산
##게
##소
##었
##물
##들
##램
##현
##력
##둘
##번
##행
##세
##술
##년
##능
##킬
##업
##계
##각
##픽
##카
##볼
##루
##션
##습
##버
##중
##립
##황
##점
##즉
##슨
##제
##양
##험
##닐
##까
##관
##회
##귀
##분
##석
##냈
##외
##므
##두
##류
##했
##오
##긴
##길
##붙
##마
##티
##풍
##동
##엔
##첩
##코
##H
##랑
##획
##f
##운
##강
##매
##팅
##렬
##망
##섭
##생
##상
##품
##헤
##징
##칼
##레
##츠
##벌
##불
##색
##투
##디
##움
##융
##학
##봇
##미
##타
##발
##밍
##릿
##K
##린
##략
##국
##환
##우
##쯤
##역
##량
##w
##러
##뿐
##입
##폐
##증
##위
##병
##글
##측
##콤
##블
##렌
##앙
##숙
##론
##q
##락
##혜
##z
##네
##탈
##써
##베
##찬
##근
##무
##히
##팀
##말
##급
##맙
##켜
##릴
##편
##심
##퍼
##크
##퀴
##체
##실
##겠
##집
##훌
##륭
##늬
##혼
##합
##델
##월
##렵
##평
##컴
##영
##등
##임
##초
##톱
##종
##목
##거
##뒀
##꾸
##담
##껴
##웠
##았
##단
##팩
##브
##먼
##유
##찰
##복
##엘
##릭
##꾼
##련
##춘
##토
##클
##철
##명
##구
##머
##쏠
##악
##배
##내
##죠
##설
##Z
##족
##추
##달
##짝
##듯
##백
##바
##늘
##권
##협
##결
##렉
##컵
##늄
##곤
##웃
##너
##였
##j
##냐
##딩
##액
##맵
##키
##피
##훈
##홈
##싱
##돌
##플
##랜
##후
##좌
##재
##텐
##셔
##널
##쁠
##팡
##최
##군
##펴
##테
##틀
##르
##개
##얼
##윅
##꽃
##놀
##음
##줄
##웨
##퀀
##웅
##덩
##건
##연
##없
##눗
##셈
##육
##릇
##난
##람
##존
##줘
##튼
##쓰
##막
##뮬
##례
##큼
##항
##룸
##벗
##탐
##딪
##졸
##캣
##빌
##광
##충
##언
##남
##윗
##염
##든
##통
##춰
##컨
##애
##팟
##균
##극
##쫓
##답
##겨
##윤
##당
##Y
##억
##펙
##헐
##천
##렁
##롱
##페
##절
##익
##률
##견
##십
##놓
##령
##꼭
##척
##샘
##넷
##같
##칠
##씩
##칸
##민
##돼
##럽
##뚜
##율
##풋
##캔
##즘
##순
##노
##멘
##즈
##솟
##온
##딧
##향
##밀
##친
##녔
##뤄
##휴
##숭
##응
##콜
##태
##누
##센
##칭
##젯
##슈
##창
##킨
##택
##침
##먹
##곽
##찔
##착
##샤
##알
##필
##혈
##패
##힐
##뷰
##첨
##곡
##럴
##랩
##잡
##킷
##닥
##픈
##깅
##벽
##칫
##떨
##튜
##랐
##책
##템
##완
##쇄
##퓨
##좀
##취
##올
##빈
##송
##혹
##검
##닉
##갈
##날
##뚫
##희
##쾌
##왔
##봄
##엑
##있
##줌
##즌
##걸
##룬
##폰
##범
##탄
##샵
##뉴
##폴
##층
##힌
##멸
##밌
##느
##총
##굴
##뜨
##됩
##쉬
##롭
##받
##툴
##캘
##섹
##멀
##뇌
##떡
##볕
##첼
##콘
##딕
##짐
##웹
##맷
##촬
##탁
##짓
##롯
##텔
##께
##봐
##끝
##갑
##룩
##헌
##팔
##썬
##촉
##셀
##룹
##채
##곧
##셸
##압
##듀
##벨
##북
##빠
##접
##슁
##혁
##ㅣ
##잇
##케
##울
##큰
##덤
##독
##겟
##잣
##틱
##젝
##펄
##효
##녁
##엠
##잔
##렐
##규
##객
##줍
##났
##똑
##겹
##옵
##륨
##앤
##톤
##갤
##맥
##탠
##짜
##짧
##밋
##됐
##젠
##벤
##끼
##텀
##폼
##넬
##냅
##렇
##참
##박
##눅
##럭
##찾
##슬
##많
##예
##묵
##컷
##랫
##팝
##괴
##넣
##홀
##낼
##닫
##븐
##겁
##쳤
##둥
##켓
##륙
##긋
##념
##넉
##쿠
##셜
##뮤
##큐
##퇴
##승
##삭
##괄
##렀
##겔
##셋
##낸
##츄
##앉
##옴
##잘
##욱
##씨
##덱
##칩
##꿔
##궁
##짚
##것
##몇
##젤
##앱
##롤
##됨
##닌
##빵
##섬
##땅
##않
##김
##새
##셉
##높
##쏘
##쁜
##벡
##낮
##틈
##갔
##덜
##빔
##찮
##앵
##싹
##랏
##렛
##싸
##롬
##땜
##허
##팸
##흥
##닛
##렴
##덕
##즐
##렸
##밸
##욕
##갱
##맞
##춤
##쪽
##살
##곳
##샷
##믈
##팎
##첫
##째
##싶
##읽
##탭
##깔
##넨
##빅
##켰
##밖
##찌
##꼴
##둔
##봉
##풀
##슐
##닷
##낌
##쌤
##녀
##잎
##엇
##넌
##끗
##뭉
##돈
##홍
##맺
##냥
##핵
##펜
##푯
##펌
##손
##왕
##췄
##팁
##힘
##빡
##좋
##쇼
##몬
##윈
##곰
##뀌
##뉘
##끔
##듭
##쿱
##넘
##큇
##꼽
##따
##흘
##삽
##쇠
##묻
##퉈
##듈
##삼
##쓸
##떤
##힙
##켈
##훅
##믹
##컬
##킵
##암
##또
##맹
##빗
##겼
##잉
##빙
##럿
##톡
##룡
##쪼
##긍
##얀
##떠
##떻
##몹
##랗
##땡
##벅
##캠
##딱
##밴
##릅
##얏
##깝
##랄
##깃
##텟
##못
##셰
##앗
##찍
##띠
##꽂
##헬
##묘
##흡
##퀼
##몽
##쥬
##논
##몰
##탯
##궂
##둬
##듬
##켄
##눈
##낵
##빛
##밭
##퀄
##썼
##렙
##때
##겸
##옹
##쿼
##쿨
##둑
##쉔
##핸
##잠
##엄
##혔
##텅
##챗
##딘
##챠
##솔
##쿰
##흙
##숫
##샬
##귈
##뽕
##잭
##튬
##캇
##떼
##덮
##특
##촌
##꺽
##푸
##귤
##납
##텝
##묶
##왑
##뚱
##씀
##섰
##킴
##팹
##벙
##옥
##끌
##팬
##탕
##렘
##쌓
##윕
##뉜
##뱅
##뛰
##놈
##뻔
##텁
##햇
##랭
##밤
##죄
##샌
##슷
##갭
##콕
##첵
##숨
##깨
##챌
##골
##썩
##뜻
##꼼
##넙
##샨
##뜰
##앨
##콩
##탬
##숩
##냄
##앞
##똥
##흑
##삿
##쓴
##쉘
##썽
##뤘
##꺼
##윳
##멩
##쌌
##듦
##늑
##얌
##댑
##잖
##댓
##닦
##셍
##콧
##숲
##캡
##넛
##맛
##퀘
##깁
##깥
##썸
##쨌
##큘
##뎌
##쉐
##뱃
##뷸
##옮
##캉
##둠
##꼬
##꽉
##쿄
##턱
##쓱
##밥
##뜸
##닙
##딜
##엽
##랬
##핀
##펀
##줬
##맡
##쉽
##섞
##넥
##헨
##몫
##욘
##핏
##눠
##및
##꿀
##뿌
##푼
##탑
##얽
##녕
##돋
##옷
##퐁
##춥
##톨
##룰
##빨
##꿉
##쁘
##윙
##웍
##돔
##갯
##뻤
##쩌
##놉
##껏
##윽
##씬
##꿈
##겐
##얗
##놨
##툰
##늠
##껑
##웁
##꼈
##톰
##뎀
##녹
##괏
##괜
##쭉
##펠
##빼
##낙
##멍
##벼
##깊
##쁨
##눴
##벳
##얻
##뜬
##볍
##틸
##펑
##빴
##딥
##룽
##깐
##깎
##렝
##쿤
##왜
##썹
##륜
##귄
##슴
##끄
##렷
##쑤
##뺄
##쌍
##쥐
##땠
##훨
##챙
##꾹
##눌
##밝
##죽
##둡
##섯
##낭
##췌
##폈
##캄
##낀
##딛
##젼
##캅
##멜
##팠
##뒤
##랖
##튀
##텨
##몄
##뭇
##팽
##띄
##꿋
##씰
##싯
##닿
##멋
##꽁
##튠
##껍
##밧
##퉁
##륵
##뚝
##굿
##폿
##끈
##곗
##멈
##탉
##쉼
##쩡
##숍
##덟
##댄
##뇨
##뀐
##탱
##콥
##릉
##듣
##넓
##펫
##뉠
##몸
##탤
##얄
##됴
##덴
##깍
##낑
##뱉
##벵
##랴
##닢
##뿜
##뺑
##쩍
##낱
##쥼
##ㅋ
##붓
##뀜
##얘
##읍
##웜
##눔
##잃
##꿨
##뼈
##농
##흔
##맸
##옆
##욜
##첸
##뭅
##퀸
##썰
##걀
##쾅
##쑥
##팍
##꿍
##팜
##혐
##웰
##뚤
##짇
##볶
##솜
##츨
##굽
##젓
##숏
##똘
##홉
##댈
##룻
##쉰
##낄
##뽀
##돗
##뽑
##갓
##뭔
##큠
##덧
##쭤
##쥔
##햄
##칵
##튿
##밑
##횡
##댕
##낍
##갖
##걱
##딤
##빽
##휼
##뿍
##맬
##댔
##ㅎ
##ㅅ
##옇
##삐
##땐
##멕
##쿵
##맘
##쩔
##쯔
##멧
##굣
##붉
##뎁
##촘
##띵
##낫
##쉴
##깜
##쬐
##휠
##앴
##줏
##쏙
##샴
##좃
##뿔
##헙
##붐
##짱
##핥
##숴
##뜩
##ㄴ
##뺀
##멤
##츰
##갚
##쿡
##궐
##밈
##싼
##툼
##엎
##궈
##슝
##냇
##컥
##꽤
##꽝
##끽
##릎
##뭄
##짖
##챘
##핌
##퓰
##굉
##뉼
##윌
##뿅
##딸
##귿
##쳔
##밟
##굼
##돕
##뵙
##붕
##짤
##뷔
##냉
##컫
##샅
##픔
##놔
##낏
##뛸
##뀔
##궜
##횟
##퍽
##욋
##냠
##켠
##닭
##쇰
##찐
##핫
##쫄
##씽
##씌
##찜
##늦
##뻐
##뚠
##짬
##끙
##찼
##훗
##펭
##엣
##솝
##뎅
##컹
##쥴
##뤼
##넜
##맑
##쌀
##랠
##듐
##쌩
##갛
##뎠
##흉
##뎃
##퀵
##쏭
##땀
##핍
##넸
##끊
##뒷
##낚
##콰
##쭐
##툭
##굳
##씹
##쟉
##찝
##틔
##옐
##겊
##춧
##띤
##갬
##젂
##긱
##졍
##낯
##힝
##잼
##웬
##궤
##윔
##팻
##쁩
##덫
##뱀
##젖
##삶
##껌
##딴
##챕
##앰
##엿
##뀝
##쌉
##흠
##욧
##뛴
##깽
##켐
##ㅡ
##푹
##엉
##헷
##뻑
##찻
##픕
##뻣
##ㅏ
##웝
##ㄷ
##ㅇ
##쎄
##뮈
##뉩
##챔
##횻
##텼
##숑
##샐
##흰
##찹
##녘
##댐
##쌔
##펼
##읔
##띔
##뭐
##섦
##웤
##쪄
##뾰
##뜀
##쎈
##쉑
##쩐
##볐
##뮐
##묜
##끎
##탰
##하기
##이터
사용
##에서
데이터
##하는
##으로
프로
##er
##니다
만들
##on
만들기
##스트
##하고
방법
프로그
##ti
활용
##ter
##ap
함수
기능
있는
이용
##이션
##한다
##TE
기본
##in
개발
##습니다
##hap
##ec
이해
##hapter
분석
##tion
##or
파일
##적인
설정
구성
문제
Chapter
##AP
##이스
모델
위한
##TER
CH
##보기
있다
##APTER
CHAPTER
실습
프로그래
설명
##젝트
##es
##하여
##ar
학습
##en
파이
생성
알아
관리
코드
기술
프로그래밍
##비스
예제
##이다
디자
이미
구현
요약
도구
알고
##at
##하게
소개
프로그램
다양
##it
인공
설치
##스템
내용
처리
그리
##워크
프로젝트
이미지
디자인
##le
컴퓨
코딩
다양한
필요
작성
대한
시스템
실행
서비스
##ON
##ection
알고리
이용한
##문제
추가
##an
개념
구조
적용
알고리즘
작업
시작
##이트
##이드
정보
##지능
##케이션
연습
파이썬
##래스
##플리
인공지능
사용하기
인터
있습니다
살펴
##플리케이션
핵심
게임
##as
##서는
환경
따라
##러닝
Section
애플리케이션
테스트
##적으로
사용자
##까지
문자
##도록
클래스
네트
##ro
##al
##스크
클라
선택
정리
##이지
언어
##부터
컴퓨터
통해
네트워크
기초
연산
여러
확인
방법을
##웨어
영상
##프트
하는
보안
##ac
서버
객체
책은
다루
그래
편집
##et
레이
에서는
입력
저장
##ess
##떻게
어떻게
제공
자동
기반
##에게
##SS
변경
머신
가지
대해
간단
##re
##이브
필요한
위해
##베이스
정의
##lo
##ing
화면
연결
##에서는
##정하기
##합니다
변수
연습문제
##우드
##면서
##mp
단계
효과
사람
##지만
설계
실무
##입니다
자바
AP
##el
것이다
##st
클라우드
독자
과정
데이터베이스
준비
자료
아이
##들이
표현
##스터
##들을
있도록
텍스트
##립트
##ol
##ic
제작
무엇
구축
함께
다른
##AR
해결
##CT
시간
##QL
쉽게
소프트
##로운
##ut
알아보기
책의
방식
모든
개요
패턴
관련
##디오
##ㆍㆍ
##되는
##라인
데이터를
##이너
API
개발자
사용해
명령
검색
소프트웨어
LE
##마트
프레
##크로
스마트
스크
St
마이
요소
##od
##러리
응용
배열
##ECT
페이지
##페이스
만들어
이해하기
##ra
##드로
연산자
##ART
설정하기
라이브
문서
##데이터
모듈
살펴보기
가능
조건
##경망
배우
변환
제어
계산
스프
출력
반복
타입
사용하는
가장
사례
##레이
그리고
시각
새로운
##ION
중요
엑셀
지식
PART
##본다
우리
그리기
라이브러리
또한
실제
책을
생각
딥러닝
##이블
##영상
접근
문자열
그림
신경망
##하지
같은
부분
##ent
사진
운영
이용해
스타
##ECTION
SECTION
Less
동영상
##대로
Lesson
##ect
많은
##ed
특징
설명한다
##art
머신러닝
인터페이스
결과
분야
##메이션
분류
직접
어떤
표시
LESS
LESSON
컴포
애니
기능을
리스트
경험
내용을
##키텍
활용하기
##하다
아키텍
##oo
저자
##ep
기법
##ab
하나
##인가
정렬
##세스
##is
테이블
##벤트
AI
애니메이션
있을
이벤트
사용한
배경
블록
속성
필터
HT
레이어
프레임
확장
영역
전문
소스
그래프
##드는
##ML
적용하기
빅데이터
##토리
동작
공부
주요
원리
아니
스프링
버전
아키텍처
것이
##오기
##해야
SQL
스타일
가상
패키
##로드
##ag
차트
구글
모델링
##ig
배포
##에는
성능
이론
시각화
최적
메모
마이크로
패널
##넌트
삭제
상태
##스크립트
컴포넌트
##이란
활용한
추가하기
한다
##ch
만드는
##라이
##ri
비교
종류
패키지
##om
보기
고급
##이나
##로그
##하며
참고
##드로이드
교육
안드로이드
##르게
로그
관계
실전
부록
##기능
입문
삽입
##으며
익히
##am
##했다
예측
윈도
##하였
유튜
이동
##ub
처음
도움
사이
일반
통합
오브
인터넷
##em
사항
Part
##되어
바로
과학
##디어
##ul
대상
프로세스
때문
세계
##인트
In
##플로
##력을
아니라
디지
업무
최신
##에서의
디지털
미래
탐색
##테이너
##아웃
완성
트리
최적화
##거나
##들의
컨테이너
##언트
오브젝트
메시
##il
포토
통계
설치하기
##해서
경우
메모리
윈도우
##보자
연구
문법
Pro
있어
##ay
플랫
##보다
amp
프로토
메뉴
평가
##ation
##기를
자바스크립트
##이라
다루는
가져
암호
##들은
형식
##ur
이름
##ate
##레이터
다룬
##AN
조절
##las
##ve
간단한
수집
##펙트
플랫폼
##이는
IP
유튜브
추출
효율
인간
##ow
##ot
우선
수학
##OS
메서
컨트
##ver
##성을
사용법
##세요
문제를
이유
##플릿
##oc
스마트폰
빠르게
##하면
공격
없는
찾기
##었다
전체
##um
색상
코드를
회귀
그래픽
변화
##ud
자신
핵심기능
알려
있게
시작하기
공유
##티브
마치
추천
##눅스
##티스
복잡
좋은
스트
##ad
프레임워크
##보드
작성하기
포토샵
변경하기
번째
통신
리눅스
수정
STE
콘텐
계층
메서드
시대
UI
다루기
스케
필수
이펙트
템플릿
어려
위치
크기
STEP
숫자
보고
형태
##인터
##지는
지정
책에서
다운
싶은
##러스트
컴퓨팅
생성하기
모두
##파일
##하면서
용어
전략
Op
사이트
요구
바꾸
다룬다
오류
##id
##학습
전문가
일러스트
##내기
사용할
논리
콘텐츠
수행
##ㆍㆍㆍㆍ
인증
##ex
구하기
도형
배치
지원
##TP
##un
컨트롤
참조
사고
##서비스
이야
이용하여
##ode
개념을
개의
순서
인식
슬라
##se
##이기
통한
##니터
표준
모니터
##WS
들어
기업
##바일
##주는
##코드
도전
자연
##ST
스크립트
##처럼
그룹
##러스터
배운
구현하기
##lass
모바일
합성
또는
클러스터
특정
for
옵션
##nit
##소스
발생
##ew
AWS
##만의
레이아웃
유형
프리
단순
자세
##보고
메시지
플러
않는
예제를
것을
서식
Ex
누구
범위
##하려
포함
이상
마치며
실행하기
##들에게
##pp
기계
산업
강의
오디오
확인하기
모드
##처리
프로그램을
명령어
##레이션
Con
주제
채널
슬라이드
##점을
##ile
네이
HTML
장에서는
흐름
##버네
유용
##다면
원하는
것입니다
##순위
스토리
진행
##니티
##이고
##릭터
목표
js
중요한
보여
##ce
##이언트
##시키
##사항
자동화
가능한
트랜
저장하기
캐릭터
클라이언트
전달
공간
st
빌드
##스를
발전
우선순위
소개한다
##레드
목록
마이크로서비스
초기
##ue
개인
불러
##ind
벡터
움직
찾아
IT
로봇
##프레
##버네티스
쿠버네티스
프로토콜
다운로드
되는
##스로
##하자
기술을
스파
지정하기
##우기
리액
무엇인가
##변수
과정을
배울
##ata
양자
정규
##us
상세
##하라
도구로
하드
된다
##im
주소
##테이션
##메라
기본적인
##age
도커
차원
키워
다중
수준
등록
##CP
검증
개선
대화
인덱
살펴본다
도움이
역할
만들고
다음
##ist
##하우
재미
쉽고
차이
전환
의미
카메라
기존
복사
이야기
모니터링
타이
##av
결정
Re
인스
데이터의
##무리
현재
in
것은
기획
중심
익히기
여러분
제대로
##NS
가져오기
텐서
하지만
##ion
##int
쿼리
디버
멀티
##준다
재생
지금
제품
##운드
따라하기
있는지
분산
알아본다
비트
작동
Sp
##DB
수식
class
오픈
제거
##니어
호출
정보를
##ack
예외
상황
많이
하기
##즈니
선형
##분석
강화
에서
훈련
규칙
질문
러닝
지능
등을
엔진
이해할
##ject
라우
##러시
계획
제시
때문에
##프라인
이제
##th
파워
스파크
비즈니
##ir
기타
날짜
##NN
바꾸기
이를
지도
입력하기
빠른
워크
Col
편집하기
##러한
클립
Open
##ine
가이드
관리하기
##인지
JS
CSS
##eb
노드
사전
조작
##소드
마무리
있으며
##est
세상
조절하기
##루션
관심
단위
##tt
##li
디자이너
고려
알아야
##yp
읽기
##ort
비디오
비즈니스
없이
외부
##이어
마스크
향상
##ng
##시간
내부
시리
##포인트
사회
##and
온라인
포인터
HTTP
시험
##까요
항목
메소드
어디
특히
파악
행렬
##리에
하드웨어
if
동적
기준
무료
##ool
##up
##ram
##able
노하우
##그램
##자의
플러그
VR
만든
브러시
책이
표시하기
Step
##도를
태그
PC
##리는
##렉션
반복문
동시
연동
##ER
렌더
복잡한
##페이지
장치
정확
##체인
전송
플레이
플러그인
##iv
##에도
누구나
RE
학생
혼자
##틀린
##되고
설명하고
스트림
배우는
코딩을
현실
변형
##트리
파일을
이러한
코틀린
##라우
스택
##SQL
노트
이런
하고
보고서
역사
안내
회사
chapter
##og
유용한
대응
확률
수정하기
출력하기
인프
활동
##자를
##라는
불러오기
관한
##사이트
그러
제공하는
이해하고
버튼
센서
디버깅
##리오
활용할
개념과
단어
과제
##가는
일러스트레이터
인쇄
자유
디자인하기
애플리케이션을
##자가
다시
방향
마스터
##구조
사용하여
##PU
##지막
재미있
##스의
##ure
##iew
##정보
인프라
##ock
##end
마지막
##데이트
##ext
않은
취약
업데이트
##포트
##iz
##었습니다
프리미
Unit
##ps
스위
파이프라인
보정
상호
##orm
도구를
##부분
텐서플로
선언
##라도
DB
##했습니다
##라우저
요청
유지
##먼트
리액트
분할
프로그래머
자막
모델을
키워드
Tr
단축
상속
Sc
체계
특성
CC
부트
컴파일
나만의
함수의
보호
개체
서브
##실습
최근
측정
##메인
프로그래밍을
도입
##지니어
블록체인
계정
유니티
##이프
##르기
##파이
##별로
##눈에
##omp
##io
##봅니다
활용해
con
Ch
미리
영향
자주
블로그
##ge
메타
장에서
한눈에
Po
사물
매크로
보면
않고
##으면
##스팅
초기화
물리
##출문제
엔지니어
대해서
목적
더욱
매개
앱을
프로젝트를
정책
##출력
##igh
삭제하기
평균
##ak
##IP
어렵
등의
하이
도메인
##if
프리미어
브라우저
##르는
지식을
암호화
결론
##ork
검사
모의
UX
물론
오버
촬영
게임을
관련된
스레드
경로
바탕
가치
컬러
어려운
있고
구성하기
##ava
TCP
초보자
자료형
An
리소스
##라미
사용되는
최소
합니다
방법과
미디어
속도
##indow
##NI
##리기
##하였다
##체제
접속
##ND
쉬운
없다
추상
##OR
알고리즘을
자세히
div
선택하기
따른
최대
서비스를
##코딩
분리
##튜디오
운영체제
실시간
##op
결합
준비하기
모양
샘플
의사
입출력
##ace
나누
wh
##tic
읽어
장점
복제
렌더링
Data
능력
##롭게
인스턴
My
com
권한
##ity
작업을
배워
##지를
인덱스
시리즈
반응
사운드
##하거나
##지향
##동기
인공지능의
ID
타임
표현하기
커널
삽입하기
워드
##low
이어
피벗
풀어
##성과
배우고
솔루션
카드
##로서
Py
완전
Ser
##리스
어느
##봐요
De
구문
도서
비동기
꾸미
##기기
##마다
등장
할당
동기
처리하기
원칙
이진
스크래
패스
대표
아닌
안전
조직
회전
##이더
##지도
함수를
##ip
##UI
핵심기능실습
보정하기
기록
언어를
조회
컬렉션
##ial
##MS
##므로
번역
테크
##리티
##리를
스튜디오
##수의
##yn
##버스
##ff
궁금
##아가
##치는
시퀀
##ook
제한
이미지를
기억
지속
추적
##각형
매개변수
시스템의
구조체
루프
필드
라즈
##성화
##하였습니다
##ey
상품
실험
정도
디렉
매우
절차
htt
완벽
기반의
현장
##트로
교재
영화
##자인
##ans
AR
보는
##자와
##젠테이션
성공
네이티브
##DF
시스템을
스케치
##이즈
##라이버
웹사이트
##시피
##들과
고민
카프
계산하기
고객
##ting
객체지향
제공한다
##ear
sp
레시피
프린
집합
저장소
수업
포트
먼저
카프카
대학
전처리
파워포인트
기능으로
맞는
의존
##ser
필터링
쓰기
대부분
##PA
분석을
시나
방법에
while
공개
##IN
##qu
Lab
조합
##하려면
##라미터
스스로
##화된
##사의
높은
기반으로
자연스
링크
주의
책에서는
##라고
##OP
구분
배운다
조정
##ain
##나는
표현식
App
##지기
강력
마음
음성
함수형
게시
##았다
활용하여
실제로
일상
하면
##act
연결하기
모션
병렬
흥미
##he
단축키
##ens
관점
##으로써
적합
##이노
하나의
취약점
바탕으로
파이썬을
식별
한글
##프레임
Go
vs
##고사
Ad
OS
구체
##베리
프레젠테이션
도와
수록
요구사항
언제
작업하기
일반적인
##에서도
나타
##rap
##gle
인스턴스
##oT
협업
그런
##럽게
꾸미기
그렇
경험을
Ar
re
라즈베리
##ase
##라면
활용하는
##수를
##리얼
##코더
##ith
원리를
##하도록
##내는
무엇을
원격
전자
변환하기
깊이
컨트롤러
##thon
##보는
Color
##ET
조건문
##ight
실용
생활
##나요
함수로
업로드
##레이드
데이터셋
##ite
Node
위험
##ery
알고리즘의
주는
품질
##os
##메일
보자
##스처
##엔드
##뿐만
Sh
포인트
분석하기
로그인
강조
집계
##주기
라우팅
위젯
##랍니다
##lot
아이템
익숙
##시트
모델의
아이디어
Cont
채우기
충분
커뮤
존재
##이의
하이퍼
창의
##pt
##잭션
##all
사실
##지고
##그래
##된다
##바이스
얼굴
오토
자료구조
IoT
##절한
아이콘
비전
활성화
있을까
트랜잭션
##nd
##AS
리뷰
시계
Sy
##ring
정리하기
레벨
바랍니다
익힐
##udio
종료
##ment
스크래치
파티
글자
드로
무작
시트
##ard
넘어
번호
##기에
알파
JSON
기출문제
모형
비용
##함수
##ma
언어의
pro
국내
에디
음악
홈페이지
중첩
한국
스토리지
No
액션
프로그램의
CO
넣기
전반
체크
##시키기
내가
##ype
REST
매핑
지역
결과를
시퀀스
Java
순환
최고
행동
내장
네이버
학습할
값을
단일
디스크
##디자인
부족
소개하고
이후
해킹
백업
자신의
##ction
##ress
##지션
관리자
임베
전에
추출하기
모의고사
##스틱
##일까
이전
Tool
집중
##터리
##ㆍㆍㆍㆍㆍㆍㆍㆍ
성장
##혁명
##예제
##드시
##많은
##없이
폴더
##셔너
프로그래밍의
MySQL
편리
##치기
##오는
##ath
복구
배우기
자연어
에러
##out
으로
방식으로
수도
재귀
튜닝
강화학습
장은
딕셔너
##관리
##AB
디바이스
얼마
##ual
##해보기
파라미터
##작용
일부
함수와
##ory
대비
출판
우리가
시뮬
압축
능력을
읽고
정적
중복
##loud
미션
있지만
해당
해봐요
수많은
문장
##들도
##화하기
시나리오
이해하는
저자는
심층
책에
##우스
조금
설명합니다
##lic
##ix
##AT
따라서
Ed
메일
아파
##다고
우리는
복습
한계
##ore
본문
스케줄
SS
##법을
없을
읽을
영상을
Aut
병합
##다는
효율적으로
이번
회원
##uery
Web
축소
다루고
##ox
앞으로
이메일
그레이
들어가
반영
블루
의한
##ocker
신뢰
##ator
##St
##학교
대상으로
나아가
책이다
하였
그림을
트랙
##cri
##그레이드
저자의
테크닉
람다
포맷
##서치
##UM
##블리
##rol
엔트리
스피
패킷
기법을
반응형
광고
장의
환경을
상관
업그레이드
기술의
자동으로
##oogle
에디터
아마
마케
Exp
드로잉
군집
되어
로드
##이라는
합성곱
자율
개발을
##stem
LED
액세스
파일로
##성이
##했던
##ft
PH
gt
해설
##텍스트
##하는지
아니다
##두이노
메인
구성되어
아두이노
##bject
반환
생명
유사
익스
반드시
제약
환경에서
산업혁명
것인가
캐시
##되지
기기
탐지
입문서
보세요
저자가
대체
확대
##할까
테마
해야
##ise
GUI
라이트
예시
효율적인
Comp
작품
제목
주석
시간을
인간의
알림
##프터
##셉트
가진
실력
이슈
##ob
게이트
##적이고
예제로
맞춰
인공지능을
DA
공통
세트
친구
##ong
##하고자
제작하기
TIP
발견
토큰
##토어
딕셔너리
Google
검토
대하여
정렬하기
주기
##ID
경험이
##ice
애프터
##atch
무엇인지
집필
##과학
공식
대시
챗봇
크롤
상호작용
Mod
##LE
맞추
지향
개발에
기술이
정보보
자동차
사람이
금융
트래
##퍼티
진화
가지고
it
옮긴
##스텀
##IF
##려면
##tive
##RO
작은
##AM
사이버
아파치
서로
구조와
Trans
ex
느낌
로컬
PHP
XML
막대
##ys
수치
##ord
Sub
쇼핑
##form
구조를
연관
디자인을
플레이어
자체
커스텀
SD
있다면
사례를
분야에서
세부
구현하는
그러나
Do
노력
이렇
파트
##ly
이것
프로퍼티
span
##로부터
##시스템
##인터넷
특수
강력한
당신
오늘
인공지능이
변수와
CPU
PDF
시장
##ib
##하시
방법론
케라
특별
헤더
SNS
비밀
생산
##르고
API를
##ayer
자연스럽게
CNN
머리
이더
##어요
참고문
Pl
로고
이모
참고문헌
프로토타
시계열
##게이션
Project
디스
유효
점검
책으로
대시보드
Cloud
##티콘
##히기
학습을
알아두
이동하기
##cript
VP
조인
초등
##tr
구축하기
악성
##노트
시뮬레이션
co
상수
개정
심화
쓰는
장면
##CS
##래그
요소를
II
##거리
시작하는
여기
##ww
라이브러리를
출제
동시에
아트
장애
##uc
이용하기
부분을
Th
다이어
www
것으로
라는
UNI
대신
등이
응답
##줍니다
DNS
드라이버
셰이더
##ign
인물
최종
##번호
타이틀
파일의
해시
##AC
##해요
그리드
##만으로
##칼라
생성자
컴퓨터의
기초를
맞춤
조건부
때문이다
한번
##렌드
과정에서
사물인터넷
이모티콘
매출
카페
##VM
##스와
중심으로
Window
자원
##ence
오픈소스
내보
랜덤
##는지
##ary
분야의
해석
##감을
애플리케이션의
##기술
##하려는
각종
보다
##더라도
##는다
##OM
도움을
움직이는
자기
##사용
UR
예상
텍스처
살펴보고
분포
##세서
있다는
실무에서
매니
##트릭
##플레이
##받기
##ink
제거하기
##상자
Hel
이루
##ler
개인정보
간의
레지
세션
순차
공학
기호
여행
조정하기
##PE
##ax
https
클릭
##are
내비
##하지만
방법으로
ML
##생활
파이썬의
이렇게
메이
재질
판단
페이스
##me
연계
##ton
일을
##주얼
##현실
해결하기
감지
스칼라
입체
중급
출간
같이
연속
##어진
파이썬으로
Python
##이며
##터의
수익
기능과
소개합니다
할까
데이터에
설치와
방법도
교차
발생할
번에
GAN
합계
##ari
마케팅
LAB
크리에
정의하기
System
CS
멤버
풍부
##소프트
##ray
가상화
br
거래
하둡
##전파
MV
무선
추론
컨텍스트
회로
작성하는
움직임
가르
어디서
th
소셜
일정
조사
##ree
변수의
##ame
경쟁
동안
중간
핸들
하는지
##프로그
##카오
효과를
나누기
NO
Tim
##이자
##관계
검출
문헌
얻을
##패드
방식을
##시키는
노하우를
내비게이션
##ont
##ition
##라클
##티비
적용할
위해서는
해결하는
##rame
비주얼
##NT
커뮤니티
얼마나
아마존
데이터와
스피커
내보내기
너무
뛰어
엔터
카카오
##ug
있으
언어로
자격
참여
튜플
무작정
안정
알아보고
클래스와
OpenC
디렉터리
##티비티
##DP
##디언트
##았습니다
이해를
kr
알기
자르기
표기
등록하기
UNIT
오라클
체험
실습을
알아봅니다
개발자가
Docker
##AL
##식을
명령으로
스트리
싶다
액티비티
##loc
패턴을
만화
##대한
않는다
의존성
그려
##te
##oft
##러운
실무에
지식이
우리의
Bl
에이
정수
##utton
정규화
계속
제네
##ev
##ers
스위프트
역량
태스크
테스트하기
배치하기
보여준다
En
판매
##plot
##ang
크로
##함으로써
문제점
입문자
스트리밍
바인
선정
차근
히스
재미있게
##Query
사진을
습득
원형
교과
상상
##컴퓨
##을까
##기는
소통
##스케
Inter
옮긴이의
글꼴
기대
리팩
##ance
CL
Net
국가
제어하기
해제
기회
##란다
설명하는
도구와
배열의
영향을
개수
종합
##자일
##었던
어려움
복사하기
섹션
잘못
좋아
##uth
Point
보내기
프로파일
제공합니다
Windows
Map
##our
##코프
페이스북
OpenCV
Key
노출
됩니다
##PI
마지막으로
##ensor
그것
스테
올바
투명
##work
인공지능과
##ize
AS
만나
충돌
##어나
##들에
바란다
신호
투자
##View
##ss
강좌
주도
혁신
##차근
##DD
기술과
그래서
거의
로지
맞게
스키
##정에
내용은
##이라고
Sel
책임
탄생
##per
##ush
기울
##와의
##한다면
이론을
to
볼륨
안에
##이징
##맨드
##ask
차근차근
로지스틱
명확
보드
아직
애자일
제네릭
현대
##DA
##환경
##규모
서비스가
##ach
크리에이터
ST
동일
인지
최고의
곡선
직장
중지
##리드
##ange
클래스의
신경망의
적합한
다룹
로직
영어
크게
혼합
##EE
##ust
사용자가
다룹니다
가변
교수
리터
방지
코딩의
객체의
URL
EC
Hello
RNN
감각
아주
이중
##요소
코드로
##이라면
##ide
뉴스
비지도
슬라이
전공
##ld
효과적인
충분히
미니
브랜
친절
##lse
분석과
이론과
크롤링
길이
모르는
와이어
일래스
제안
##결정
모습
발표
열기
##박스
처리를
사람들이
노트북
실용적인
에이전
일래스틱
위협
훌륭
익히고
sc
인수
채팅
##zon
생성과
기술적
##있는
##rad
다룰
컴퓨터를
관심이
쇼핑몰
장비
추정
캡처
커맨드
##보다는
라이
측면
##vice
##디드
##anag
Un
구매
스터
##ou
##분포
효과적으로
단순히
그대로
버그
정말
##mazon
마우스
소켓
주변
발생하는
컴파일러
추상화
바인딩
새로
혹은
##시켜
##마당
프로그래밍에
생각하는
오류가
Amazon
Tensor
해답
##는데
##Auth
경사
되고
##렌식
사업
##자는
내용이
Ac
##af
##터를
역할을
Or
Text
iOS
계약
데브
상자
인기
인코딩
주문
플로
확실
##ef
데이터가
워크플로
##andas
받아
살아
차이점
산술
수험
아웃
어린
퀴즈
##UP
관리하는
필요성
딥러닝의
##ull
단순한
재미있는
스터디
##스페이스
##트엔드
스토어
키보드
##보세요
##서의
조건에
ES
네임
##도가
##되었
기본예제
##earn
게시판
##raph
모범
##도의
##프린
필요하다
##ash
무엇이
문법을
클러스터링
##lib
미국
##주고
##허브
##쿼리
Num
가공
논의
호스트
##cess
해결할
완성하기
Git
Object
목차
적절한
##Py
##장치
##미디어
데이터로
Vis
Vue
else
##통신
마이크로소프트
수준의
Al
sw
깃허브
담당
만큼
법칙
##트를
타임라인
거리
##도와
##put
##시다
활용법
문제가
data
붙여
전역
현업
Layer
감정
##워킹
생각해
MVC
window
지침
해보기
##공학
객체를
최대한
인디자인
##필요
사용하고
##orld
기초부터
읽는
포렌식
독자를
이상의
대부분의
각각
라인
책입니다
##포그래
의사결정
다이어그램
부여
스티
마이닝
비롯
소리
왜곡
지표
레이블
OAuth
##방법
##IS
예제와
컴퓨터가
결과물
합성하기
SW
받기
얻기
젠킨
주제를
글로
되었다
익혀
있기
##oun
##주의
##폴리오
디자인의
연결되어
형태로
구체적인
스키마
단원
접하는
정복
키프레임
검색하기
스위치
Server
프로토타입
SE
실력을
좌표
직관
##다운
형태의
본격
##FS
있어야
알려준다
Edit
GPU
경제
실패
않아
여부
점점
지연
관점에서
놀이
분해
불필요
실수
##라이트
##IX
##LO
##erc
확인할
업무를
멋진
재사용
##차원
딥러닝을
증가
##Flow
##IT
미래를
사용법을
트랜스
버퍼
잠재
개발하는
##itch
인공지능은
인터랙
방식의
US
경계
조언
질의
카운
##어야
##리지
##화를
트래픽
고정
달라
되기
아이패드
워크시트
훌륭한
일이
진단
##화벽
처리하는
##ake
정보보호
에이전트
공공
독립
주목
프로젝트의
로딩
손실
하이브
현황
##ml
사용해서
스크린
포트폴리오
Auto
##셉트론
Set
가격
조명
찾는
초급
##시저
서버의
퍼셉트론
설명을
IPv
기간
더불
방화벽
##기와
네트워킹
리액티브
유효성
데브옵
더불어
순위
인텔
중인
콘솔
하시
##화와
환경에
지금까지
DBMS
마법
파일과
서버를
가입
데스크
드라
새롭게
##mage
##fer
##icro
중요성
다이
바이
임포트
사용하지
다음과
Fil
박스
융합
탄탄
##만큼
##진다
프로시저
방법은
##프레스
대표적인
복원
퍼즐
폰트
##방향
##GB
분석의
학습하기
코드의
기술에
성능을
채색
테두
##니즘
네트워크의
##uct
감성
모음
베이즈
않을
##런스
구성하는
이용해서
강의를
트랜지션
풍부한
불필요한
만족
##피스
##하시기
검정
내려
상식
##데이션
변형하기
Code
시점
애플
주식
철학
##one
##ark
인터뷰
클래스를
시간이
스케줄링
Rx
jQuery
나의
하위
계산기
공부하는
프린터
View
부품
증강
클로
##인코더
##동안
do
상대
피드
##RP
##록시
##선형
간단하게
Visual
대규모
자유롭게
##ync
읽을거리
and
간격
느껴
사각형
##비트
여러분이
ROS
과목
직업
##가능
있는가
화면에
Studio
있어요
체계적으로
오토인코더
인벤
프록시
##리고
##BA
테스트를
문서를
##PT
##ber
##링크
##젝션
자신만의
스케일
##ive
##되었다
##널리
##tin
사용자의
##roup
공부할
사이의
대화상자
간략
로깅
언리얼
주입
##로지
##워드
문제에
시작해
모듈을
공유하기
시대의
##unction
기존의
CD
나는
들여
역시
##ail
##성의
##LS
##웁니다
연결이
##프로그램
Res
방안
##이크
##ux
##고리
편집기
단계별로
표현하는
배포하기
Ph
트렌드
파일에
구성하였습니다
콘텐츠를
학교
##리움
개발하기
그리는
##ast
제어문
타입스크립트
분야에
##ower
지원하는
기준으로
대해서도
올바른
소비
##RE
##JS
적용하는
설계하기
테두리
tr
주고
##rush
##하세요
업무에
이더리움
배웁니다
초점을
이어폰
악성코드
직장인
아는
정답
##oDB
Par
다지기
즐거
##커니즘
##넣기
##era
##esh
교육을
PRO
세팅
셰이프
연출
##려는
##연산
##쓰기
서비스의
알파고
lt
레코드
생태
원인
##리어
##토그램
##됩니다
신경망을
그레이디언트
Rep
##보며
적용해
React
재생에
동기화
임베디드
List
as
인자
패러
##만을
사고력
비전공
전통
칼럼
##토링
##ell
##ector
동시성
간결
유니
바이너
운용
이는
하다
##서를
##ession
##ift
케라스
가정
블렌
풀이
##캐스트
##재로
재생하시기
없을시
구독
난이
메커니즘
역전파
트레이
등에
출시
설명과
인터럽
생태계
대기
복합
않다
##쉽게
있다고
관계형
출판사의
MS
느끼
자료를
하나로
라우터
Sw
다가
##명한
이용하는
분석에
소개하는
수학적
Control
어린이
하시고
꼼꼼
나은
담았다
때의
않습니다
알게
##Script
##ire
##그라
##AD
소프트웨어를
하며
##da
##티스트
구성요소
그림으로
처음부터
##로서의
싶다면
##ave
##정리
##네일
##설정
동작하는
배워야
DOM
권으로
엔드
자리
조립
탐구
호환
##다임
##어도
##문자
##셈블리
세상을
##PEND
둘러
분기
비율
사정에
수행하는
##evel
Light
과거
노션
테스팅
했다
확보
##하나
##ful
##ache
데이터베이스의
분류기
엔지니어링
RO
가중
규모
성과
##ware
장을
전용
##UNT
##언어
기능이
APPEND
임베딩
Network
바이너리
APPENDIX
LAN
Not
지우기
흑백
##MP
엑셀의
소스코드
이야기를
IS
IF
보이는
비슷
케이스
##음을
영상의
하는가
개발자를
형식으로
IDE
중지될
NET
ch
##vent
##타임
##ick
중요하다
NOTE
손쉽게
수립
예를
이에
코어
##가지
게임의
부족한
나오는
메트릭
##용성
알려주는
글로벌
저작
초보
##도로
##과의
##아트
##일러
##상의
Model
패러다임
Mong
OR
오차
##ream
리스트의
http
담고
조각
##gram
프로젝트에
이제는
인터럽트
마크
흐름을
두고
속에서
해도
##프로
##가기
문자열을
CI
button
순간
진짜
최초
##활용
접근법
머신러닝을
있어서
sh
대입
하루
합격
##ass
무료로
VPN
리팩토링
담아
수동
작가
타이머
cont
Cam
갖추
만한
##학생
회사에서
BI
Des
of
비법
캔버스
할지
##블릿
텍스트를
##ular
여러분의
제시한다
고유
봅니다
업계
인젝션
피처
##틸리티
이미지의
알고리즘과
영역을
for문
서적
항상
##인공
##클립
##이지만
통해서
데이터베이스를
스프레드
Pre
인류
증명
통찰
##ead
##rint
##인의
##피터
프로세서
모델과
학습한다
독자들이
아이폰
머신러닝의
플러터
특별한
가까
경고
당장
보면서
부모
판별
합치기
##정의
##lock
높이는
선생
유연
##교육
##ann
##ender
크로스
Sec
스플
취업
##리스트
##시킬
지식과
##STM
파악하기
##ffect
갤러리
바라
##립니다
##했을
##블록
구현해
이미지로
단계별
디스플레이
젠킨스
인텔리
Se
방어
오래
클리
##get
##선을
기초적인
원리와
시대를
히스토그램
일래스틱서치
RPA
보조
써먹
##우는
##reak
##mple
해결책
가상현실
높이기
매칭
시큐
훨씬
##서가
##그레이션
##노테이션
변화를
프레임워크를
현장에서
와이어샤
AV
LSTM
Power
with
때는
포스트
해커
##ater
프로필
##enc
##amb
##컴퓨터
친절하게
넘파이
머티
상용
상위
세기
유저
##her
##ik
##인다
##oot
##ayout
포함한
##ercise
머티리얼
Mo
싶어
아카
USB
것도
기업의
만든다
자격증
수험생
와이어샤크
열거
##수와
##상도
##구성
##연구
##틱스
파이토
코드와
독자가
정확하게
Post
##ㆍㆍㆍㆍㆍㆍㆍㆍㆍㆍㆍㆍㆍㆍㆍㆍ
TensorFlow
switch
DE
Image
NCS
부담
애널리
절대
##SL
##face
CSV
카카오톡
데스크톱
VBA
관해
부하
##조건
##시적
사용한다
##ener
실행하는
사람을
시대에
파티클
COUNT
하였습니다
붙여넣기
데브옵스
선생님
NL
SUM
널리
못한
백엔드
익힌
일치
주로
파싱
하지
##ty
##CE
##주행
학습하는
네트워크를
궁금증
스킬
예약
전화
##line
페이지를
인쇄하기
매니저
set
균형
다듬
무한
미분
양식
유틸리티
일관
첨단
통제
##LL
제공하고
그림자
앞서
없습니다
트위
##List
구현할
가능성
##ulti
순서대로
정확한
CLI
드라이브
파이토치
Micro
가득
되었
범주
숨기기
시그
이라는
카테
##oint
##ale
##간의
##마크
위해서
##토리얼
자신이
완벽한
편리한
클로저
Ne
도면
줄이기
##자료
##자에게
##볼루션
전반적인
QR
##ump
##BM
이해와
컴퓨터와
사용해야
자율주행
##ource
베타
사라
전이
##mb
##레스트
사항을
##umn
상세히
레지스터
On
World
않게
앱의
윤리
이끌
주피터
찾을
##기가
##OK
##치지
##머신
설정과
설명한
다양하게
언어에
String
마이그레이션
스프라이트
단점
답변
혁명
##댓값
이유는
자유자
군집화
Red
on
가로
나무
놀라
드롭
파드
##전히
##fig
##onent
개발의
##ant
서버리스
##read
##ube
최신기
포함된
라즈베리파이
스티커
##해진
코딩하기
화면을
무엇일까
구축하는
기계학습
오늘날
자유자재로
갖고
모아
버스
비정
뿐만
서명
전혀
##로의
##ule
##강법
##째마당
##스트리
시작할
사람의
배열과
하나씩
인스타
##ERT
Tip
UDP
app
그린
판다
##사를
도구의
##NIST
핸들러
라고
매력
획득
##mport
워드프레스
안전한
Cur
Work
get
모르
준다
증거
표본
##JECT
##anager
블렌딩
슈퍼
콜백
쿠키
툴을
##적합
학습의
파이어
간단히
##ration
한번에
Bas
New
section
구동
끝까지
있으면
포드
##pl
##신경망
##러블
##zure
Sm
갱신
것과
이클립
친절한
##어지는
##프리
##net
작성할
유튜버
잘못된
가중치
시큐리티
VM
key
굿즈
수신
아무
이웃
홍보
시스템과
인공지능에
Log
간편
나온
높아
때마다
리더
문화
빠르고
##해결
##수록
##들로
##했고
인터페이스를
궁금한
리터럴
Mat
오일러
만들면서
프로그래밍과
코딩에
정의와
관심을
어디에
분리하기
네임스페이스
MongoDB
연락
장단
챕터
##이저
##표현
##크리에
선택자
MNIST
Qu
사랑
세대
쓰이는
토픽
##Cont
시스템에
접근하기
##라이즈
삽입하고
미래의
##ild
메타버스
아이디어를
블루프린
맞추기
##afe
카테고리
Azure
같다
개별
다섯
마련
부에서는
체인
##래시
##문을
기능에
배열을
자세한
상황에
Be
나머
담았습니다
라벨
스캔
이르기
현상
##리게
변수를
엑셀을
높여
셀에
터치
##ia
##EX
##AV
문제와
선택하는
Exercise
최신기출문제
Effect
미치는
색인
서포트
소수
원소
인해
##카드
##테일
사이언
##ement
Add
파티션
표기법
베스트
부동
##웨이
##딤돌
기술은
##reate
Column
Transform
이르기까지
포스터
##트와
##모델
최적의
Int
멀티미디어
하였다
나면
시행
우주
##다가
##IG
구성과
개정판
피드백
가는
디딤돌
반전
앙상
진수
화살
##aver
##tiv
애플리케이션에
서버와
##raw
확장하기
빅데이터의
전문가가
앙상블
Class
py
도출
요인
제너
##해도
##회귀
컴포지션
종류의
지속적인
프린팅
흥미로운
##ithub
인스타그램
##크리에이트
경영
밖의
사이드
컨볼루션
회의
분석하는
살펴봅니다
Dis
Rec
서울
예술
임의
있었다
평면
##함을
##GAN
적용하여
작업에
저장하고
속성을
한국어
NumPy
인터랙션
TOP
가속
다형
마인
바뀌
실현
엘리
##익히기
방법이
설명해
생성하는
문자를
동일한
Camera
동물
적응
중에서
출발
프론
##도에
##보면
##지요
구성했다
사용자를
전문가의
자세하게
들어가기
##plotlib
녹음
대책
바꿔
세그
인코더
필기
##서로
##학적
##우고
##날로그
프로크리에이트
언어와
과학자
str
아날로그
##양이
문제해결
##itle
스크롤
미리보기
물리적
교재로
하이브리드
Graph
마당
##기사
##로딩
##dex
##정한
기능익히기
부분은
논리적
정도로
화살표
ar
break
단락
담겨
대칭
법을
위주
직렬
##스택
방법까지
환경의
PROJECT
저작권
type
다차원
못하는
방송
아래
의료
있었
적재
커스터
##Frame
분석가
혼자서
감시
물체
수는
점수
##soft
##이에
##서블
학습한
영역의
세계를
오브젝트를
이펙트로
##earch
예상문제
li
종속
##졌다
##러스
문제의
적용하고
종류와
스프레드시트
Com
Pr
난수
방대한
어드
원근
잡기
전망
표지
풀기
##CH
##In
##티티
개발할
관리와
정리하는
Program
도형을
##quest
커뮤니
커스터마
숨겨
싱글
포레스트
##gre
##닉스
##받는
##arp
서비스와
##irt
완전히
Array
자산
커넥
픽셀
하면서
##RU
기능들을
파일에서
조건을
트랜스포
골라
댓글
드론
엄청
중앙
첫걸
##루틴
프로그램이
##acle
이름을
File
Mask
구간
그라
돌아
스냅
액터
##log
부분만
트리거
SDK
##ambda
Type
건축
미들
완료
운동
##보면서
##였다
학습과
서버에
사이트를
전통적인
Path
똑똑
모터
블랙
있나요
##tern
분석하고
전략을
시도
여전히
입장
##Net
##GE
##flow
##퍼런스
##내고
##범위
알고리즘이
컴퓨터에
빅데이터를
과학의
AD
깊은
느낄
디테일
##해보자
##화하는
##OJ
##지지
데이터프레임
패키지를
연동하기
그런데
Microsoft
걱정
것인지
될까
라이프
제이
찾고
포기
##든지
##eline
독자에게
교환
취소
##Ops
##되었습니다
전달하기
미들웨어
map
pandas
원본
패스를
해상도
##lin
##랙트
##분투
##에서부터
데이터는
처리와
입력과
비교하기
상세페이지
JSP
Grad
바둑
##sp
##tn
##oard
프로그램으로
##rea
자료실
회귀분석
인덱싱
가치를
게이트웨이
##OKUP
관찰
제외
##되기
##코인
##겠습니다
시각화하기
전환하기
##ainer
기울기
커뮤니케이션
감사
많다
맛보기
안에서
알면
##어서
##DK
##Pro
##aS
##화면
##Ar
작성하고
특징을
##rid
일반인
##aria
Oracle
Core
Level
Te
다뤄
##과정
##프라이즈
##용량
##성에
사용하면
선택한
사람은
스타트
익히는
DataFrame
완벽하게
무작위
아트보드
나머지
Wh
거듭
대처
대안
미세
비대
튜토리얼
##리아
##레이스
이미지에
정보의
이클립스
결국
대중
배너
스캐
요즘
##스턴
##집합
내용으로
사람에게
패널에서
라이트룸
엔터프라이즈
리스
##력이
##히는
객체와
그림과
버전을
각각의
연락처
Maria
까지
따로
문단
불가능
시크
이터
인가
##ati
##한다는
코딩이
유지보
최소한
시리즈는
여기서
비슷한
인텔리전
트위터
DC
R을
unit
걸쳐
나열
본다
##cep
##IM
##eras
확인하는
명령을
아키텍처를
대화형
Spec
메타데이터
생명주기
클리핑
PL
text
년간
지난
##지게
##자로
구성된
생성기
생각한다
##ialog
익숙해
##LOOKUP
btn
github
부터
빨리
지나
최단
폭넓
풍경
##Ch
이해가
처리의
##ics
하나하나
테이블의
std
오버로딩
Sk
print
다르
드래그
보완
스코프
않았
용량
유의
책과
철저
##uild
##정식
디자인에
편집의
시각적
레이어를
예측하기
때문입니다
유형의
For
그동안
앵귤
어떠
오프라인
##방식
기본기
분야를
목표를
보여주는
앵귤러
Render
init
가설
창출
##변환
##지에
##fo
##하는가
문서화
스타일을
##ult
완성된
트리의
어려워
시리얼
복제하기
MariaDB
Brush
Form
RP
것들
깔끔
점을
충실
취득
코로
행위
##지식
공부를
통계학
정규표현
알아두면
제너레이터
Out
en
루트
면접
본질
장으로
콘셉트
##ution
##ming
있는데
관리를
코드가
상세한
##lip
cs
mac
눈에
브로드
웨어
일본
정하기
지시
침투
##도서
##AX
##세싱
연산자와
가능하다
사이킷
JavaScript
스케줄러
가시
것처럼
공동
스텝
인텐
컨설
##OT
##인식
구성했습니다
추가하고
확인하고
부분이
의미를
ARM
Time
##포그래픽
나와
서술
속에
우분투
인포그래픽
짧은
코너
프런
##ost
##라스틱
##렁크
알고리즘은
정리해
저장하는
채널을
중심의
프로그래머가
##ression
들어가며
비밀번호
프론트엔드
숨겨진
Ang
User
or
되었습니다
바닥
실질
어셈블리
캡슐
토대로
통하는
푸시
##물을
##블로
이미지와
##aster
동영상을
경우가
COL
카운터
IC
두려
밝기
상당
실생활
없애
여백
튜링
##Box
##으로부터
개발환경
구성하였다
사람들에게
프로세스를
##그라운드
다듬기
시크릿
어떠한
코로나
걸음
동향
반사
세로
신경
앤서블
월드
##atic
##Map
기능의
필요할
소프트웨어의
자바스크립트의
##ebook
정확히
Dev
##lication
비전공자
Dat
런타임
선명
오피스
이력
펼쳐
##해본다
##sh
##ient
##자리
##레저
##왔다
필요가
추가된
보안을
소스를
날짜와
##ization
Anal
SEL
Lambda
naver
붙이기
신규
유닉스
##수준
##상을
구조의
개발자의
만들어진
숫자를
Option
##ime
어렵지
VPC
엘리먼트
EX
Table
기하
더하기
받을
분들에게
애저
잠금
편향
##도비
##aaS
##예요
파이썬과
##rim
지속적
나타내기
초등학교
워크플로우
WOR
learn
많아
불변
어도비
열고
청소
##ier
설치하고
입력하고
생각을
AI의
DH
JPA
고전
누적
리덕
어댑
올리기
##해볼
##aw
##겠지만
작성한
부분합
Prot
위치를
하이퍼레저
작품을
NLP
위주로
사이킷런
COLUM
Word
강사
너비
누가
범용
신기능
적극
##OD
##지어
##으면서
##듯이
##eck
설정하고
문제는
알고리즘에
Story
응용프로그램
##oom
아키텍처의
관계를
상황을
if문
Notion
오일러OJ
블루프린트
대용량
실기
엔티티
재구성
##PS
##les
##치고
##사이
##값을
##봅시다
##폴로지
구현을
구조적
아이들이
시대가
다운로드하기
comp
session
공급
꿈꾸
마커
비선형
사건
순회
언급
옮기기
침해
캐글
##로는
학습에
서비스에
게임에
데이터베이스와
무엇보다
모듈의
플랫폼을
메시지를
블루투
정보보안
COLUMN
HD
기출
무슨
받는
오랜
학년
향후
##이게
##공간
보안의
우리나
상태를
##블리싱
EL
TLS
mod
대로
매일
분명
삼각
정제
침입
편의
##하던
코딩맨
##roid
페이지의
비트코인
조작하기
파이어베이스
겁니다
리서치
맞춘
비해
쉽지
워커
이점
일괄
컬럼
하여
힘을
##이핑
##LAN
##거래
제작을
요소의
디렉토리
놀라운
바이트
장식
재료
적이
프래그
##ror
##이가
##pd
##가를
##ql
##ref
확장성
최적화된
인간과
##udy
최소화
Service
식별자
커스터마이징
Max
갖춘
다층
대회
말한다
망고
몽고
설문
실천
인라인
차례
친숙
##lus
##게임
##밖에
##스트럭
시간에
통계적
상세하게
활동을
초보자도
그렇게
업로드하기
이것이
다형성
list
담긴
돕는
베이스
심볼
위에
재현
적대
프라이
##아요
##OIN
##마스터
##센터
코드에
단계를
##str
클라우드를
제작에
스크립
이펙트를
범위를
보여주기
레지스트리
엔터티
브랜드
첫걸음
유지보수
AT
것에
고양이
등과
만약
보장
이와
일어
작용
잘라
차별
키울
##PF
##oin
코드는
언어가
컴퓨터는
사람들은
머신러닝과
AI를
도와주는
SSH
이루어
않아도
Design
애널리틱스
##irtual
프래그먼트
리포
병행
온도
이란
정지
##ry
##ph
##력과
패키징
##이기도
어렵다
구체적으로
그렇다면
##만으로도
##aterial
Smart
Off
UV
UP
by
sel
가볍
교체
몬테
색을
유전
##작업
##오고
##arget
준비하는
분류하기
경험과
메시징
##이라도
인간이
키워드로
Spring
수식을
안전하게
while문
엔드포인트
PW
Pol
기여
적절
중점을
키바
함수에
학습하고
적용한
테스트와
독자들에게
개발자에게
버전의
자바스크립트를
추천합니다
흥미를
스플렁크
CM
Fl
Function
Line
Multi
RGB
노이즈
리본
종사
팩토리
헤드
##성분
##카를
##했으며
프로세싱
##inux
설정하는
파이널
일반화
##lastic
알려줍니다
호출하기
브러시로
익숙한
라이팅
Basic
벗어나
빈도
서드
의해
주행
##yc
##view
##대학교
##QN
##뉴얼
만들자
파일시스템
설정을
내용과
사용자에게
운영하는
애니메이션을
전송하기
익스플로
어려움을
##tinue
macOS
cafe
mat
op
값의
과연
극복
담은
말고
부드
않도록
연필
창조
##하므로
##버넌
##제어
연습하기
살펴볼
단계로
연산자의
필터로
혼자해보기
SSL
교과서
스크립팅
Mon
To
꿀팁
범죄
분위
인사이트
줍니다
##기의
##Ser
##시킨
활용하고
개발한
컨트랙트
움직이기
##DBC
그러데이션
하이퍼링크
Group
is
규제
근사
달성
밸런
익명
질감
창업
커버
허브
##ies
##리학
##머리
이용할
인공신경망
과정에
인터페이스와
##하였으며
세계로
복잡도
Coll
편리하게
Dir
Page
거버넌
그릴
마찬
방문
우수
제스처
##NC
##분에
구성하여
다루지
##mpl
바꾸는
여러분은
파악할
어느새
강조하기
Filter
키바나
Draw
PPT
ds
결제
그에
금액
수평
쏙쏙
정부
흔히
##보호
##가며
##Hub
##운데
##체를
환경설정
##까지의
영상에
##odo
AI가
구글의
나누어
RESTful
마찬가지
DD
DI
ip
결측
날씨
문의
아나
어노테이션
엘라스틱
장소
##eat
##AI
##소수
##회로
사용성
애플리케이션에서
연결된
시간과
공부하고
형식의
스마트폰으로
수행하기
##하우스
##endix
텐서플로우
접속하기
능력이
플로우
프런트엔드
IBM
Learn
끌어
나이브
무결
서문
시청
이외
캘리
해소
##트의
##Layout
##엔진
##레스
##움을
해결해
자료구조와
스타트업
인텔리전스
구하는
매뉴얼
벤치
생생
은닉
종이
주성분
폴리
##file
##tif
SQL을
교육의
##otlin
어렵게
패스워드
확실히
AC
C언어
R의
VLOOKUP
섬네일
않기
오른
주인공
지루
호스팅
##cel
##lete
##oop
##ooter
차트를
평가하기
##own
##하려고
목표로
step
학생들이
샘플링
출판사
상관관계
기회를
STL
Min
se
감사의
광범위
꾸준
문과
부호
##ATE
##적이
##브릭
실습문제
문자열의
SQLite
세계의
##ill
제품을
키워드를
continue
##ynam
마음을
##PIO
ASP
난이도
길을
나도
닫기
보충
불안
센터
오케
제조
진정한
##pub
##uration
개발과
정보처리
사람들을
##ents
특징과
AI와
문법과
##urity
명령어를
기획자
행렬의
And
유사도
느낌의
트레이딩
열거형
Angular
Over
다르게
모드로
일은
##tml
##der
##let
코딩은
사람도
컨테이너를
수집하기
운영체제의
솔루션을
##ibr
GitHub
GPIO
PR
Warp
공용
글씨
눈높
바람
받고
베이
색감
의견
후반
##기고
##트롤
##CD
##으므로
##터링
사용되고
설명하기
방식과
타입과
레이어의
그래프를
효율성
뛰어난
##greSQL
정규표현식
오케스트
Ap
Link
TV
ad
main
갖는
생존
속의
초대
##모형
##자들이
##닙니다
실행할
##alue
##etter
동작을
전달하는
비트맵
item
##here
이끌어
엄청난
Cent
FTP
un
way
다항
루비
보며
수열
신입
아닙니다
캐싱
통하여
##도구
##bb
##메테
##래프트
##놀이
기본을
기본적으로
##ech
프로그램에
정보통신
미래에
참조하기
##yper
사회적
this
프로파일링
현업에서
##스트럭처
Pandas
id
log
가운데
거짓
교사
뉴런
달리
매트
전개
즐겨
첨부
##서버
##파티
##선의
##테크
##테스트
프로메테
작업의
##rop
독자는
##되는지
##oding
기법과
컴포넌트를
통합하기
##inder
개선하기
타이포그래
체계적인
##그래프
복습문제
나아가기
맞춤형
비롯한
PostgreSQL
DHCP
타이포그래피
DQN
마르
베이지
소재
아름
이다
중단
표를
##oad
##ron
##uff
##일까요
##능력
파이프
개념이
핵심적인
타입의
배포하는
메서드를
지정한
빌드하기
자연스러운
Export
우리나라
높이
요점
인정
주어진
치환
커밋
하늘
##Ex
##가입
##enu
##eld
데이터베이스에
스토리텔
##시키고
지도학습
확률적
##ound
Phot
tool
유도
책인가
피하기
##ole
##장을
##but
##릭스
##키는
##받고
기술로
환경과
접근할
##river
Scale
웹사이트를
블루투스
아나콘
Mesh
Material
Virtual
데코
사양
인트로
자식
좋을
좋다
코루틴
힘들
##수가
##중에
##글씨
##셀러
사용량
설명했다
작성과
##etch
독자의
##riv
##하면서도
찾아보기
방향을
방향으로
부트스트
최근접
일상생활
본격적으로
##tivity
JAV
SO
an
건강
극대
기관
맛있는
받은
오퍼
즐겁
학원
##해봐요
##DS
##이면
##au
##대수
##세계
##체계
##듀스
##됐다
활용을
예제는
##row
인간을
수업을
메이커
인벤터
꼼꼼하게
##annel
어댑터
몬테카를
아나콘다
As
건물
똑같
부가
삼성
수명
인생
좌우
패치
플라
##스러운
##sion
##oS
##키퍼
시스템에서
선택과
반복하기
사고력을
디자이너의
##tings
필터링하기
회원가입
역량을
##ideo
들여다
세그먼트
SELECT
JAVA
몬테카를로
뉴럴
답을
대수
맵리
선물
장기
직원
##rite
##이비
사용을
데이터에서
##time
##ank
설계와
패턴의
우리에게
테이블을
차트로
용어를
축소하기
Select
##ference
채색하기
가까운
베이지안
스토리텔링
Ass
Date
JDBC
Met
Todo
footer
정밀
크롬
##ative
##yle
##가고
##CI
##사고
##펙터
사용된
##itor
있을까요
전체적인
Tools
써먹을
Audio
Elastic
SV
SM
no
경향
곱셈
국제
년에
되돌
몰라도
앞에서
용이
중에
지점
차단
특성을
##해주는
##bit
##계획
##학의
프로덕
기능만
분석하여
파이썬은
제공하기
개발자로
페이지에
재생하기
Track
exp
몽고DB
NF
Save
고가
근본
다수의
덧셈
발행
부정
속도를
유닛
잠깐
전파
탐험
패브릭
화이트
##스퍼
##map
##성능
##산업
##린더
편집을
무엇이고
구축하고
표시하는
영역에
사이클
##ㆍㆍㆍㆍㆍㆍ
상황에서
PCA
##quence
최소한의
Hyper
IO
IND
Linux
Test
gg
html
title
기사
매체
보관
부팅
빠져
업체
이지
이뤄
적은
짚어
##MQ
##bser
##려고
##행렬
##플러
##찾기
생성하고
적용된
연결하는
것이라고
##하였고
필수적인
기록하기
프로토타이핑
감각을
판다스
Event
href
가독
눈금
여정
옵저
인재
채도
해법
흔들
##이니
##드립니다
##지의
##했지만
##크래프트
기본기를
설명이
모두가
사고를
일관성
장단점
제이쿼리
CentOS
수의
순수
에셋
일차
정교
폭발
##ke
##GL
##면서도
주제에
마이크로서비스를
지능의
시험에
Anim
히스토리
##스케이프
Editor
##ikit
Programming
마르코프
옵저버
내기
도시
리플
리스크
소유
신속
올라
인한
임시
했습니다
확산
##서와
##box
##Comp
##른다
##미스
##집니다
##셔널
##없는
처리할
##anc
시작한
언어는
##urn
전체를
자신을
수행할
양자컴퓨터
고려사항
실시간으로
창의적인
초등학생
##achine
시그널
Special
인텐트
TF
eas
격리
높일
멀티스
버블
생겼
아티스트
요령
의식
추세
탈출
협력
호기
##감이
##해지는
##Sp
##ython
##레인
구성을
모델에
설치하는
처리에
##reen
블록을
아키텍처와
패널을
포토샵을
캐릭터를
OSI
##ugg
Create
SVM
강한
근거
넷플
년대
라이노
막막
만에
목소
셀레
스포
습관
정상
파헤
페인트
형상
##ium
##ping
사용하라
학습이
정보와
문서의
배우게
생각하고
리스트를
세계에
표준화
스크립트를
버튼을
##roller
III
좋아하는
결과물을
최초의
net
감소
공백
다각형
드러
머릿
명의
방정식
장부터
지우
키네
토론
##GP
작성법
시작해야
가능하게
배경과
변화에
오픈스택
엔진엑
Appendix
이더넷
모습을
Win
강제
둘째
디폴
뚝딱
보니
블렌드
수강
심도
캘린더
##ie
컴퓨팅의
Reg
##opy
카드뉴
##sert
도와줍니다
NoSQL
Fire
Le
계열
구상
근무
덕분에
데몬
앱에
에지
용도
최댓값
토폴로지
특이
플래시
##스티
##s로
##set
##표를
##대상
##분산
개발하고
프로그램은
확인해
사람과
독자들은
반복자
초기화하기
종료하기
Blur
해제하기
Comm
꿈꾸는
데코레이터
Gener
wrap
격자
늘어
샌드
선별
스펙
얻는
점이
즉시
타깃
해주는
##스토어
##번에
##량의
##컨트롤
##민국
코딩으로
구조화
선택하고
생각합니다
세상에
인프라스트럭처
가르쳐
Timeline
명확하게
라이선
연출하기
가볍게
서드파티
머릿속
Better
Cor
Mac
use
같습니다
고성능
맥락
생략
수를
어울
점프
칼리
크기를
통과
판정
##ield
##EC
##BS
##그림
##겠다
##개발
##낸다
기능은
사용자와
보안과
엑셀로
라이브러리와
##edia
시각화를
수학을
form
일러스트레이터를
Pos
전반에
호기심
글을
발달
서블릿
손글씨
안티
지갑
페이징
학부
##비안
##den
##Java
##치를
##렉터
데이터만
실습할
설명할
설명하며
대한민국
제공되는
변수에
##ocol
작동하는
엔진을
##ysis
메이븐
RxJS
Swift
익힌다
##pdate
리포지
de
내역
레퍼런스
부는
분들
서론
에너
일단
장점을
해외
화상
휴대
##기로
##이를
##kin
##제곱
프로젝트에서
##lex
필요합니다
보안에
모델링을
이름으로
인증서
있는지를
질문에
가이드라인
블록체인의
개인정보보호
스터디룸
비법노트
프라이빗
Android
디폴트
글쓰기
마주
만남
삶을
웹의
일련
접할
지수
챌린
터미
하강법
##스코
##가요
##사례
##인이
저장된
##olution
모듈과
인터넷을
기계가
쿠버네티스의
고려해야
##ASE
##Studio
유사한
##ango
Modeling
베스트셀러
캡슐화
거버넌스
무결성
오케스트레이션
독학
말하는
선호
위임
유명한
이처럼
지켜
##ner
##에만
##IE
##통계
프로그램과
개발자들이
##oost
오브젝트의
##ocket
Deep
대학생
prot
뛰어넘
Gradient
AND
GO
POS
UML
col
null
par
얻은
임무
장과
주키퍼
허용
##co
##아야
##ault
##드라
##AGE
##점이
##attern
디자인과
과정이
개발자와
그래프의
색상을
Excel
완전한
async
DevOps
오른쪽
##컨트롤러
SP
Si
Soft
독특
리버스
분들이
손으로
스탠
심지어
오프
커브
컨셉
프라이버
##ose
##는가
##되면서
##대를
네트워크와
Stack
리스트와
필터를
프로세스와
##ural
##ider
질문을
JSX
##ify
머리글
마법사
부트스트랩
프라이버시
IM
Video
bit
거예요
되기를
로우
불확
요리
제곱
진입
툴바
후에
##이닝
##UR
##값과
##렉트
##으로서
문제들을
작성해
실무자
구축할
마이크
##rain
차트의
인터넷의
계획을
제시하고
스파크라인
##ynb
알아두기
리팩터링
비정형
사이언티스트
리스너
Protocol
거쳐
권장
명쾌
미로
선을
지은
집단
최솟
태블로
팔레
##사진
기능들
문제로
개념에
정보가
함께하는
##ude
나타내는
Shad
증강현실
둘러보기
Security
리덕스
ipynb
Back
NP
NAT
RAN
RStudio
경진
기다
단추
덤프
양방향
이기
좋습니다
지구
표의
##ga
##조차
##min
##적이다
##디스크
기본이
관리의
필요로
실행되는
입력된
클라우드의
요소와
생각하기
그래프로
버전에서
디버그
신뢰성
당신의
있으므로
내려받기
RxJava
matplotlib
셀레늄
Big
ㆍㆍㆍㆍㆍㆍㆍ
나아
년부터
모으
보수
앱으로
에뮬
인사
있었습니다
정형
코더
팝업
피부
함정
##ait
##ample
##클래스
따라가
##ict
추천한다
캐릭터의
현재의
크롤러
습득할
비지도학습
슬라이싱
RDD
넓은
변하는
쉬워
한층
##ll
##cat
##gin
##으나
##세대
##연결
##hape
제공하여
제어하는
것이라
안내서
상관없이
즐거운
호환성
Effects
트랜스포머
청소년
ggplot
AL
IAM
The
def
link
가용성
눈으로
말을
브로
영문
장에
툴로
플롯
##해보고
##커버
##만이
##바이더
분석기
다루며
자바의
패턴과
API와
배경을
##ome
인터넷에서
탐색하기
스마트폰에서
알려진
확실하게
Settings
브로드캐스트
Direct
Drawing
Apache
Gu
Sur
res
가질
곳곳
됐다
디플로
뷰어
소설
신용
없어도
텔레
페이
힌트
##스타
##리가
##MI
##타입
##효과
프로바이더
서비스로
방식에
라이브러리의
SQL의
과학을
플랫폼의
##und
js를
공간을
단위로
##uper
현실적인
성공적인
시나공
주의사항
브랜치
마인크래프트
##플러그
Action
Can
Keras
PE
Up
Zoom
tf
나이
낮은
되길
엣지
있지
제로
지적
##book
##레이트
##린다
##련된
##tial
##ense
설계의
##ication
패널로
Input
##velo
계층적
오류를
그룹화
익숙하지
그레이들
지우개
Dynam
UE
과적합
나쁜
내에서
돕는다
변동
블러
수밖에
썸네일
요건
유료
이산
장까지
주세요
친해
하자
한정
핸드
##시험
##TT
##추기
##old
부분에
##abase
##라이딩
고려한
넘어서
COUNTIF
실질적인
##luster
카드뉴스
Size
그러한
기원
매트릭
법률
별도의
생겨
양의
예비
전기
채택
태블릿
트러블
포털
##나게
##fn
##블릭
##유형
사람들의
과정과
마이크로비트
일반적으로
프로세스의
포토샵과
형태를
쿠버네티스를
선형대수
촬영하기
ARP
Application
##프로그래
다이내
넷플릭스
BERT
JVM
JDK
Manager
RA
Range
SPI
new
고등
되면
박사
배웠
비행
성질
소멸
수요
영속
전쟁
점은
직선
타일
편하게
피보
확신
##UD
##UND
##계산
정의하고
사람이라면
##ical
제작하는
모델링하기
패널의
컴포넌트의
플랫폼에
추출하는
이유를
AWS의
파이프라인을
보호하기
로드맵
머리말
스케일링
플라스크
키네마스터
불확실
디플로이
docker
논문
도서는
명세
비헤
엄선
유리
총정리
컨피
해싱
##SA
##ger
##파라미터
##자기
##운트
구현한
제공할
변경하고
레이어로
진행할
지능을
트래킹
##mplate
후반부
##이비어
라이선스
다이내믹
비헤이비어
Kotlin
내는
심벌
안의
어플리케이션
은행
의무
장고
한자
##code
##사회
##체의
##구니
##erge
코딩과
개념은
시작한다
파이썬에서
살펴보는
컴퓨터에서
네트워크에
##etail
입력을
사람들
함께해봐요
하나인
속성과
##emo
세계에서
UI를
크기와
##ueue
벡터의
##lient
디자이너가
코틀린을
오버라이딩
주의점
커맨드라인
Sequence
임의의
직렬화
##스퍼블리싱
챌린지
터미널
WEE
fil
객관
고속
구입
되지
듯한
보편
산출
웹페이지
하게
##리의
##ply
##duct
##IC
##나무
##KE
##국어
##슈머
데이터과학
활용해서
활용하면
이해하자
정리한
아이들은
인터페이스의
공부하기
버전에
사이즈
검사하기
고민을
도와준다
Edge
있으니
##outer
범주형
꾸준히
WEEK
VLAN
dialog
구별
구역
나눠
도큐
등으로
보간
앱인
여기에
원자
유명
지라
책에는
##Sh
##리라
##Con
##간다
##소통
##jango
구성하고
##rom
컴퓨터로
확인문제
설계를
스마트아트
가능성을
공부하다
스타일의
##ocal
안내한다
하이퍼파라미터
탄탄한
프로메테우스
Frame
Rot
kbb
값이
권의
길잡
깊게
나라
동전
막연
삼각형
생물
선행
싶어요
재고
점차
페이드
행과
##rror
##vas
##학과
##텐션
##받을
##ties
이해해야
실습하기
프로그래밍은
제작할
##ecture
것이며
교육이
안드로이드의
숫자로
기업에서
서브넷
암호화폐
Container
Plan
try
그라데이션
없애기
프로덕션
kbbfn
Libr
Query
견고
끊임
노래
바다
바운
수직
스페
않으면
에코
외의
외에도
인구
컨슈머
퍼블릭
##기관
##되며
##니는
##네트
##평가
##배열
##렉스
##답니다
##듭니다
환경에서의
화면에서
과정의
개발자라면
스크럼
응용문제
사례와
아키텍트
모델링의
시각화의
리눅스의
##eader
간편하게
##Art
WORD
Tw
function
다질
당시
목적으로
서보
쉬어
예방
윤곽
일으
표면
##기반
##lit
##BT
##단계
##으로서의
내용에
추가하는
추가하여
연산을
##에게는
개요를
생각할
문자열과
결과가
스타일로
##플로우
프레임워크의
프리셋
주소를
라우트
포인터의
업데이트하기
Channel
게시물
존재하는
사실을
람다식
맞추어
크로마
Note
Learning
CE
Live
MAC
Sn
Source
import
xml
높이고
렌즈
마라
명명
모서
물건
신청
왓슨
원시
웹을
인문
일하는
주차
지오
첫째
케이블
풀링
학문
횟수
##s를
##이었다
##pi
##용으로
##시안
##캐스팅
설명으로
예제들을
내용들을
하나요
이벤트를
레이어에
스타일과
완성하는
사용법과
스마트폰을
위치에
역할과
세상에서
향상을
브라우저에서
경로를
##mega
##Controller
다르다
망고보드
##Component
도큐먼트
Flow
Per
fin
나오
등에서
명암
발휘
제출
창작
활약
##uction
##사와
##코어
##울러
인터프리
언어인
API의
스크레이
순서를
도커를
차이가
const
Module
좋아요
##ustom
##umpy
INDEX
site
고차
넣어
리포트
문항
보이지
없어
와이
의도
전부
커피
코스
표로
화려
##ASS
##들기
##레딩
##랜드
##페스트
분석할
필요는
테스트의
도움말
사이에
##otype
모두를
옵션을
슬라이드에
static
규칙을
보정법
상속과
대학교
##ING
정보처리기사
DDD
Django
Import
Mode
Top
가위
누락
릴리스
브레이
식으로
애드
잡아
정체
주사
##Db
##Path
##스키
##lay
##드라이버
##티지
##투명
##베로
##편집
##심히
분석해
설명은
개념부터
선택하여
독자들을
지식은
표시하고
경험해
한다면
최적화하기
효율을
로봇을
##usion
러닝의
##tics
회전하기
구분하기
디스크립
이것만
그것을
스테이트
##icker
맵리듀스
이지스퍼블리싱
VS
over
교양
두뇌
레코딩
많습니다
무시
비활
상단
설득
워터
정치
참가
콤보
해서
희소
##리언
##저닝
##인팅
##jax
프로의
##orage
구성돼
학습합니다
도구가
프로젝트와
알고리듬
구조에
시작과
핵심을
준비물
요소에
버전인
##amil
변화하는
주제로
하드디스크
index
파악하고
지속적으로
핸들링
##angu
논의한다
비롯해
##ount
SUMIF
궁금증을
##프로그래밍
##amily
Att
Ge
IR
Manag
Pattern
Search
target
고찰
권에
능숙
되도록
백그라운드
빌더
뽑아
성격
스태
어플
옵티
운전
커리
##만한
##시스턴
##타운
##셈블
##듀서
기반을
Process
계층의
##코드를
##ework
info
##ramework
유지하기
서브쿼리
경사하
##사이클
ATmega
Poly
IN
Machine
Media
size
web
값으로
게다가
경력
글머리
나를
나에게
라디오
보내
싱크
쏟아
아무리
웹에서
입히기
저항
##하나요
##vis
##UE
##식으로
##니까
##느냐
애플리케이션과
문자와
##action
서버에서
레이크
##essage
##lob
구축과
문서에
기법의
마이크로컨트롤러
한다는
템플릿을
마이크로서비스의
수식과
엔진의
스택의
주의할
바이러스
느끼는
스캐너
##ception
Monitor
##bserv
브로커
COR
MAT
그중
동료
때까지
문을
보인다
부스팅
불과
블로
수단
시니어
접하게
주장
줄여
캡션
##aint
##비지
##초보
##just
방법의
알아보자
시스템이
기초가
필요한가
경험할
##라이저
완성할
유튜브에
추천사
지정하고
Oper
찾아볼
지능이
클립의
텐서플로를
읽어야
등장하는
신뢰할
생산성
왜곡하기
본격적인
인터랙티브
이터레이터
선명하게
익스플로러
##Service
##uffer
와이파이
Ajax
Raw
Tree
sub
건너
나가는
로블록
배려
봅시다
색보
심플
음식
재무
좀비
지배
파생
한편
후기
##리디
##요약
##사인
##었고
##했는지
##zz
추가로
작업이
정리하고
##eturn
설계하는
API로
스마트한
빅데이터와
연구를
Proper
그룹으로
Conn
Config
유용하게
목록을
제시하는
##andom
코틀린의
과제를
목적에
장점과
풀어보기
현장의
##osition
Autom
컨설팅
에너지
팔레트
Block
JW
family
곡면
교통
떠오
모놀
시맨
암기
암시적
앨범
얻고
유스케
재정의
플래그
##PL
##light
##Manager
##FT
##호화
##형과
##Ad
##소한
##받은
##받아
##탬프
내용만
입력하는
실무를
한다고
그래픽스
용어와
HTML과
검증하기
타이핑
체크리스트
측면에서
담당자
성과를
##소수점
Dep
끝내는
도해
돋보
등급
보유
아닐
아울러
언플러그
오해
위하여
입니다
전제
티베로
현직
##eep
##라우드
##시대
##OW
##거시
활용법을
알아볼
##loy
해결을
타입을
Index
마스크로
역사와
초보자를
조회하기
##Stream
공공데이터
##연산자
add
CASE
ER
Make
cv
내의
누군
단말
당연
레거시
물어
비유
사무
샤이니
쉽다
열심히
요일
일자리
절약
척도
취미
##하길
##back
##꺼번에
##ective
알아내기
시작했다
제공해
만들어보기
생각이
배경색
컨테이너의
이어서
성장하는
산업혁명의
SDN
매니페스트
직관적인
드롭아웃
Position
피보나
유스케이스
HDF
SN
XSS
io
red
거부
내에
리턴
모자
모던
사원
사칙
애셋
어두
이라고
주가
클론
키우기
한꺼번에
활발
##DAP
##of
##테리어
활용되는
이해한다
프로그래밍이
개념들을
응용할
출력하는
흐름에
결정하는
Request
항목을
한계를
인벤토리
ROUND
미세먼
Analysis
스크레이핑
피보나치
Area
Dec
Free
GET
Me
Mix
Rel
im
menu
object
ser
가짜
간접
개론
것들을
구름
대답
도표
떠올
떨어
러시
스팸
에어
장르
형성
희망
##App
##끼리
이용하면
구성으로
Stream
정렬과
경우에
형식을
##ument
도형으로
진행하는
로봇의
인덱스의
지금은
러닝을
스위칭
제한하기
##트로피
##heet
활성화하기
다이얼
간략한
엔진엑스
에뮬레이터
디플로이먼트
##anguage
경사하강법
DR
그는
그만큼
성적
세분
셋째
손에
애그
연주
크리스
##VE
##화의
##큘럼
기술적인
시작해요
과정은
가능합니다
##하다고
버전으로
가상머신
가져와
어려울
슬라이스
찾아서
input
분할하기
문장을
명확한
둘러싼
컨피그
앱인벤
커리큘럼
AOP
Ray
UT
ZB
rep
sort
가기
들을
바꿀
발명
빠짐
숙지
슈팅
않았다
웹앱
전산
접목
채워
특화된
포괄
프랙
##기준
##ct
##하더라도
##pm
##ystem
##NA
##UT
##분해
방법부터
활용에
설명하여
##arm
소개하며
사진으로
전문적인
처음으로
레이아웃을
프로토콜의
장치를
물론이고
배우고자
Series
나타나는
Art
Motion
One
종속성
독특한
Canvas
주사위
Dist
DSL
JOIN
Nav
Pers
bl
달기
묻는
부울
뷰의
신기술
재밌
필독
##yter
##uce
##문의
##르면
##향식
모델로
설명하였다
프로젝트로
실행해
편집과
자바를
개발자는
응용하기
중요합니다
딥러닝에
사진에
영역에서
인터넷에
전문가로
Ext
모드를
향상된
##upyter
브러시를
마음대로
충분한
해당하는
##obe
탄탄하게
##ency
Options
SVG
##justment
시맨틱
BY
PS
Pu
point
거대한
것보다
대리
봐요
스웜
쓰고
올려
요금
원활
증감
채점
탑재
피해
##변량
##fl
##바로
##onic
활용마당
함수들
이해도를
##arac
##ene
기술들을
구현한다
실행과
알고리즘으로
독자들의
독자라면
개요와
Stat
Stro
Stand
배포판
이론적
메뉴를
포토샵의
바꾸어
서식을
Extr
Const
정확도
역사적
##aker
나누고
생산성을
Thread
대기업
Notebook
Simple
최솟값
RANK
##aracter
Doc
LIN
PM
ky
만능
만듭니다
셀프
없다면
에필
예정
차지
추구
키우는
터틀
팁을
##Sc
##NG
##소개
##중한
##말로
##바타
##답게
##tity
알아보는
시작해서
입력한
효과로
방식이
##ision
##emory
탐색적
이름과
수학과
##umm
지정하는
모두에게
순서로
차이를
디버거
훈련하기
인프라를
Def
react
당신이
그것이
채팅방
카운트
입장에서
엘라스틱서치
즐겁게
어울리는
filter
##bservable
언플러그드
에필로그
PP
test
결정하기
구구
리졸
솔리디
싶을
영업
유일
전원
종목
카탈
코덱
##텍스
##스킹
##전문
##세트
##음악
##올림
소개와
작성한다
게임과
##iction
만들어요
Prom
IPython
기업이
프리팹
세상의
제한된
적합하다
Adobe
행동을
방법론을
##ariable
마크다운
##mbol
똑똑한
솔리디티
Br
Gh
Grid
time
다소
리버
모노
백신
선배
앱에서
어떨
잡을
주니어
팩터
행복
##to
##더타운
##비저닝
##대회
##바닥
##tip
소개한
##lear
코딩할
실행하고
적용되는
시작으로
화면의
설계하고
아이들의
제작한
구축을
검색을
검색하고
##oder
공격을
알려주
string
선형회귀
노드의
선언과
##파이썬
고객의
Adjustment
Express
Blend
scikit
직관적으로
DES
부동소수점
비대칭
PWM
매트릭스
빠짐없이
CR
Pan
가족
가비지
공감
말로
명함
분들을
이들에게
차세대
합의
##eed
##에이터
##되도록
##IR
##인을
##마킹
##상에서
##멘트
##봐야
##arch
프로그래밍하기
파이썬에
##acity
가지는
##load
명령행
예측하는
탐색과
복잡하고
지정해
포함하는
##irst
가이드를
노하우가
취약점을
스크래핑
알아두어야
Interface
기회가
놀이를
가입하기
Curve
혼자서도
비대면
일련의
끊임없이
비활성화
BGP
NU
Rab
XD
감수
거북
게더타운
관측
그럼
마세요
모임
솔리드
엔트로피
위키
있던
전국
조치
키를
투시
포그
##어셈블리
##son
##oid
##보안
##보드로
##gment
##함에
##Form
##으니
##제이션
##바티스
##롭고
##ert
활용까지
파일은
관리할
프로그램에서
##lement
선택이
연산과
하는데
표현할
패턴으로
마이바티스
완성도
스마트폰의
사이트에서
##unt
인스펙터
회사통
가치가
궁금해
Selection
Neo
스냅샷
고가용성
prototype
ZBrush
구구단
date
up
강아
괜찮
그때
기동
메쉬
수가
쌓기
알람
애노테이션
이항
이들을
있기를
출처
충족
회복
훑어
힘든
##lace
##ric
##hod
##US
##사각형
추가적인
클라우드에
##ody
모듈화
문자열로
##igit
최적화를
공격의
js의
찾아라
Spark
클립을
##ttp
HTTPS
블로그를
read
DAY
장애물
오래된
매력적인
Curv
웨어하우스
Database
##rivate
극대화
다이얼로그
궁극
길러
넘치는
모험
몰입
보존
뼈대
심리학
써야
쓰레드
여섯
왕초보
중국
평범
할까요
회피
##은행
##드의
##형의
##정렬
##AE
##사가
##점과
##잡기
파이썬이
저장과
기반한
##loat
그림판
테이블로
조절하는
불러와
양자역
마무리하기
포인터를
하드웨어와
일러스트레이터의
선언하기
목적을
중복된
마케터
DATE
살아가는
자율주행차
폭넓게
옵티마
JWT
앱인벤터
kyob
Ag
Day
Queue
aw
box
결함
기를
때도
마우
색의
색조
수용
수백
어휘
옵셔널
자르고
##sc
##메트리
##법과
##오스
##품질
##히려
##설계
##하기도
구현하고
도구에
내용도
기초와
##stance
배열로
배열에
변환과
계산하는
라이브러리로
사진의
사진과
##ission
수집하고
##ote
이펙트의
보여주
공간의
쿠버네티스에서
구조체와
집계하기
Play
##trl
##프로세서
아카이브
##연구소
일어나는
##ycle
Collection
마찬가지로
Mini
크로마키
GCP
GRU
RDS
TR
것들이
레디
버킷
삶의
오히려
채용
출현
헬름
##해온
##작성
##ous
##base
##간에
##Unit
##AY
##인데
##인물
##바구니
##맥스
##따기
함수에서
코드에서
구현에
##ated
시작하고
관련한
검색엔진
모듈로
계산을
시각적으로
리스트에
공유하는
유형을
학생들에게
마스터하기
초보자가
##ension
OSPF
##oute
DAO
출간된
스테이지
세팅하기
가속도
Pres
불가능한
이외의
눈높이에
Async
로블록스
Ionic
R과
SL
WAN
case
max
range
갖게
갖춰
걸까
구도
달력
동화
레플리
무기
보통
불리언
쌓아
애너
온프레
용지
웹소
있음을
중고
취급
측정하기
##cl
##oC
##아이
##데미
##자동
##할지
##검정
##힙니다
실습으로
생성된
디자인이
##에게도
클라우드에서
딥러닝과
신경망과
공부해야
비교적
IPS
클러스터를
포함해
수준에
##irc
사회의
시험을
##izer
최근에
유니티의
Develo
조직의
##allen
반환하기
대체하기
심화문제
##인공지능
라이프사이클
HDR
카탈로그
High
Jupyter
UART
그다
그저
긍정
꺾은
다리
만나는
맺음
메카
셀을
소품
시사
여성
열린
옮겨
이들
팁과
##DM
##Mod
##val
##IO
##학을
##결과
##랫동안
##으로는
##ared
관리에
도구인
시작하여
확인한다
연결해
자바와
클라우드와
아이들에게
문서로
분야는
##abil
입문자를
바꾸고
결정을
부트로
어렵고
도와줄
##DAY
들여쓰기
Matplotlib
PROP
리플렉션
easys
##Dbg
Management
Rabbit
##allenge
AE
CG
Rem
XGB
find
값에
내림
능동
닷넷
더해
뒤집
디코더
명시
명시적
미술
반올림
수십
순전파
스티브
앞에
예로
오랫동안
왼쪽
장이
전면
정신
주파
지닌
파괴
해준다
히트
##어를
##DE
##Set
##test
##로우
##amp
##BC
##량을
##플롯
프로비저닝
추가해
게임에서
환경이
선택할
##etry
AI는
공부해
아니면
것이고
##ribut
비교해
패키지와
이동하는
연구자
가져오는
사고의
진행하기
파악하는
보고서를
검토하기
##formation
ECM
전공자
시행착
부드럽게
생생한
tooltip
목소리
맺음말
Cluster
Ctrl
DS
Main
Match
plot
the
나서
다를
보상
비중
사설
산점
살고
상승
성별
셋업
얻어
자극
재시
천재
커서
토끼
페인팅
플링크
##기업
##ee
##ka
##mit
##원의
##상거래
##체와
사용될
도구들
따라할
연산자를
가능성이
지식의
##하다는
하나는
테이블에
공부한
SQL로
과학과
과학적
콘텐트
다운받기
컨트롤을
발전하고
무엇인가요
수준을
이야기가
지능형
##lif
테크놀
기억장치
음성인식
전자상거래
##ible
수익을
가르치는
좌표계
간결한
유니코드
##ㆍㆍㆍㆍㆍㆍㆍㆍㆍㆍㆍㆍㆍㆍㆍㆍㆍㆍㆍㆍㆍㆍㆍㆍㆍㆍㆍㆍㆍㆍㆍㆍ
Bar
Boot
Master
Null
java
ph
가우
것일까
고르기
그럴
그치지
다트
많지
배색
보험
보급
뷰와
빈티지
셀의
시프트
영국
인테리어
장벽
장바구니
##기도
##조사
##진한
##분야
##츠만
##학술
##jection
##언스
개발이
제공하며
가지를
단계에
표현을
##raint
엑셀과
동영상으로
배경음악
참고할
알려주고
사이트의
##idra
도형에
옵션바
기계의
주소록
Read
스파크의
워크북
역사를
목적은
의사소통
Symbol
##ameter
Enc
##mbed
마인드
가시화
##pha
적절히
Library
스페셜
RabbitMQ
XGBoost
CON
Copy
Fusion
ME
SU
kub
감염
그냥
나올
동의
무조건
볼츠만
색깔
아바타
웹드라이버
진실
파인
포팅
##tem
##ii
##이든
##아노
##MC
##커스
##가락
##TH
##Ac
##마켓
##았던
##즈를
사용에
이해하지
실습해
내용의
작성된
살펴보며
변경하는
##abor
패키지의
##되어야
그래픽을
의미와
##ERAGE
자유로운
마음으로
exe
##uck
슬라이더
트렌드를
유연한
예약어
##cept
휴대폰
Co
FOR
Language
RT
Su
SC
Shape
part
개설
도장
두께
마술
만날
모나
밀도
반지
에버
열어
유출
익힙니다
잘하는
정석
정보기
직면
초중
트릭
형변환
##졌습니다
##어버
##과는
##이딩
##port
##모드
##CC
##시브
##대체
##중앙
##너스
##til
개발된
구성해
관리하고
소개하기
##lean
추가와
##round
단계에서
텍스트의
##oll
마이데이터
조건이
정렬의
통합하는
수집과
프레임워크와
숫자와
센서를
Scal
옮긴이
막대그래프
##RPC
적대적
CMY
샌드박스
화려한
디스크립터
HDFS
어두운
Ghidra
가우시안
D프린
LO
Xcode
min
개방
공존
모른다
문맥
발사
밴드
보이스
불투명
빛의
생기
쉐이더
실적
원래
읽은
주택
척척
터널
퓨처
##다이
##선으로
##세한
##계수
##카락
##명을
##셔닝
생성적
클래스에
그래디언트
정의하는
구축에
변환하는
접근성
접근하는
애니메
테이블과
애니메이션의
배경에
속성으로
##했다면
예측을
통신의
순서도
단순화
목표는
프로토콜을
모니터링하기
수식으로
스파크를
회사의
Character
영향력
원칙을
구조체의
완벽히
고민하는
그렇지
복구하기
조금씩
머리카락
다이어리
움직임을
##어나고
Texture
만족하는
소비자
적극적으로
Shadow
시행착오
Clip
DM
Face
SF
XOR
npm
개를
끝에
말이
묶기
불편
살려
스푸
심사
없지만
없었다
열을
전사
정기
조종
지리
지름
추측
치수
크리
통일
##라이드
##board
##문과
##치게
##점검
##제품
##두고
##코드로
##추에이터
##테이블
##페이
따라해
##room
연습문제를
검색과
요소가
정렬된
패널과
탐색기
완성도를
인식하기
자동화된
로봇이
포인터와
어디까지
스택을
Challenge
Serv
품질을
예시를
Unpl
폭넓은
바닥글
벤치마킹
옵저버블
##ugged
미세먼지
##ictionary
스푸핑
Bin
Box
Call
Hue
WH
out
교정
녹화
달려
도대체
뒤에
드립니다
밝게
백트
보아요
사로
실시
않지만
우려
점에서
핀테크
혜택
##가가
##Text
##AML
##xy
##소에
##규칙
파일럿
살펴보
따라해보기
##까지도
문자의
단계적으로
State
분류와
기법에
상태에서
컴포넌트와
컨테이너와
경우의
윈도우에서
유튜브를
메서드의
Opacity
산업의
의미가
향상시킬
추적하기
공개키
##osh
중첩된
##outube
군집분석
무엇이든
Number
느껴지는
전화번호
깔끔하게
광범위한
머릿속에
Corr
Surface
인터프리터
강아지
easyspub
DL
DLL
MAX
TO
aut
clo
pack
return
xx
갑자기
고도
낯선
도달
맞이
모여
무언
배송
복수
부딪
올가
일시
읽으면
잡는
전치
지형
탈중앙
팀원
플렉스
헷갈
혼란
##부록
##ryp
##리더
##pro
##함과
##지컬
##린트
##임을
##났다
##으로의
함수란
하나를
동작하는지
##riter
로그아웃
##OSAL
##vers
변화가
스트링
보여주고
Real
여러분도
기준을
단어를
IDLE
Content
##AScript
국내외
출제된
##DATE
부동산
##IGRP
Firebase
Stroke
PROPOSAL
Game
LCD
Mark
Observable
me
node
page
규격
꼬리
델리게
레드
바뀐
발송
삶에
생기는
스니
액추에이터
에세
영구
왔다
있지요
장마다
저는
점진
코랩
타원
패션
하거나
항공
##해지고
##장의
##출판
##카피
##히고
##였습니다
클래스로
효과음
소프트웨어와
반복되는
영역으로
자바스크립트와
플랫폼에서
##idden
기업들이
마스크를
##ormal
Check
결합하기
카프카를
일상을
##ally
해킹하기
테크닉을
케라스로
이루어진
어디서나
슬라이서
트랜스포메이션
##atis
수강생
리포지토리
POST
곳곳에
Unplugged
table
각도
깨닫
단지
묘사
믹서
생동
선도
선보
스페이스
아우
예전
이끄
저술
중점
진도
태깅
학기
##con
##XC
##공개
##ze
##설정하기
##연습
##검색
활용되고
분석이
핵심만
##ets
##olve
가능하도록
배우려는
중요성을
엑셀왕
이벤트와
교육과
세계적으로
트리를
전문가들이
일러스트를
목표와
자동화를
자동화하기
정규분포
재미를
지능과
Delete
대학원
넘어가
기출문제를
안정성
VMware
철저하게
상당히
SmartArt
즐겨찾기
await
ECMAScript
올가미
Coding
EIGRP
Get
Hash
SR
TER
내적
단기
달러
반면
배제
부서
스와
알맞
인과
적분
콜라
키샷
탁월
표에서
한빛
##차순
##Data
##rent
##리와
##mm
##To
##나가는
##오프
##평균
##ero
##ernet
기술인
사용자는
문자로
컴퓨터활용
영상으로
객체에
대해서는
제작의
시간의
스프린트
차트에
수집하는
범위의
채널의
스토리보드
장치의
대응하는
Scri
않고도
이어지는
수록하여
prod
시뮬레이터
반환값
느낌을
오늘의
수익률
Alpha
방안을
인사이트를
가독성
워터마크
##시스턴트
산점도
에버노트
CMYK
EE
Lum
OC
al
hel
곳에
넘는
넣고
년이
돈을
들려
때로는
래퍼
마운트
멀웨어
묶어
바이블
샤딩
수년
아빠
열정
외곽
전력
정돈
지면
체제
투영
파고
표에
푸는
해볼
했던
##감과
##하듯
##pon
##야말로
##들여
##레오
##레이브
##디션
##거운
##개념
관리체계
프로젝트는
언어에서
변경할
Style
저자들은
사이에서
세계적인
Insert
##vert
통신을
수정하고
포함하고
개인의
대화를
차이점을
지도를
VRay
리액트를
제약조건
CLASS
간략히
간략하게
인류의
한국어판
##struct
##시킨다
리버싱
옵티마이저
TERMS
FI
Framework
Layout
LDAP
vec
관점을
괄호
그의
놓은
대역
롤링
몬스터
변조
별로
부르는
세밀
승인
의자
일부분
직무
진보
커리어
##ble
##메모
##방울
##GG
##미분
##KS
##영역
##배치
사용합니다
만들며
구성이
편집하고
제공하지
자바로
텍스트로
만들어본다
분야가
빅데이터가
교육에
삽입과
##ations
메서드로
##very
통신하기
##unk
유형과
study
타이밍
훈련된
사회에
대응하기
Chart
속도로
##ope
번호를
판단하기
이중화
Access
정복하기
Phys
수동으로
스킬을
ICMP
Dynamic
Operator
평범한
레플리카
주파수
이끄는
컴퓨터활용능력
Cal
ICT
gRPC
system
고품질
곳에서
놓치지
둥근
로보
멋지게
민감
불어
사후
예산
웹어셈블리
유입
이익
입자
있거나
있었던
장착
초판
카이
페더
프롤
피지컬
화폐
##air
##By
##메이
##지와
##제작
##했기
##티드
##que
##테스터
##통제
데이터형
활용과
프로젝트가
정의된
사람들과
준비를
자료의
표현과
만들어서
만들어야
우리를
부록으로
통계량
통계분석
암호학
발전을
int
예외처리
현실의
업그레이드하기
기기의
혁신적인
##그라피
바라보는
Neural
Sketch
신기능을
blank
Promise
애너테이션
프롤로그
TH
lib
not
num
개괄
결코
과대
교시
구한다
끝나
노력을
도로
돌아가
몰라
미러
바꾼
밸런스
부에서
뷰를
서피스
성취
세우기
숨은
오기
우회
위에서
유한
직강
학술
화두
##스는
##oup
##수신
##로직
##pr
##pack
##가의
##Kit
##바이저
모델이
실습이
프로그래밍이란
작업하는
영상과
변경된
준비하고
##utable
요소로
속성의
##ched
##rix
자바스크립트로
자신감을
공유할
도형과
사고방식
모드와
##andler
##uple
config
Any
reg
강조한다
일부를
앞으로의
집필한
자체가
##만으로는
##ugh
ASM
달라지는
Fill
Controller
##kinter
##네트워크
##lobal
Properties
INS
MC
MF
Plot
Sl
multi
것부터
겪는
공인
권한다
노동
데모
루마
못하고
번들
병목
빛나는
수량
시기
앱이
웹과
이르는
자가
제일
쿠폰
큐의
툴킷
푸터
##Point
##란히
##용어
##de
##선과
##냈다
##즈의
##믹스
함수는
프로그램인
선택해
제공자
효과가
##ute
방식은
조건식
##하지는
스프링의
연구소
정규형
기획하기
여러분을
OpenGL
IDS
정도의
절차를
실력이
자체를
중간에
올바르게
꼼꼼히
해결책을
AVERAGE
이기적
Constraint
Curves
Bit
CT
Cut
DV
LXC
Sat
des
길벗
다만
둘째마당
매기기
면적
문구
숨어
아티
연쇄
유통
이때
이스티
일일
잡고
정해진
충격
퀀트
테라
표와
하단
할인
햄스터
##ront
##ian
##모의
##가면서
##Bar
##터스
##주소
##일을
프로듀서
기능부터
이해하면
연산의
클라우드로
텍스트와
무엇일까요
개발자들에게
Storage
표시한다
##ooth
스타일링
교육은
트리와
가져온
인간은
사고와
AWS에서
개선하는
##istory
재미있고
자료형과
렌더링하기
디렉티브
성공적으로
게시글
수록된
시트를
계속해서
투명하게
트레이닝
##ences
##EXT
Team
model
분위기
똑같은
파헤치기
거북이
사로잡
Cl
IV
Loop
Pub
Trim
Vector
elif
from
ul
value
word
개로
거대
계수
규약
다채
단편
말해
모호
반짝
브이
외에
월별
이들이
준수
초지능
추진
팀의
후에는
##과제
##함이
##md
##되게
##지원
##고를
##탐색
##슈팅
##첨단
##ino
파일이
예제가
따라하면서
서버로
기반이
무엇이며
페이지에서
변환기
라이브러리에
##ables
배포를
성능과
참고자료
입문하는
수학의
##verse
##ume
변화의
메서드와
사이트에
요구하는
인식하는
움직여
차원배열
고려할
없이도
보호하는
개체를
장점이
생활을
미션을
익스프레스
이것은
##하시는
어디서든
안정적인
탄탄히
학교에서
갖추고
##play
Intel
Linear
open
정교한
스포츠
##ginx
친해지기
프랙티스
Build
Circ
Is
Load
NFS
Title
UN
bj
고수준
녹아
도래
매직
맥OS
맵핑
미디
범례
별도로
속으로
시절
신체
없고
올림
인용
좋게
최첨단
타겟
플립
##다른
##Re
##라벨
##bar
##드를
##TK
##A의
##회사
##클라우드
##개를
##친다
##엑셀
##tim
기본값
개발은
분석한다
설정한다
문제점을
필요에
테스트에
테스트하는
문자형
##ross
가지의
운영을
머신러닝에
버전이
차트와
##이라이트
플랫폼과
리눅스에서
전략적
인증과
단순하게
수준으로
검증된
카메라를
쿼리를
어디에서
블록체인을
등장한
Color로
생활에
Shift
비용을
##mail
Internet
아직도
살아남
임포트하기
폴리곤
아름다운
되돌리기
##anced
학부모
Chap
Custom
Eng
MP
Run
Vu
fl
pre
나갈
논쟁
다뤘
동적으로
두면
로더
마켓
못할
믿고
불가
앱과
일자
줄이는
초과
큐비트
플래
하려면
한마
##어의
##sing
##emplate
##모터
##니스
##편차
##등록
프로를
##스트림
구성원
실행한다
작업은
게임은
애플리케이션이
Str
만들어주는
출력을
그래프QL
성능이
시각화하는
상태의
상태로
실전에
추천의
형태소
js로
js와
벡터와
프로토콜과
기존에
제품의
질문과
사회를
코틀린으로
Sci
모양의
라즈비안
프레젠테이션을
##그래피
얼마든지
Component
발견할
SDL
이모티콘을
Align
전역변수
의사결정나무
스크린샷
바이오
contents
베타리더
DDoS
경진대회
MATCH
Connect
LINQ
##igital
테크놀로지
이스티오
Base
Button
Cache
Flas
Li
RF
Sql
You
가구
규정
그루
기댓값
다수
도우
리다이
명이
못했던
문으로
방해
보물
붓꽃
브리지
슬롯
시야
아버
위주의
유익
음영
줄이고
초심
축적
통화
투표
홀수
황금
##차게
##스태
##vir
##시기
##나고
##버트
##점에
##텐츠
##눗셈
##페인
##enter
디자인은
작성을
패턴에
명령문
특징은
원리에
##ages
마이크로카피
사항과
완성해
오브젝트에
메뉴와
##ational
효율적
위치와
지정한다
모두의
이상한
유용하다
json
Spot
향상시키기
태그를
스트림의
프로그래머의
Scene
프린터의
백업하기
##obook
Three
드라이버를
입체감
어디서부터
너무나
해답을
가공하기
복원하기
doit
규모의
##lipse
org
이루어져
self
유전자
오퍼레이터
멀티스레딩
분들께
스테이트풀
모자이크
한마디
FA
He
NE
Picker
Rest
hidden
국민
귀여
그만
끝날
끝내기
늘리기
믹싱
배움
보너스
성향
소양
수채
스코어
시원
쌓을
악용
이하
지혜
지브
페르
활성
회분
##기법
##PG
##만들기
##형을
##시스
##되면
##A를
##자들의
##방안
##식의
##전략
##일드
##했는데
사용이
처리한다
작업할
선택을
정리하여
##acebook
편집에
효과와
##study
준비할
문자열에서
리스트로
경험은
##eph
배경지식
교육용
경우도
가져올
크기에
지정된
이상치
모드에서
로봇과
계획법
제시합니다
날짜를
스택과
프로그래머를
Chat
물리학
리소스를
Adv
request
Noise
되어줄
##LETE
케라스를
디스커버
어려움이
해답은
수험서
##ucture
trans
바뀌는
녹음하기
컨설턴
잘라내기
ACL
##public
온프레미스
정보기술
bjpublic
EM
GN
OF
We
var
youtube
글자를
기기를
깊숙
대의
대세
더블
돕고
등은
때가
루틴
말풍
말이다
메신
발급
배터리
봐야
샤드
슬레이브
시스코
아쉬
어쩌
없도록
웹디자인
유비
유행
의뢰
이식
점수를
좋을까
지키
차시
통지
푸리에
피아노
필자는
해부
##DU
##RF
##ior
##iting
##ness
##ground
##Tr
##QR
##Watch
##상에
##구나
방법들을
기본편
이해하게
##API
구현과
다양하고
설치부터
디자인하는
코딩해
실행을
입력받기
##ingle
만들어내는
동영상에
실전에서
인터넷과
##emy
이유가
크기의
포함되어
벡터화
인덱스를
세상이
향상시키는
태그의
플레이북
내장된
이번에
당신을
기대한다
스토어에
작가의
모으기
트러블슈팅
##plyr
모놀리
php
##oshop
메신저
DML
End
Math
MIT
OPA
Sort
cl
sample
user
끄기
나눗셈
던지기
라라벨
마진
맥을
메소스
무따기
믹스
보강
복호화
불리는
빨라
셋째마당
소리를
악기
웹에
이세
이젠
차산업
체스
팀이
회선
##ov
##이와
##Object
##으려면
##식과
##Qt
##소나
##HT
기능까지
개발해
게임이
##etri
제공됩니다
아이패
명령줄
소프트웨어가
##ectl
표시줄
컴포즈
##ish
아니지만
이론적인
크기가
콘텐츠의
지원하기
참조로
특정한
레이아웃과
start
inter
하드웨어의
REPL
확률분포
어렵습니다
오버라이드
없다는
모양을
MyB
교재를
수록했다
Arch
지역별
이전에
##PEG
경쟁력
##EEE
##되었으며
여부를
간결하게
DELETE
베타테스터
서울시
RPC
Photoshop
따라가다
길잡이가
Plane
##zzle
세분화
Saturation
##viron
CU
May
MID
Task
Vec
catch
group
keras
let
nd
계단
고수
공분산
눌러
다이나
대형
대량
돕기
리모
무궁
반대
배깅
살아가
생체
성숙
야구
인그
읽다
지지
키와
툴과
틱톡
피어
##SC
##보지
##로워
##be
##Code
##지면
##있다
사용하자
##스트라
이해하도록
알아도
컴퓨터과학
편집하는
화면과
응용예제
만들어라
사용하는지
##isk
가상의
메모리와
이름이
공격에
표준편차
stat
PC에서
READ
안내합니다
오버레이
안전성
##iper
조합하기
흥미진
언제나
전반적으로
백업과
강화학습의
입문서입니다
특수한
당신은
회로를
Dockerfile
Activity
익혀야
드라마
부모님
Move
윤리적
소수점
침해사고
오퍼레이션
고등학교
NULL
지름길
doitstudy
귀여운
유비쿼
이세돌
doitstudyroom
Bal
BET
Board
Ceph
E형
ET
If
R로
RDB
SK
Summ
Tech
dplyr
met
급속
대결
더하는
명도
법적
보게
빌딩
빛을
스카
슬랙
심리
와일드
이로
전술
찍어
하이라이트
##라스
##시는
##자들은
##사원
##었을
##강의
##상태
만들려면
구성할
문제들
코딩교육
핵심요약
편집할
설계에
시간대
반복해서
부분에서
필터와
성능에
패키지로
컨테이너에
연구의
색상과
그래픽으로
어려웠
싶은데
도형의
인식을
Cons
클라이언트와
공간에
다음에
가이드가
확률과
Unity
요청을
시리즈의
ref
데이터셋을
SSD
Expression
드로잉을
익스프레
Active
감정을
##ferences
시점에
##RUD
친숙한
Software
변동성
RAID
웹소켓
델리게이트
##vironment
무궁무
유비쿼터스
Cap
JUnit
Kn
Man
Sol
TEXT
Vol
micro
rec
각광
금지
듣고
명칭
뺄셈
사는
소중한
쓸모
알지
어른
연령
와이즈
웹툰
유기
유럽
잡티
체이닝
최상
키노트
흐림
##Res
##s의
##Mesh
##gr
##대학
##적분
##회의
##바이
##같이
##쁘게
##er를
방법인
구성한
실습에
학습된
도구들을
필요할까
사용해보기
부분의
부분으로
결과의
결과에
##oolean
애니메이션과
확장하는
모델링과
연구에
문법이
효율성을
복잡성
##ade
리눅스를
이펙트와
컴퓨팅을
사용할까
범위가
주제는
차원의
하드웨어를
학생들의
목적이
성공을
##함수와
이후의
##ABLE
SSI
##obile
측면을
##ISE
애널리틱
QR코드를
예상문제은행
두려움
브레이크
능숙하게
kyobobook
Correction
CRUD
GDP
Lecture
Memory
Pack
SPA
TDD
iter
개월
근간
데이
돋보기
듣는
등도
떠나
말할
몇몇
무인
반대로
불꽃
비서
뿐이다
수와
스노
쌓고
쓰여
위상
유발
절감
초반
편안
##해킹
##이론
##by
##Button
##원을
##시켰
##으신
##사전
##전자
##번역
##입력
##렌즈
##바위
##난다
##필드
##참조
##tiful
활용이
활용한다
기본인
##enium
내용까지
인공지능이란
살펴본
##이지요
객체로
제작과
API에
경험한
이론에
업무의
메모리를
메모리의
##search
들어가는
유용할
공간에서
양자컴퓨
주소와
텐서보드
리액트의
오버플로
스레드와
일상의
흥미롭게
협업을
모형의
자원을
명확히
리터칭
구독자
생태계를
써먹는
수험생들의
##IGN
arg
printf
깔끔한
Analy
NFV
멀티스레드
나아갈
장까지는
CEO
건너뛰
레디스
갖춰야
##자동차
그다음
에세이
GRE
IEEE
Lock
Native
Pi
Ter
가용
나중에
대출
돌파
매장
머지
세련된
손가락
수리
어셈블
의심
인력
일에
저렴
툴의
피사
해독
해보자
회화
##서입니다
##함수의
##지가
##터와
##판을
##계의
##닷컴
##릅니다
만들었습니다
분석은
실습과
구현된
코딩하는
##acy
변수로
독자대상
텍스트에
LEFT
응용해
문서와
사례로
운영하기
분류를
하나가
스프링을
컴포넌트에
로그스태
##했다고
처음에는
최신의
평가와
이름의
공격과
수정하는
논리회로
들어간
기업과
도전해
도전문제
AWS를
누구보다
강의용
스토리를
이야기한다
가이드북
현실을
그러므로
인프라의
취약한
특성과
조합하여
##actor
단축키로
파티셔닝
##lick
병합하기
입문서로
이슈를
연관된
CloudWatch
정수형
##되었고
마크업
통찰력을
모르겠
Quick
스캐닝
##autiful
들여다보기
가위바위
##전문가
##mbedd
모나드
Lumetri
OCR
##메모리
INSERT
도우미
로그스태시
Cat
GPT
LG
MI
Mission
SH
git
numpy
sys
void
가고
개성
것만
그들의
내게
다지고
답답
동적인
드럼
랜섬
문양
뮤직
배수
별책
볼까요
부를
서평
열쇠
예능
일의
정작
주관
진법
찍기
체득
최선의
캠페인
콘텍스트
퀄리티
프롬
프라미
하트
하더라도
회계
##해질
##어로
##스럽
##tom
##az
##는지를
##OC
##Time
##문이
##자들에게
##니컬
##확률
##었지만
##업체
##색을
##구하고
##머스
##응답
##독자
##렸다
사용의
개념도
##alid
정의한다
연결하여
준비가
페이지로
리스트에서
있을지
업무에서
자바스크립트는
##umer
리눅스에
모니터링과
수식의
지능은
제시해
워크숍
세상은
내부에서
태그와
안내선
인쇄용
개체의
능력은
조직에
교재는
카프카의
시트의
집중적으로
Composition
토큰화
NOT
대화상자에서
ROW
ORM
합격을
답변을
설문지
Office
벤치마크
Rotation
시사점
auto
Advanced
가위바위보
프롬프트
Del
Ec
Em
HUD
Socket
Tra
VAE
super
값과
과감
느낀
달아
디코딩
막상
매치
물방울
뭐지
벗어
봐도
분량
상업
생길
수천
실수를
얘기
오리
외국
이니
인접
일째
점이다
종종
주어
즐길
증권
페어
포스팅
표정
플랜
필름
##차별
##스가
##스토
##스튜디오
##ling
##Maker
##En
##vider
##kit
##화에
##요일
##들어
##버전
##마이닝
##미션
##위를
##개의
사용과
이해한
##atter
처리하고
시스템으로
##aces
준비해야
아이디
제작하고
해결해야
배우자
사용하는가
중요도
##인가요
동작과
부록A
이동과
인터넷이
전체적으로
포토샵으로
플러스
범위에
수준에서
만들고자
예외를
연동하는
대응책
Trace
속도가
필드의
##qual
일상에서
##osit
시트에
본문에서
오라클의
scan
##ouse
##되었으므로
조언을
달라진
유니버
사라지는
전이학습
유튜버가
싱글톤
UPDATE
밸런싱
끌어올
해소하기
seq
##rowser
WinDbg
사칙연산
Navig
Standard
Document
close
Engine
랜섬웨어
C와
Digital
Lake
MIN
MOD
Prim
WE
WSL
aep
call
go
head
pop
top
가벼
그로
기저
릴리
막기
별칭
보이게
비판
송수신
시키
열의
잡지
지각
크레
타고
트레이드
편견
포즈
##다란
##PRO
##스럽게
##서다
##장에
##니아
##점은
##상적인
##way
##론적
##추얼
##절로
##층의
##ern
만들지
만들었다
##ond
##iny
설명했습니다
핵심은
게임으로
하는지를
다루었다
저장할
자료와
Start
조건과
접근통제
기법들을
로그를
##urrent
수집한
용어가
도전하기
멀티캐스트
제품과
Spline
Split
사전에
##ERC
보정하는
미리캔
컬러링
##ORT
타임스
창의력
자료구조의
노력이
체험하기
간결하고
통찰을
apply
장단점을
Address
Intro
Offset
근본적인
막막한
Polyg
Mixer
##모의고사
아이패드로
GDPR
GRO
Normal
OK
OOP
Paint
api
doc
gil
pl
pip
tb
거울
내포
둔다
드디어
든든
딱딱
릴레이
벽돌
불구하고
송신
수상
시선
쓰레
알차게
어텐션
엑스
연도
웹서버
인기를
있답니다
정립
제가
지불
짝수
축약
패딩
품사
하라
행사
##ls
##이미
##리콘
##gate
##화할
##시아
##분류
##유의
##언이
##당한
##퀘스트
기능도
##한다고
이해관계
프로그래밍으로
시작은
살펴보자
정리할
영상처리
##olor
시간은
소프트맥스
페이지와
만들어지는
반복적인
생각보다
운영자
##abel
것이라는
SQL과
##rive
통계를
추천하는
전달할
개선된
카메라로
복사와
복사하고
러닝과
워크스페이스
메소드의
할당하기
원칙과
레시피를
집합의
언제든지
그렇다고
DAX
발견하고
##AMP
시장의
매출액
순차적으로
있으나
받아들이
Controls
최초로
##Array
csv
부드러운
객관식
서보모터
누락된
Develop
수채화
Cook
Case
Cycle
Find
SAP
Variable
YAML
급여
기수
도착
드는
리얼
부의
비만
선수
소싱
소규모
수사
스킨
스펙트
앨런
재해
종단
주체
중의
큐브
키보드로
탐욕
트러
트렌
튼튼
팀을
파스
풍성
향해
홀로
후킹
흐르는
##ROR
##이티브
##pective
##지정
##전송
##저장
##안을
##투자
##팩트
##피아
##갈피
##벡터
##하는데
구성에
##ention
개념적
시작하며
정보로
인공지능으로
정리했다
반복하는
엑셀에서
분야별
기법으로
영역이
연구원
메뉴에
이유와
회귀를
않는다면
기계와
강의로
발전해
되는지
된다는
멀티플레이
노드를
학생들을
Screen
##iff
자료형의
실험을
단축키를
Shell
음악을
없을까
Auth
반환하는
이것을
Entity
##rade
Layers
증가하고
잠재적인
과거의
ISO
사랑을
Beautiful
TypeScript
충실한
EXERC
Tableau
Animation
지은이의
default
막연한
CORE
##Model
탈중앙화
생동감
탁월한
테라폼
모놀리식
gilbut
EXERCISE
Eth
Fin
Home
Message
R은
Und
강연
계기가
굉장
교보
기분
꿈을
끝으로
낯설
도약
동반
디멘
맵을
멈추
무대
백테스트
밸류
번의
벨만
부수
사과
생일
선의
손그림
수월
쉽도록
스틸
약속
얻게
용도로
우아
웹로직
저수준
좌절
책갈피
출신
탄력
틀린
플룸
합쳐
환영
##이거나
##ken
##물의
##번째
##레벨
##근무
##피팅
프로브
활용도
기본으로
##orch
실행계획
##ONTH
개념의
시작하자
연습을
따라하며
컴퓨터공학
화면으로
자료가
##ices
Sty
Stage
배우면서
접근을
신경망으로
인터페이스에
분류하는
##하다면
레이어와
공부하면
버전과
아키텍처에
입문할
입문자가
완성한
윈도우와
포토샵에서
필수적으로
배치하고
발생한
빌드와
발전에
ITQ
정규식
##ageMaker
대화상
Speed
내부의
항목의
플러그인을
유지하는
메타버
모양으로
테크니컬
오토마
홈페이지의
지역변수
해설을
챗봇을
Transp
Player
MVP
로직을
와이어프레임
##ISC
아이패드를
Resource
다가올
상당한
캘리그라피
소유권
견고한
지오메트리
Puzzle
##메이커
브이로그
디스커버리
##ository
Drop
First
GPS
LDA
RC
build
create
len
run
sm
간에
깨달
낭비
다빈
말자
모멘
버추얼
부작용
빅쿼리
색과
색칠
않을까
알리
앵글
약한
약간의
없었던
에피
장난
저지
전경
전형
졸업
지하
직사각형
진로
친근
켜고
크고
판에서는
##Driver
##gress
##ym
##직한
##산드라
##fter
##플링
##받침
##채널
##예상
##것도
사용방법
생성할
생성자와
시스템은
구조로
작업과
##적으로는
과정으로
조건의
계산과
딥러닝이
저자인
필터의
이유로
논리적인
서식으로
이상적인
강의와
state
검증을
이야기와
있는지에
반복문을
단어의
목적과
읽어보기
매개변수와
절차적
대학에서
공개된
링크를
표현식을
식별하기
얼굴을
트랜잭션의
스크래치로
매핑하기
순환문
##ather
일부만
매니지
이루는
그것은
신호등
방지하기
흑백으로
가까이
사이언스
어드벤
커넥터
select
적절하게
밸런서
Extrude
Panel
kubectl
##Activity
애니메이터
과대적합
Vuex
GROUP
Air
Clo
DNN
EQ
LL
Local
R에서
Route
dis
end
iP
sql
zip
간소
다년
대량의
도식
리퀘스트
마을
명도와
뭘까
방사
번으로
불균
세우고
스탬프
시네
역동
역설
읽으면서
잉크
재활용
취합
카오스
카산드라
트레이트
하노
하향식
##rc
##res
##위즈
##퍼스
##목록
##머니
##놓은
##봄으로써
##큐브
사용하려면
개발에서
분석으로
##array
생성을
추가할
정보는
레이저
변수가
표현의
구축해
해결하고
##ㆍㆍㆍ
만들어보자
제어를
그림의
구글이
삭제하는
##emb
경우에는
평가하는
가져다
회귀와
그래픽의
템플릿으로
지정하여
##unch
레이아웃의
CSS를
반복문의
보고서의
디버깅하기
서브타입
엔지니어가
컬러로
속도와
웹사이트에
고민하고
링크드
위험을
위젯을
COM
집중할
반영한
막대형
장면을
URI
이루어지는
MLlib
스위프트의
투명한
현대적인
사업자
확실한
게시판에
부여하기
손실함수
AutoML
업계에서
스플라인
Graphics
어려워하는
맞춘다
SOAP
호기심을
명쾌한
Guide
영속성
Snap
Perspective
PSD
##clude
스니핑
##출판사
어쩌면
이니셜
Deb
Fig
GC
MQ
Pix
PaaS
Rad
float
ng
고차원
균등
난독
년의
눈을
대각
덧붙
돌출
두어
띄우기
로또
마리아
모집
밝혀
보내는
뷰포트
빨간
빼놓
사상
생애
세미
숙련된
시선을
실감
실리콘
쓰지
엄마
원서
웹캠
위대한
잡음
재택
저절로
직교
창에서
책도
초음
커다란
코인
클래
키로
토대
특강
해요
##sible
##olog
##모션
##원리
##사이드
##LU
##제이
##frame
##finder
##where
##종의
##명과
##완성
##밸런
개발되었으므로
모델은
파이의
알아보
구조화된
입력하여
데이터베이스에서
응용하는
가능하고
딥러닝은
그림책
분야로
빅데이터는
인터넷으로
미래는
암호를
계층을
전문가를
클러스터의
누구에게
목표값
스파이
도커의
다음으로
카메라의
기획의
상황별
마무리하며
플레이그라운드
안내하는
요청하기
유니티에서
모의해킹
워드아트
매개변수를
조건문과
props
전반을
##ATA
수치형
체험할
혁신을
담당하는
Parameter
즐거움
ISMS
container
굿즈를
높아지고
##Context
Pathfinder
브로드캐스팅
SMTP
##Sphere
format
##IEW
오프셋
BigQuery
물건을
이것만은
##플롯립
진도표
##ponse
다채로운
컨설턴트
Maya
Summary
Buffer
Ide
Pass
RSA
UM
Vo
area
back
local
각자의
거야
나만
내리는
네온
놓을
놓았다
뉴욕
단체
단단
대소
릴레이션
마스킹
밑바닥
밖에
벌어지는
브라
사인
인도
일이다
점과
접해
제페
커지고
클린
터득
트윗
퓨전
했지만
향한
헬스
헬로
환율
##스플로
##축소
##도우
##s와
##sec
##tc
##gor
##ging
##장에서
##man
##BR
##Book
##시티
##TV
##관련
##word
##플렉
##패턴
##갑니다
##핵심
활용편
파이참
생성한
처리가
추가한다
시작하려는
정보에
##alk
선택적
연결과
설계자
준비생
제작해
명령형
검색의
제어할
라이브러리가
하나만
시각화에
상태가
통합과
##ulation
조절하여
그래픽과
공유하고
지원을
들어오는
범위와
보여줍니다
불러오고
Reference
에서의
디자이너를
센서와
최근에는
계정과
##ification
읽어오기
##리스틱
필드를
스케치업
##allery
앞으로도
##roll
아마도
세트를
##order
연관성
플레이어의
해석하기
풍부하게
thread
다이어그램의
Replace
작가가
첨단과학
되었으면
Worksp
아무것도
Disk
지시자
익스플로잇
광범위하게
소멸자
datetime
뒤집기
##aborn
페더레이션
number
깊숙이
RDBMS
와이즈만
트러플
다빈치
초음파
제페토
Aware
CIF
RB
RAC
Single
SageMaker
ab
boot
cp
event
layer
pub
sk
world
경기
고침
고정하기
공정
교실
근접
남아
단면
덜어
모방
물고
방문자
보지
사내
생긴
서열
역자
유동
유령
이직
인적
조율
주민
콜렉션
텍스
포착
피그
흉내
##로봇
##라마
##uter
##On
##Tube
##IL
##Go
##나갈
##루엣
##레시브
##js
##좌표
##틀기
데이터로부터
만들다
프로그레시브
활용될
기본형
예제의
추가했다
구조가
##alse
네트워크에서
##icy
##utor
시각을
저자들이
상태와
종류를
Inf
Product
스마트폰에
전체의
컴퓨팅과
요구되는
오류와
개선할
대화하는
여러분에게
제거하는
제시된
PCI
RED
안내하고
대응할
부트를
정책을
브라우저를
능력과
번역을
루프를
아이템을
홈페이지를
이후에
업그레이드할
딕셔너리의
판단하는
STM
지침서가
애플의
사고력과
##프로젝트
Redis
오늘날의
##모델링
##회귀분석
Display
자료실에서
철저한
본질을
component
##eature
의견을
의무화
모서리
finally
DESIGN
재시작
불투명도
중점적으로
와일드카드
가벼운
굉장히
모멘텀
전형적인
##예상문제
By
Kub
NN
Next
RS
Sign
Solution
Wi
del
per
tkinter
가깝
계량
남겨
느린
떨어지는
말합니다
모른
무리
분들도
설립
수수
실체
실루엣
싶습니다
싶지만
의학
이행
인수를
있나
적중
조화
조심
집어
컴프리
평점
합리
행을
후처리
##준비
##트라
##ras
##ied
##이므로
##이제이션
##아카
##kt
##표준
##Build
##db
##Test
##지면서
##자도
##전에
##IA
##나가
##일반
##일지
##까운
##운동
##발을
##플라이
##센서
##왔습니다
기능인
개발팀
구성은
설명되어
설치된
##alloc
정의를
단계의
아이가
검색하는
응용편
변환하고
타입에
실제적인
그림에
동영상의
배경으로
그래프와
구글에서
삭제하고
프로세스에
형식과
계층형
숫자형
##idget
순서가
프리뷰
누구를
기계를
Conv
중요한가
Refl
여러분들의
작동하는지
고려해
노하우와
##ios
오버로드
없다고
인스턴스의
comm
PyCh
저장소에
파워포인트를
로그인하기
한계가
특별히
여기서는
거래소
Black
플로팅
고정된
즐거움을
패러다임을
고유한
판별하기
가득한
strong
ADT
거듭제곱
않았던
실생활에
커버리지
베이직
express
Automation
##ability
##structor
불어넣
Archit
Eclipse
Idea
CIFAR
텍스쳐
컴프리헨
##아카데미
PyCharm
AJ
Browser
CRE
DW
FU
IaaS
Lens
PT
Qt
Random
Target
VGG
path
random
감독
것만으로도
곧바로
과소
구할
구멍
기상
나가
느꼈
다변량
돌려
뒷받침
따뜻
리깅
말라
망설
무게
밀착
밀접
밑줄
복수의
부로
북마크
산포
신장
안녕
언론
연합
외계
위기
작곡
정수의
중학교
차량
팟캐스트
편지
##다니는
##MD
##Cloud
##호출
##UL
##자격
##런트
##방정식
##IV
##세하게
##제비
##위협
##클루
##구현
##르지
##향상
##센트
함수가
기본부터
##inc
설정하여
학습법
코드위즈
기술자
소개된
연산하기
그래도
입력값
독자분
검색어
요소들을
접근법을
스타터
컴포저
저자들의
하나면
AI에
이벤트의
컴포넌트로
오브젝
과학자가
트리밍
##ocation
전략과
일러스트로
스크립트로
그룹의
포함한다
포함하여
자동화하는
style
##aven
분산형
##irror
##ERE
스트림을
##ogn
메타스플로
##ifier
워드프레
풀어볼
정도는
##actory
알파벳
강화학습을
익스포트
DApp
Modify
느낌이
MLP
경쟁력을
Enter
Environment
감각적인
All
IDEA
Recyc
그라파
포기하지
취소하기
재구성하기
신속하게
##ECK
누군가
reduce
컨피그맵
유일한
package
Intelli
##등록번호
지브러시
최상위
트레이드오프
어드벤처
AJAX
Ab
ANN
Book
Dim
Look
RM
Syn
Tom
Value
WAY
bas
ico
join
merge
개수를
것의
계측
고안
교훈
꾸며
남기기
내고
독서
레고
레드시
마블
멘토
명료
무척
바디
반도
보이기
소요
스핀
시의
실린
아끼
양성
연장
이스케이프
인체
임계
자랑
즐기는
지진
지니
추이
큐를
투입
트림
파노
피하는
필자의
후보
휴리스틱
흘러
##해주
##rator
##va
##경제
##CK
##Client
##두에
##마인
##매김
##겠다는
활용의
설정해
CHECK
파이를
기술통계
프로그래밍에서
디자인하고
서비스에서
작업한
##aset
환경으로
##스크린
서버가
함께라면
배열에서
타입으로
블록의
확장해
확장된
영역과
주요한
삽입해
##ema
세계관
통계와
메모리에
##oto
스마트폰과
변화는
자신에게
계층과
계층구조
숫자의
논리적으로
주제와
발전과
주소의
비즈니스를
비즈니스에
##ools
##ERROR
##트리뷰
노트를
단어가
계정을
PyQt
꾸미는
기억을
기억해야
언제든
존재하지
모형을
이메일을
아두이노와
기기에서
합계와
Mapping
리터러시
장비의
가정한다
높여주는
DCGAN
코너를
learning
장식하기
공용체
똑같이
잠깐만
페이로드
바운디드
쉬어가는
어떨까
훑어보기
Scaling
백트랙
흥미진진한
BETTER
재택근무
오브젝티브
레드시프트
Det
Dictionary
Eas
Flo
Field
Gate
Mobile
NS
QoS
Ui
Ver
typ
tuple
검은
곡률
과일
글상자
기르는
대폭
두꺼
리드
마침
막히는
만드
맥스
물결
병원
부저
상담
서치
소식
실버
연봉
오는
오디션
우연
웹팩
유무
자녀
판정하기
패스로
편미분
평생
포커스
##어쓰기
##DI
##리프
##grade
##화한
##화하고
##xt
##자이너
##값의
##Writer
##산기
##오브
##ward
##추출
##언니
##셉션
학습으로
##atform
살펴보면서
환경설정하기
애플리케이션으로
언어이다
언어입니다
편집이
간단실습
필요한지
화면이
사례들을
테이블에서
공부가
이론의
메모장
##ometry
##uble
처음인
사항은
과학에
사용법에
UI의
이상을
##avas
지금의
하고자
확률변수
일러스트레이터에서
True
##ticle
구문을
디렉터
스케치를
##quire
마음에
사실은
에러를
조금이라도
익스텐션
PHP와
CPU의
대시보드를
##trace
count
출제기준
여행을
연계하여
스칼라의
GAN의
일정한
##ugin
만화로
스테레오
교수는
미국의
swiper
##GBM
메커니즘을
자리매김
판별기
GraphQL
싱글턴
기하학적
WORKS
ELB
##OINT
문과생
Method
network
Command
애그리게
크리스마
무언가를
means
DVD
사로잡는
YouTube
어셈블러
스펙트럼
메타스플로잇
UiPath
Card
Cross
D의
Global
HE
Ko
OW
Rh
Router
Tab
ac
font
facebook
계좌
고스
다단
답안
데에
듀얼
따르면
맛집
배달
벌어
부탁
셰이딩
손상
수작업
스톱
식물
신비
악보
액티브
양쪽
에는
여유
여겨
영감을
올리
용도에
위의
음료
이들은
인디
일과
일하고
자본
적어도
주위
짧게
칸반
켜기
클럭
토대를
트라이
퍼블리
포매
플레이스
허팝
##스톤
##yme
##Name
##메뉴
##AF
##문으로
##법칙
##전환
##디자이너
##네이션
##플루
##옴표
프로로
방법이다
##apter
분석한
##까지는
##alle
##alog
선택해야
정리한다
변경을
간단하고
실무활용
아이들을
개발자나
##ragment
조건으로
운영하고
기법은
##rient
비교할
사항들을
Proc
메뉴의
통신망
서식과
슬라이드를
공간과
등록하고
전환하는
PCB
센서의
마스터링
특성에
컴파일하기
Chro
매크로를
정책과
브라우저의
스튜디오에서
지속성
상품을
실험실
수업에
파워포인트의
위험한
Shared
재귀적
대비할
시나리오를
복습할
반영하여
##State
상관계수
상호작용을
맞추고
디스패
##lerView
CSRF
##컴퓨팅
소통하는
투명도
인지과학
브랜딩
버그를
단원에서는
간격으로
느껴질
주고받기
알파고의
LightGBM
유연하게
경영진
블랙박스
##ternal
Gradle
제외하고
편의를
차례대로
종사자
생생하게
Photo
정밀도
easy
뛰어넘는
불확실성
사무실
SNMP
##learn
양자역학
아버지
페르소나
스노우
클래식
RecyclerView
파노라마
D를
Error
Maven
NTP
Numpy
Pri
SY
post
sin
감싸
겨울
공략
과언이
구속
그야말로
금속
까다
끊기
나름
난해
넣는
노멀
녹여
많고
말하고
몸통
민주
변신
사기
서빙
악의
의의
이나
전투
제기
줄로
중이다
짓기
찍은
치료
퍼펫
퍼블리싱
푸드
해법을
##포크
##스러
##ret
##rant
##이로
##수집
##경로
##진닷컴
##Ind
##현황
##색으로
##디렉터
##퍼런
##았을
##브라우저
##내용
##였던
##테스팅
##없다
##효율
예제에
필요하지
추가적으로
개념인
사용자들이
다루어
저장한
관련이
만들어졌
변환을
그림이
운영에
컴포지
안드로이드를
실전예제
세계가
윈도우에
평가를
플랫폼으로
유튜브에서
크기로
모드의
진행하고
진행한다
목록에서
개인화
제시하여
외부에서
마스크와
스트림과
코틀린에서
마스터할
##endar
유니티를
권한을
이진트리
ARC
구분하는
수록하였습니다
나타나
창의적
스크래치를
성장할
MySQL의
조금이나
##다고요
본문의
상호작용하는
메이킹
크리에이터가
지침을
ResNet
가로채
제외한
Designer
##emove
final
IRQ
블로킹
색보정
콜라주
MFC
ndarray
Balance
릴리즈
지하철
난독화
CREATE
WORKSH
D로
Element
Lif
Ret
Squ
Sass
Super
VNC
dat
dart
line
search
ㆍㆍㆍㆍ
게이
게릿
내놓
너머
단방향
닫힌
담기
담는
랭킹
말뭉
매트와
생소한
셀렉터
실례
쓰임
않으며
않더라도
언더
운행
음수
인상
차분
토크
특유의
필자가
하강
해상
행성
허프
혼동
##VR
##less
##이야
##아리
##Event
##커캐
##화가
##드리
##질의
##제의
##했어요
##플린
##럭스
만들거나
설정에
기술도
도구는
파이썬이란
따라하다
선택의
연결을
설계된
설계할
APM
만들어보고
문서에서
제어와
계산의
중요하게
신경망에
부분도
배포와
배포하고
안드로이드와
입문하기
##AND
IPsec
##OSE
##umb
##adoop
프레임워크에
위치로
용어의
옵션으로
##pper
발전하는
카메라와
이야기로
ReLU
멀티캠
지금도
메소드를
행렬과
기준점
프로그래머에게
가치와
최소값
기록을
집합을
실용적
포인트를
강조하고
조금만
복습하고
##String
테마를
GUI를
챗봇의
파트너
시장을
자기계
##lert
입체적인
그려보기
##ersion
만나다
##perty
교수님
버그킹
경제적
트래픽을
DBMS의
##고리즘
원인을
어린이들이
업계의
통찰력
일치하는
##머신러닝
Bean
진수로
##이에요
커넥션
ADC
Why
PWA
결측치
일상생활에서
명쾌하게
신용카드
스태킹
돋보이게
애그리
리졸브
깨닫게
외곽선
##prise
Circle
말풍선
차산업혁명
인그레스
scanf
Polygon
컴프리헨션
그라파나
Easy
##avascript
WORKSHOP
Full
LS
Mail
OLE
at
dec
val
걸친
고치기
권리
그들이
기기에
나눌
늘어나고
다져
담았
데는
도트
드물
들고
막대로
많을
미칠
방대
백테스팅
버텍스
본서는
빠르
소트
순열
실내
쌓인
쓰면
씽킹
앱스
와인
위를
입사
자리를
줄어
청중
태양
트레이스
피라미
효용
##해진다
##each
##range
##하실
##EM
##FX
##지식을
##그룹
##워진
##질을
##들이다
##두기
##Handler
##증을
##합성
##통령
##같은
##곡선
사용된다
프로미스
활용하자
기본과
기술하였다
이미지에서
작성의
서비스는
##ana
환경은
효과적
실무적인
응용을
배우면
중요성이
##ected
확장할
이론부터
##ames
Inst
Proxy
자바스크립트에서
도전할
산업용
분산분석
계획하기
행렬을
PC를
개체에
도입을
엔지니어를
운영체제를
등장인물
회전하는
스튜디오의
루프와
split
표현식과
프레젠테이션의
수록했습니다
품질관리
레벨의
process
체크하기
문장의
##lice
아파트
반영해
익스포
제목과
자체에
여기에는
영어로
스티븐
경계선
질의응답
독립적인
CDN
IFERROR
패러다임의
switch문
어드바이스
Template
##IME
Rendering
가시성
module
분명히
경향을
리포지터리
리졸버
부트로더
##ribute
시행착오를
Binary
플립플
일자리를
SciPy
타임스탬프
GIF
HR
Mak
Pas
RAM
Typ
TABLE
bul
level
pol
교착
기자
남녀
넓게
단언
도넛
되며
들이기
말은
매끄
맷플롯립
멈춰
뭔가
법규
비결
산정
숙소
시민
신기
신원
싶으신
예매
옮김
와이드
외국어
이르
이펙터
일곱
일어나
정점
중학생
채굴
체력
초연결
타워
팩트
포지션
폭포
풀스택
헤매
헬퍼
힐링
##해졌다
##VID
##Session
##이면서
##수로
##하듯이
##표시
##만에
##down
##래킹
##공인
##fs
##wall
##네요
##심을
##실무
##순서
##검증
##왔던
데이터센터
데이터마이닝
프로와
만들까
##ines
구성되었습니다
필요하고
##angle
인터셉
핵심인
##active
머신의
실무형
자바에서
아이들
해결에
명령의
소프트웨어로
배우며
반복적으로
AI로
소스와
##agraph
메모이제이션
##chor
예측할
##ula
대상을
Inte
유튜브로
프레임워크로
컴퓨팅에
전략의
지원한다
##pport
강의가
찾아내기
로봇공학
타이포
기획과
상황과
클립에
CSS의
읽기와
어디로
DBA
최근의
오버플로우
Serial
도서의
컬렉션을
병렬화
수록되어
요구사항을
##그래픽
아이콘을
이전의
로드밸런
입문서를
친구들과
Transition
수치로
##소프트웨어
하는지에
##스케일
ASCI
보드게임
주변에서
실수형
주목을
주목받고
포트폴리오를
조립하기
되었고
간편한
반전하기
원근감
Paths
가설검정
Format
기출유형
텔레그램
COUNTIFS
에코시스템
당연히
초중급
WHERE
알맞은
Script
대역폭
Flask
GNU
프라미스
든든한
에피소드
마리아DB
잠깐만요
ASCII
After
DT
Driver
Job
POP
QUI
Rect
Rob
RISC
Session
Write
be
mys
update
ㆍㆍ
각주
경과
공장
관례
그녀
그들은
금방
날개를
내지
눈이
뉴스를
대조
되려면
뒤에는
디펜
러스트
베가
본인이
사파
서체
술술
쑥쑥
앱은
약간
옐언니
원을
위로
음원
자릿
저널리
접수
좀더
중위
추억
치트
칠하기
코멘트
트로
호퍼
홀로그
##졌던
##Dep
##DNS
##도는
##lunk
##tle
##iate
##수업
##보길
##모이드
##FOR
##문화
##성은
##Web
##버튼
##풍기
##fix
##역전파
##구를
##책임
##완전
##맞춤
##쿼리를
##랭크
##으로도
방법들
##ape
함수ㅣ
이용한다
이해에
파이선
관리자를
도구다
이미지가
개념으로
알고리즘이란
##asp
변경과
##loit
스마트하게
응용력을
경험에
기법들
스타일시트
##agram
##omain
일반적
리눅스와
콘텐츠가
순서에
명령어의
##버네이트
개인용
도커와
전환을
Rev
계획표
단위의
비즈니스의
체계를
부트의
측정하는
도입하기
브라우저에
촬영한
시리즈를
타임아웃
도서를
할당과
동기화하기
프린트
주의해야
조정하는
관점으로
취약점이
사실적인
사실이다
한국의
##Stack
DAG
진화하는
CPU와
CNN을
Platform
메이크
연속성
가르치
입문자도
입문자에게
상상력을
국가별
친절하고
제안서
타임라인에
의사결정을
독립성
Report
ROC
갖추어야
##anner
무한한
시그모이드
교재로도
array
아래로
##Inter
커넥트
돌아가는
웨어러블
고전적인
창업자
결측값
정교하게
생겼을까
delete
Upgrade
스태틱
필독서
메카님
미러링
미리캔버스
Development
매니지먼트
이니셜라이저
고스란히
자기계발
Bus
BPF
Boolean
Car
Da
El
HO
Jen
Mirror
Nginx
SG
STP
Sim
TE
Update
YE
bash
file
free
가리
감을
걸어
견적
경주
공지
광학
그와
끝나는
나가기
넷째마당
당황
데비안
두루
듣기
레트로
리디자인
맘대로
무브
묻고
보일
부문
부각
분이라면
빛과
세금
승리
시에
실어
앞뒤
영진닷컴
예쁘게
이차
잃어버
자금
저하
정량
조성
처럼
초고
카피
키우
팩토리얼
퍼포
평행
해줄
행정
힘이
##어셈블
##도어
##ai
##gth
##CAD
##NL
##시한
##Template
##지표
##지엘
##래핑
##법의
##었는데
##생성
##러를
##위치
##무원
##목을
##거든
##구하기
##슈타
##알고리즘
##있게
##케일
사용하면서
##ere
기본에
구성의
문제도
설명함으로써
학습하면서
프로그램입니다
##leaf
##ano
보안위협
편집자
머신을
효과의
Store
계산된
사례에
지식도
##ism
블록으로
익히면
이동하고
미래가
최적화하는
오브젝트와
변화와
포토샵은
UI와
형태와
AWS에
유형별
기계는
진행하면서
보여줄
발전시켜
쿠버네티스에
쿼리의
지금부터
클립보드
내부에
학생들은
방향과
상속의
체계적이고
블로그에
매크로와
하이버네이트
나누는
장점은
PyT
대부분은
마음껏
음성으로
##ithm
전반부
광고를
드로잉하기
되어야
주석을
상수와
##CSI
순차적
크리에이티브
Selector
Order
않아요
순위를
철학적
즐거워
원인과
다가갈
확보하기
규모가
인텔리제이
선생님이
Quiz
적재적
충실히
Output
##shot
coll
핸드폰
윤곽선
SUMIFS
그루비
##DUCT
멀티플레이어
불균형
IntelliJ
RMAN
반도체
##ymeleaf
퍼포먼
Client
Center
Embedd
Fast
JIT
Join
PD
Pe
Wrap
XR
ai
bar
db
ge
name
pass
txt
가동
감상
거리를
경찰
공포
놀랍
단숨
닷지
대단
데드
되살
면을
배낭
분배
브레인
빠질
사각
상의
선구
세심
소득
소녀
쉐이프
안성
연기
열풍
옆에
올리는
우편
원천
유화
유레
일급
있겠지만
정해
제도
조도
좋겠습니다
주말
쪼개
케이크
키즈
택시
톰캣
폐기
플루
화소
획기
##해를
##해줄
##VP
##Reader
##스테
##Sub
##Search
##이도록
##프의
##하신
##ns
##Com
##드와
##duction
##시버
##정규
##공략
##일으
##매개
##러지
##론을
##필터
##패킹
활용해야
##ential
구현합니다
코딩합니다
코딩연습
정보시스템
언어다
확인과
##acon
표현하고
구축한
소프트웨어는
배열하기
가능하며
라이브러리인
##edium
분야와
직접적인
경험하고
아키텍쳐
아니더라도
이론은
##cho
관계자
##했다는
윈도우의
Profile
암호의
##ocus
색상의
##add
인식하고
표준을
도전하는
그룹화하기
##들에게도
명령어와
클라이언트의
발전할
목록에
마이크로서비스로
불러일으
다운로드와
다운로드할
기획하고
Splunk
호출하는
상황이
관심은
디자이너와
PC와
현실로
Scikit
서브스턴
도입하는
평균을
UX의
##ipeline
병렬성
강조하는
Contr
Context
존재한다
##max
Toolbar
튜닝을
포맷으로
대체할
Transaction
DoS
기호를
조사하기
안정적으로
선정도서
기울이기
인기가
스위치의
상대방
Paragraph
수험생의
매력에
##Process
White
##OTAL
두려워
option
이외에도
##tification
다항식
SOL
Geo
아닐까
마우스로
desc
CUDA
다이나믹
Solid
Navigation
CycleGAN
오토마타
MQTT
모집단
##ology
밑바닥부터
따뜻한
포매팅
##Index
조금이나마
말뭉치
Jenkin
단숨에
BR
BO
CP
False
Http
Item
Merge
code
dev
detail
image
match
private
vue
work
가야
거치
걸기
겪은
고윳
교집합
그레이스
넓혀
높인다
대문자
대통령
뒤로
등등
리시버
마리
맥북
멀리
목업
무늬
미적분
보증
부합
비공개
사냥
숙제
신나는
앵커
오름
웹서비스
유망
인원
장에는
접촉
지문
차이는
창을
책들이
총망
커링
키우고
퍼시스턴트
퍼미션
##준생
##RT
##ique
##아서
##하든
##MX
##ple
##경향
##du
##메트릭
##시면
##지로
##지금
##법으로
##적을
##확인
##슨의
##디아
##크림
##책을
##케이터
##괄호
##쪼록
데이터세트
설명에
학습해
학습률
학습해야
기술까지
구현의
##led
필요성을
작성에
서비스인
애플리케이션은
네트워크가
영상이
준비된
##utter
요소인
##rag
계산식
머신러닝이란
그래프에
빅데이터에
원리가
배포할
참고사항
입문한
##eme
연구와
복잡해
전문가와
수행하고
인증을
주제별로
jsp
발전된
발전으로
러닝에
파워디렉터
메소드와
장치와
정확성
버튼과
디버깅을
concat
UX를
Ansible
교재의
웹사이트의
저장소를
구분하여
자료구조를
압축하기
Editing
포맷의
로드하기
PDF로
맞춤법
##inking
GAN을
OpenCV를
동일하게
마이크로소프트의
느끼고
오차역전파
갖추기
COUNTA
ArrayList
똑똑하게
유의사항
사이킷런을
우수한
스탠드
##커버그
색보정하기
Configuration
img
재밌게
추구하는
##Screen
일일이
리모트
READY
##gorithm
가로채기
총망라
BS
CQR
Di
Dialog
HS
HID
Head
HSL
INT
JMS
Menu
NAND
Orient
Port
Role
SAS
Wave
ass
block
cache
math
vi
view
가급
건반
곱하기
관광
구하려면
굳이
급변
놓고
늘고
만난
맞히기
면에서
무차별
발맞
뷰로
비상
상향식
새롭고
서킷
선과
선으로
세마
스킴
시티
아이스
어르
언패킹
오염
옮기는
완화
왜냐
원노트
웨이브
이분
일기
일종의
입출
잠시
전수
좋았습니다
즐기
지메일
최상의
파운드
펌웨어
포워
피할
피봇
##차를
##DIF
##리직
##하느냐
##py
##데스크
##Front
##되거나
##지며
##대다
##터리얼
##판매
##QUE
##약수
##니처
##들만
##등을
##추어
##피드
##억장치
##놓고
##에서만
##er의
만들기와
이해합니다
기술이다
요약과
설치할
디자인할
코딩놀이
테스트가
선택해서
##부터는
다루면서
제공된다
연결하고
##els
##strap
개발자도
개발자들은
소프트웨어에
사례가
사례연구
머신러닝이
공부에
시각화와
Insp
Information
컨테이너에서
형식에
수학적인
##octo
알려드립니다
프레임워크가
오류의
그룹을
foreach
누구라도
include
기획부터
수식이
훈련과
규칙과
엔진에
노드와
마무리한다
관심사
방향성
파이프라인의
자막을
유니티로
Change
메타프로그래밍
사물을
더욱더
스레드를
초보자들이
초보자들도
조직을
조직이
고민해
관점의
관점에서의
존재가
창의력을
비용이
디바이스를
엔트리를
Expl
생명정보
집필진
자동차의
##AME
except
연관관계
세부사항
노력하였다
점검하기
출제되는
최종적으로
##ACK
카페를
커뮤니티에
스위프트를
소통하기
Keyframe
신호를
곡선을
Tensorflow
주목받는
초급자
ListView
탐구한다
과거와
자격증을
##Listener
시그니처
피드백을
Sky
철저히
차별화
어렵게만
Warp로
##드라이브
지은이
Background
보유한
Artwork
꺾은선형
심사문제
크리틱
Services
레플리카셋
Teams
유니버설
물고기
Gateway
두꺼운
Rhino
플립플롭
오름차순
CQRS
어르신
Ax
CBT
FND
GNS
Iter
MDP
RBM
VI
Yocto
bind
dot
vector
가전
개입
겪고
계리직
고쳐
관하여
권을
깨기
뇌를
단가
달리는
달리기
대국
데도
동네
되면서
뜨거운
롤백
모를
모색
바퀴
바벨
바운드
복소수
봄으로써
분께
삼아
삼항
상점
색이
색으로
생소
서서
스무
스벨
염두에
올릴
외장
월에
웹지엘
유래
입증
잠그
조기
진수를
집약
천천
취준생
콕콕
타당
파트로
해보고
##aunch
##ME
##pol
##ues
##비전
##CL
##Update
##BN
##시엄
##지수
##직렬
##AA
##AG
##터치
##전거
##고객
##점수
##관을
##바꿈
##협회
##순으로
##패스
##쉬운
이용하고
기본은
실습하면서
설명하지
생성한다
그리디
실행해보기
테스트할
선택문
입력할
##lover
##ingP
구축한다
##uture
관련해
연산자로
변환하여
운영할
애니메이션으로
교육과정
실전모의고사
삽입하여
사이파이
Injection
연구가
연구하고
색상으로
회귀의
프레임워크인
통신과
계층별
참조하는
흐름의
스토리와
진행되는
마이크로서비스와
차원축소
중심에
멀티태
고려하여
PC에
확률의
Scan
##ighting
Anchor
결합한
##tical
동기식
##지도사
성공한
스케치하기
전처리기
##INT
도와주
컨트롤러의
충분하다
드로어
산업혁명을
무엇인지를
CloudFront
여행지
연속형
하둡을
법칙을
철학을
타입스크립트의
Parent
전통적
꼼꼼한
check
갖추게
Preferences
Recolor
실현하는
이터러블
ICO
두려움을
비전공자도
Dataset
종사하는
우수학술
지루한
베이그
정보통신기술
Elasticsearch
Regression
Leg
대한민국학술
SwiftUI
고등학생
일으키는
##BTOTAL
Depth
원활하게
Preset
다를까
SUBTOTAL
xxs
한빛미디어
Liqu
유익한
애널리틱스를
##ktop
Tomcat
컴포지트
OLED
피라미드
서브스턴스
세마포
천천히
대한민국학술원
BBC
Cre
DID
ECS
FPS
Gl
Gr
Gmail
Hadoop
Mar
Nest
Pull
Private
POINT
RIP
Ub
WP
YO
ros
td
각자
게으
경보
공모
과도
교수의
그가
내공
내딛
넘쳐
넷째
놀기
대두
도덕
뒷면
루아
많지만
메탈
모르고
뮤텍스
바쁜
받지
번쯤
변하지
부스트
분들은
샤프
선점
세이지
손을
숙련
숙달
쌓은
아까운
없기
예고
예쁜
이정
이래
이점을
일하기
있음
잡은
전시
정서
줄일
중소
중독
지우고
지키는
진동
천기
포장
폼의
한권
할애
헬스케
##기간
##eight
##lation
##rl
##ipp
##itive
##이죠
##로도
##서이다
##gan
##파인
##비의
##File
##Out
##되었던
##지스터
##물이
##계에서
##망을
##타리
##단위
##테인
##답형
##율을
##누설
##센스
##뜨리기
데이터사이
설명서
설명하였습니다
학습시키기
내용이나
적용한다
시작점
환경변수
네트워크로
보안성
준비와
응용하여
변환의
생각의
생각해보기
딥러닝으로
특징이
##하다가
프레임을
확장과
소스는
버전별
상태에
컴포넌트에서
##chron
관계에
부록B
예측하고
##uby
##ulator
컨테이너로
유튜브의
수정과
시대는
지정자
전문가들의
일러스트레이션
순서와
인식의
기업들의
누구도
포함돼
포함된다
오디오와
HTML의
흐름과
진행합니다
쿠버네티스와
현재와
비트와
Space
CSS로
디자이너에게
향상에
PC로
일러스트레이터는
메타문자
평균값
촬영과
인스턴스를
배워보자
인덱스와
##ipe
교재가
Go의
그렇지만
Arrange
컨트롤러와
창의적으로
##ASP
편리하고
패킷을
입문서가
노력했다
출간한
합계를
프로파일러
정말로
##efore
재사용하기
마법의
인터뷰를
타입스크립트를
느끼게
char
Desktop
AVL
카카오톡으로
파이토치를
비정상
증거의
우주선
사이드바
나열하기
용이성
늘어나는
제곱근
NPC
원활한
DATEDIF
히트맵
##process
##ernetes
세밀하게
Anywhere
##SCAN
Know
장난감
Figma
Workspace
##오브젝트
적재적소에
우수학술도서
세이지메이커
천기누설
Aud
Break
Cy
DNA
Fi
Hard
Kit
PK
Roll
Risk
ax
all
book
copy
dir
iCloud
ly
감동
강점
개미
걸리는
계절
고장
곳이
과외
깨끗
내재
넘게
네오
년에는
느슨
딜레
때보다
리셋
먹고
무지
바꿈
반려
베어
보내고
뷰티
빈번
빼앗
사생활
삶과
상징
선사
스팟
시중에
신문
실속
실과
아낌
악당
안타
없음
에릭
역행렬
원의
원드라이브
유클
유인물
이들의
절의
젊은
줄의
진심
질병
창시
초가
캔버
클럽
키트
피싱
합치고
##Pre
##져야
##리커
##더링
##서트
##nal
##ah
##M을
##gu
##표지
##그리기
##사드
##Work
##었으며
##업을
##색이
##미터
##권을
##온다
##밀도
데이터들을
데이터분석
##orph
파일명
구성되었다
모델에서
설명하면서
알아서
프로그래밍하는
요약하기
설치해
적용을
시작된
시작하세요
따라잡기
보안은
##stat
##ARY
개발자로서
요소들
##ediate
머신러닝으로
경험의
소스의
SQL에
이론이
비교한다
입문자의
사항에
바로가기
Instance
조절하고
전문가는
지원하고
클러스터에서
슬라이드의
클라이언트를
공간이
##imit
Ref
라우터의
OpenID
외부에
플러그인의
마지막에
검사로
리소스의
배워서
IDF
커널의
비동기식
꾸미고
기록하고
제한자
저장소의
마음이
구체화
구체적
레벨을
액션을
성장을
폴더에
한계와
WebGL
친구와
발견하게
트래커
UNIX
개인정보의
Selenium
캡처하기
주변에
iOS와
살아갈
차이점은
스토어드
else문
소리가
지금까지의
시점에서
난이도가
서적을
Second
취업을
##amba
사라진
Smooth
수신자
대칭키
이터레이션
익숙해질
익숙해지기
일어날
교체하기
캘리브
anal
이뤄지는
General
엄선하여
길잡이
떠오르는
Extend
대리자
감수자
AES
##rypt
바꾼다
FAQ
clone
무궁무진
양자컴퓨터의
Catalog
Airflow
적중예상문제
##allel
베가스
트로이
##VPN
Contrast
##테인먼트
딜레마
CV
DN
Hot
Jet
NT
Non
NAS
Print
Ro
R에
SAM
SoC
Samba
Valid
gre
off
ps
sched
ㆍㆍㆍㆍㆍㆍㆍㆍㆍㆍㆍㆍㆍㆍㆍㆍㆍㆍㆍㆍㆍㆍㆍㆍㆍㆍㆍㆍㆍㆍㆍㆍㆍ
가스
가드
감추기
개척
고충
끝이
끼워
나선
남은
넥스트
년차
논문을
놀이터
능가
던전
된다면
두는
레플리케이션
롤아웃
리플릿
마트
말하기
말아야
몰랐
못해
발간
밝은
법과
부상
빠진
섬세한
세일
세세한
속한
수렴
수제비
심각
아침
앞부분
업종
오렌
완독
원한다면
웹브라우저
유선
유치
응시
이럴
일목
있기에
재설정
저커버그
적을
전하는
점선
점유
접한
좋고
지탱
집에서
책들은
챙겨
초점이
친화
테이프
파서
폼과
필드로
합집합
해본
해보는
현명
혹시
흔한
##부의
##D의
##Soup
##hav
##하니
##로소
##EL
##될까
##장과
##장님
##면을
##파크
##모음
##ko
##가공
##에요
##금액
##Be
##시오
##링을
##지도록
##려서
##니언
##소드로
##션을
##분할
##Key
##등학교
##구축
##르도
##뜨기
##났을
사용하나요
##tition
기본적
##iness
이해되는
설정으로
관리자가
기술들이
도구바
테스트는
정리하며
변수는
설계한
클라우드는
##들이기
Static
중요하고
생각해야
결과로
결과는
저자와
원리는
배포까지
##rip
종류에
과학기술
세계는
탐색을
문법은
플랫폼이
변화시키는
##idth
참조와
기업을
기업은
그룹별
프리랜
주제의
빌드하고
발전이
목록으로
벡터를
벡터로
정확하고
플러그인으로
현실에서
보고서에
대응방안
디버깅과
업데이트된
프로그래머는
상속을
개체명
블록체인이
결합된
카드보드
매개변수의
전처리와
원격으로
번호와
자연어처리
복습하기
엔트리로
스피드
에디터의
Expos
메인보드
Compose
집필했다
느낌으로
PHP의
시장에
판단을
감지하기
하둡의
##ourc
인수분해
되고자
아웃룩
필요하다고
##FSET
Editable
콘솔에서
모음에
이더리움의
##ellig
Sweep
다가오는
노션을
고유의
RPA의
부담을
모아서
Matrix
##IGHT
적응형
프로크리에이트의
걱정하지
실생활에서
Functions
은닉층
##tific
seaborn
목소리를
특이점
지켜야
RAW
비행기
생물학적
Two
인문학
심플한
Distort
PPP
그럼에도
SUB
퓨처홈
대학원생
Physics
Calendar
민감한
OFFSET
##Trans
방사형
##rastr
애그리거
##거든요
헬스케어
캘리브레이션
Cin
Detail
Focus
Iden
JPEG
LI
MONTH
None
Pin
PIP
PNG
QU
RL
Sch
SMS
TT
flex
sum
가제
곳으로
꿰뚫
끼치는
넘나
높다
눈앞
다국어
다단계
두기
뒤틀기
매번
매매
못지
문화를
믿을
믿는다
바라는
별도
본인
본인의
부채
비록
빌보드
뽑기
삼바
성학
소실
숨김
스쿱
스윙
신중
실세계
얕은
얻는다
엄격
에이다
엔딩
역직렬
열에
엽서
우승
의상
이득
장별
즐기기
진정
캐스팅
코사인
클록
토글
퇴직
트윈
파형
판은
퍼지
폐쇄
화분
##DER
##REE
##스플
##rup
##htt
##ips
##ience
##이동
##아송
##ating
##Error
##game
##group
##비를
##비용
##Base
##메달
##Task
##자에
##사장
##쟁이
##활동
##었기
##업무
##계를
##중급
##러의
##복잡
##클레
##클릭
##추정
##샘플링
##짜리
##쳤다
##논리
사용하며
기능들이
예제도
설치한
작성하여
추가한
핵심문제
게임플레이
정리된
보안이
단계와
사람들도
만들어볼
출력의
신경망이
분류의
표시되는
테이블스페이스
블록과
확장을
원리부터
##agong
##rib
관계와
관계없이
사항이
세계와
Inc
있어도
이름은
알려져
마치고
수정할
용어는
요구에
전문가처럼
콘텐츠로
수행해
참조를
참조할
기업들은
##들에게는
강의는
명령어로
흐름이
트랜지스터
클라이언트에서
움직이게
프로토콜에
##하자면
수준까지
대화하기
모니터링을
기획을
제시한
지도에
조작과
현실이
코틀린은
센서로
상호운
선언형
선언적
어렵다고
컬러를
시리즈로
반응성
Device
기억할
한글로
그렇기
오토스케일
체크포인트
내장함수
성장하고
메일을
드로잉의
유사성
기기와
친구가
##formance
시장에서
점검할
알아두자
Thymeleaf
DNS의
가상화의
Timer
있으리라
참여해
체험판
친절히
비롯하여
젠킨스를
아이패드와
AutoCAD
퍼셉트론의
주식투자
프린터로
Switch
ISBN
가까워
일래스틱서치의
VBA를
python
What
충실하게
enum
분위기를
캘리그래피
Linked
초대장
인생을
국제화
되돌아
후반부에서는
브레이커
##Admin
server
##VEL
셀프서비스
행복한
마술봉
Public
반짝이는
성숙도
연도별
BeautifulSoup
간소화
역동적인
sinagong
악의적인
PyTorch
가급적
왜냐하면
아낌없이
성학십
##https
Cli
Crea
Crop
Gallery
Hub
History
IE
KVM
MO
RSS
RIGHT
SET
WAS
driver
ftrace
row
root
router
가면
가게
개가
고용
권합니다
기밀
기사를
꼬부
나날
냉장
누릴
눈과
더할
두었다
두어야
래스터
레퍼런
마친
막간
맞지
머물
반가
발을
백분
번도
변호
불완전
비평
사가
상환
소매
손쉬운
쉼표
스며
스레딩
식의
아핀
아스키
않았습니다
양을
없으면
없어요
올리고
위조
이탈
일입니다
일들이
중에서도
지급
첫발을
청구
최선
최저
취향
컴파
태어
트레
편한
평활
폼을
풀면서
협동
회색
##을까요
##다리
##차트
##VC
##Do
##ei
##Source
##mod
##시의
##Of
##Table
##요연
##선택
##자들
##방식을
##려요
##나다
##일리
##인과
##력은
##팅하기
##국의
##론의
##네이터
##베이
##명의
##답변
##즈와
##박스와
활용하라
기능적
기능이나
##inter
구성도
문제나
##이스팅
실습하며
생성해
소개하면서
내용부터
사용자로부터
##rough
정리하였습니다
##etric
##mpor
실무의
데이터베이스란
패턴이
Star
페이지가
만들어낼
만들어보는
가능할까
중요성과
엑셀은
기법이
속성에
확장성을
아니며
성능의
비교하는
익히게
##ulk
프로세스가
포토스케이프
통계의
문법부터
Progress
공격자가
위치의
일러스트의
배치하는
##unc
컨트롤의
클러스터에
유형에
Exec
범위에서
목표가
발전은
개인이
다중화
제품에
OpenAI
사회에서
온라인으로
동시성을
현실과
그러다
마지막에는
블록체인과
constructor
평균과
암호화와
오버피팅
스레드의
초보자의
최대공
모양과
번역하기
스튜디오를
프린터를
집합과
인스턴스에
협업하기
Sys
program
성장해
심층학습
본문에
확대하기
알림을
Doit
당신에게
방법론과
SNS에
Place
유효한
시뮬레이션을
카페에서
자기소개
MLOps
연속된
OpenCV의
STUD
URL을
직관적
잠재력을
경계를
달라질
로딩하기
상대적으로
분기문
분류기의
하루에
자격증명
CLI를
Redo
그린다
아무도
첫걸음을
웨어하우
DDL
불안감
거짓말
여정을
Commun
Rotate
신청하기
설득력
Geometry
Deploy
Highlight
꺾은선
FORM
점진적
리다이렉트
MyBatis
Analytics
저렴한
##ernel
트렌디
누구에게나
Infrastr
과소적합
##트리뷰트
퍼블리셔
토크나
저널리즘
무브잇
유레카
일목요연
꼬부랑
Bo
Cube
Feature
Hand
MCP
Name
Pen
Ruby
TP
Wire
etc
fast
goto
has
mex
가려
가늠
감성을
갖출
국한
기쁨
끄는
끝내
나침
년도
뇌의
누르면
다크
단답형
대립
더미
때와
리듀스
말씀
말하면
머하
무관
받았
발산
법한
보스턴
봇을
비법을
살리기
상하
셸의
소모
쓰이고
아기
알지만
액자
얽힘
역전
우버
웹플
의욕
자칫
작게
전부터
점도
정정
제플린
조이스
주간
지킬
책상
축구
카타
컨텐츠
콘티
탐사
티켓
틱택
평소
포켓
폭탄
학과
후속
##DL
##Red
##져서
##scri
##cc
##ove
##hone
##하죠
##하늘
##aus
##Ed
##면의
##use
##화로
##FF
##흐로
##형으로
##문서
##사로
##Item
##려야
##GI
##야흐로
##력의
##계와
##외선
##for
##운다
##학년
##미한
##겠죠
##연필
##률을
##노드
##힌다
##뱅크
##하기에
사용하게
이해하려면
생성되는
알고리즘적
테스트하고
클래스란
정리했습니다
여러가지
연결할
사람처럼
설계서
APK
클라우드가
데이터베이스로
표현한
명령과
##rays
가능할
엑셀에
지식들을
부분에서는
인터페이스가
빅데이터로
스프링과
비교하여
안드로이드에서
관계의
부록에서는
통합된
경우는
가져야
IP의
##version
스마트폰은
자신감이
스트레스
인증하기
배치와
기업용
##STL
Exit
Exception
Convert
채널에
진행해
진행하며
캐릭터에
목록과
검증과
개선을
인스톨
제품이
비트코딩
오픈마켓
지도와
텐서플로와
DBSCAN
리액트와
프로그래머로
물리적인
읽어도
사운드를
이진수
기록하는
고객을
파워포인트로
조합을
조합해
수록하였다
##ightness
생활의
Sharp
사실상
product
국내에서
블루오
상관분석
제목을
파트에서는
Thinking
##ACE
##OME
거래처
가르칠
##location
그려보자
상상하는
만나게
구매하기
컴파일러의
새로워진
생각해볼
마이닝의
소리의
키프레임을
트랜스폼
데스크탑
퍼즐을
알파고가
난이도를
context
싶어하는
##자에게는
Online
비정규
갱신하기
Comb
무작위로
시리얼통신
불변성
삼각함수
설문조사
재현율
export
가독성을
흔들림
Firewall
Generate
보편적인
노래방
모놀리스
활발하게
Brightness
Adjustments
마우스를
SLA
CGI
내림차순
Suite
TODAY
스와치
Curves로
EMR
Ethernet
LLVM
Architecture
ARCore
인터셉터
YEAR
##aconda
Liquify
Exposure
머하웃
틱택토
Bot
BAS
Cort
CAD
FX
Mag
NUM
ON
PBR
SPE
VB
XP
custom
header
pf
socket
경량
관절
구사
그래스
기어
기둥
날아
넘기기
누수
돌발
되리라
레이스
리플리케이션
맺는
미처
번거
부디
불규칙
비우기
비효율
빼기
선정하기
셀만
소속
손바닥
순으로
시중
시동
시대로
싶거나
안쪽
어깨
없게
에포크
오직
완주
월급
음향
일할
자석
자전거
재전송
전진
접하고
지음
청각
쿼터
틀을
퍼징
퍼스트
프락
해체
화장
확립
##해상도
##졌고
##Detail
##스팟
##sheet
##eather
##oE
##ris
##ning
##bed
##가치
##간단
##UTE
##Op
##XR
##문법
##워치
##신호
##게도
##분한
##길을
##강화
##러쉬
##내역
##항목
##멘테이션
##느라
##암호
데이터블록
만들게
활용지도사
기본기가
실습은
기술하고
프로그램도
구조는
정보화
기초편
영상은
영상에서
##SSION
가지로
정의한
자료로
##ARCH
사용해도
사용해보자
스마트카
응용한
변환한다
출력과
시각적인
프레임의
소스로
동작에
모델링에
문법에
메뉴판
가져오
가져오고
수집된
인간보다
템플릿과
숫자가
전문가인
인증심
그룹에
자세하고
범위로
산업에
진행한
캐릭터가
캐릭터와
의미하는
쿼리와
멀티플렉
분산과
제거하고
노드에
사회공학
항목만
##ERY
##ograph
텐서플로의
컴파일과
초기화와
Anko
최대값
운영체제와
입출력과
반응하는
솔루션의
시퀀스로
영화를
##earance
표현식으로
실용적으로
Java의
폴더를
MySQL을
파라미터를
Webpack
반영하였습니다
아두이노를
산업혁명과
테마와
프로퍼티와
공학의
무선랜
Blu
상상을
소통을
종합적인
영어를
퀴즈를
키보드를
목차를
공공기관
##tinu
편집기의
직장인ㆍ
하루가
NLTK
일관된
적응할
##atial
order
EXCE
공급자
차별화된
마찬가지다
##tify
제조사
프로메테우
맵리듀
##CIAL
Animate
구상하기
일련번호
##Shell
활발히
고도화
아우르는
단기간에
##Request
마이크로카피는
익스프레션
딱딱한
알리미
시네마
##Builder
Detection
YOLO
유클리드
##havior
컴파운드
Infrastructure
Div
EU
HAN
IFS
JSTL
SIM
SIE
TAC
bin
oper
render
sec
tc
write
강도
건수
게스트
계통
관용
관해서
구슬
국어
그레
급격
길로
나노
네티
녹화하기
다니는
델타
동기를
드리
따르는
때부터
랜드
리두
리듀서
멈추기
목마
못하면
바야흐로
발판
방과
배양
변천
보석
보이고
불칸
비싼
색연필
술어
쉽습니다
스폰
습도
신선
씬에
않거나
어시스턴트
응원
의도를
인종
잃지
임원
있죠
재작성
적지
정사각형
좋겠다
중재
챔피
쿡쿠
탈취
툴이
판의
판에서
풍선
피규
하도록
호모
혼공
확정
환산
히어로
##기만
##Rep
##ok
##rq
##ho
##nection
##Message
##point
##가짐
##용품
##Up
##자이자
##방법을
##저리
##IZ
##인증
##값이
##Log
##었는지
##제를
##실행
##꾸로
##훈련
##플레이스
##밴드
##묘한
##ering
활용도가
기본개념
##ined
이해해
CHO
실습용
알아보며
필요성과
적용과
시작합니다
사용자정의
컴퓨터일반
확인하자
객체란
레이싱
변수명
##mpty
단계씩
설계도
자바는
과정까지
##ich
구축의
시간으로
개발자들의
LEVEL
만들어봅니다
모듈에
사례도
문자열에
부분까지
사진이
공부한다
원리로
버전은
구글은
만드는지
통합해
##uler
추출하여
인간에게
수학에
사용법도
전체에
마치면서
추천하고
번째는
용어집
##idy
콘텐츠는
인식과
들어갈
스크립트의
##ppet
기계번역
주제가
stack
다음에는
호출을
지능에
엔진으로
##인지를
고려하기
항목에
스트림즈
회사에
그러면
서브시스템
계정으로
엔지니어의
경로와
바탕이
장점이다
풀어보는
도서관
객체지향의
Appearance
마음가짐
병렬처리
OS의
전자책
포인트와
창의성
##ments
대비하기
본문을
에디터를
공통적인
플레이어가
CNN의
엔터테인먼트
##ALL
선정하여
현대의
제안하기
쇼핑몰을
생각해보자
버퍼링
에이전트의
직업을
소스코드를
ORDER
인류가
Mov
모르면
구동하기
마련이다
필기체
물체를
커스터마이즈
골라서
Forens
RPi
실질적으로
이력서
펼쳐질
WordArt
베이스라인
금액을
제조업
바람직한
any
수명주기
Directory
곳곳에서
선행학습
INTER
어떨까요
Agent
THREE
AVERAGEIF
단편적인
유기적으로
전경색
대소문자
Kubernetes
마침내
애그리게잇
OWASP
Paste
Jenkins
공모전
##elligence
##스플라인
오토스케일링
성학십도
꼬부랑길
조이스틱
Cortex
SPECIAL
프락시
Body
Dash
Ease
How
Ol
Row
XPath
gener
lock
src
xls
가끔
가슴
가우스
각기
거꾸로
견본
경력을
곁에
곁들여
고생
고통
공룡
구해
구할까
그램
길게
깜박
깜빡
끝낼
늘리는
다니
단백
단항
단점을
독일
떨어진
링커
마디
만만
매년
매달
뭔가요
미팅
바를
바위
백도어
보라
분이
분명한
불법
브릿
선진
세워
소문
소문자
심장
어서
어둡
여는
영리
오답
온다
응집
이내
읽으며
적정
좋지
준지도
채우는
총알
컴플라이
크론
특화
티스플라인
팔로워
플레
했고
휴먼
##부여
##해드립니다
##어져
##VIEW
##Drive
##Pool
##스테이션
##lish
##rum
##리뷰
##aC
##조정
##름이
##래의
##And
##주세요
##GUI
##제한
##회로의
##fil
##초중급
##거진
##설명
##르트
##순환
##태그
##킨다
##택트
##잡이
##콘텐츠
##덴티티
##tice
##app
분석까지
실습한다
##esting
내용이다
코딩이란
실행결과
작업으로
시작부터
핵심이
따라가기
테스트용
문자가
문자에
정리되어
언어나
서버사이드
독자도
독자와
준비했습니다
자료는
아이덴티티
표현법
함께해요
시간차
##되는가
만들어졌다
가장자리
사례는
중요하지만
지식에
지식으로
생각하면
생각했던
머신러닝은
리스트뷰
저자에게
확장하고
스프링에서
##라이제이션
관계가
입문자와
인터넷은
과학이
최적화와
윈도우용
##ures
추출하고
효율화
스마트폰이
알려주기
공유를
복잡성을
전략에
콘텐츠에
기업에
발생시키기
메시지의
목표에
##사항을
전달하고
찾아내
다운로드한
양자비트
등록과
역할이
복사하여
이야기는
중심점
호출과
파워셸
클립아트
노드에서
조작을
조작하는
디자이너로
향상시키고
온라인에서
렌더러
##ivot
인쇄할
인프라에
프리미티브
Scul
Scrap
부트와
##ified
Anaconda
사용되는지
분리된
풀어서
조직과
컬렉션과
루프의
조건문을
위젯과
창의놀이
비전을
체크박스
집중한다
폴더와
대체하는
딕셔너리와
exec
이렇듯
비밀을
로고를
출제경향
셰이더를
인물의
참여한
디렉터리와
##ALUE
만화를
Blue
태스크를
입문자들이
소통하고
볼륨을
아직은
RNN의
발표하기
Acc
지침서
재사용할
기간을
Fillet
부품을
언리얼엔진
Response
Networks
중요하다고
합격할
##연구회
파싱하기
CLI로
##antum
가중치와
체인코드
서울대
break와
While
대중화
지나치게
하여금
신입사원
소재를
삼성전자
눈금자와
특이값
DynamoDB
확신한다
명명된
Processing
CORS
돋보이는
##OWN
Default
불러와서
Collections
비중이
D프린팅
UNION
믹스인
ETL
연령대
디멘션
버추얼박스
색칠하기
다년간
Pixel
주민등록번호
크리스마스
안성맞춤
##매개변수
급변하는
서서히
세마포어
진심으로
못지않
트렌디한
일목요연하게
나침반
Sharpen
CHOOSE
AN
Domain
Gen
Gro
Hor
HBase
Keep
Loft
Send
VC
Wir
With
ZIP
bool
gram
qu
강약
건설
겹쳐
공고
광원
기구
내레이션
넓히기
년을
라면
막강
모달
무의
뭐가
밑그림
바코드
밤하늘
배출
배정
백과
베테
불량
삶은
세포
소장
쉽지만
스톰
스노트
시세
쓰인
아예
알리는
액세서
언젠
언택트
여름
엮어
옆에서
외래
의문
이라
익혔
일들을
일렉트
적외선
전후
조망
주며
주류
질감을
최강
치명
캐스트
코르도
퀘스트
탭과
파란
파파
패킹
패스트
포워드
품종
풍요
플레인
한데
한두
한곳
현금
호이스팅
후의
후위
##해보세요
##DOWN
##Rec
##Sense
##ta
##ture
##MM
##화하여
##mem
##BERT
##OL
##Type
##사업
##인수
##With
##카메라
##wn
##컴파일
##돼야
##밀한
##잡고
##aper
##ora
설정할
문제풀
실습까지
학습은
코드도
소개해
소개할
작성해야
테스트로
선택된
변수란
독자ㆍ
다른가
해결의
해결하지
페이지랭크
만들어보며
분류기를
표시된
속성값
공부하면서
모델링은
비교를
로그의
통합을
##urtle
추출과
효율적이고
필수인
기계어
흐름도
전달을
마이크로서비스에
IT의
인덱서
insert
예외와
강화하기
가이드로
VR의
반복문으로
동시성과
정확도를
회사를
버튼의
과제와
자유형
취약성
보정을
도입된
추상적인
커널을
안전하지
교재에
수업의
자연스레
강력하게
일상적인
생활코딩
강조한
집계표
아이디어가
스크래치와
홈페이지에서
일부는
이메일로
람다를
포맷을
Transfer
##로부터의
장면에
셰이더의
스칼라를
마케팅을
컨텍스트와
가르치고
커뮤니티를
참여하는
액티비티와
섹션에서
Mapper
강좌를
모습으로
발표자
scope
논의를
깃허브에서
직업의
구독자를
출시된
노션의
Prem
Preview
AVR
시큐리티를
사랑하는
개정판에서는
##Info
드론의
엄청나게
인덱싱과
##Check
RPG
Optional
기하학
DIY
지루하지
고가용
스포이트
독학으로
권장한다
웹페이지를
Performance
블로거
Statement
##untu
모험을
보여주며
CONC
FIND
스테이트풀셋
method
스카이
데이타
PiP
Travis
##이미지
대화상자의
Transpar
##ognition
Chrome
감싸기
멀티태스킹
Ubuntu
나날이
베테랑
FL
GE
JAR
KE
LVM
MPU
MPI
NDK
Soc
Sync
SRE
Safe
Sheet
Vert
cur
mem
개러지
공작
그릇
금손
나뉘
넓어
니즈
다행
대가
던져
도수
돈이
두더
든다
레이트
리전
말했다
머스크
메쏘
메소드로
명세서
몸에
무비
무거운
뭐예요
발굴
별색
상시
상수의
수석
수없이
스패
썼다
안면
않나요
알짜
알버트
야경
없이는
에니
엔디
역자의
워크로
일어나고
자부
자간
잘할
재난
절반
짓는
책이라고
청크
최빈
축하
크다
텔넷
티어
파라
패스의
퍼센트
폴링
풀고
플렉
행에
현행
후가공
흔적
##기본
##Ref
##eg
##STE
##itial
##모든
##모듈
##비트를
##Fi
##호퍼
##mo
##mix
##Buffer
##ds
##시를
##시에
##Th
##대성
##문고
##여야
##인간
##니까요
##안에
##었어요
##제도
##망의
##네팅
##검토
##둬야
프로젝션
##tit
이해는
학습자
학습하여
예제모음
##ates
설치를
처리기
필요해
작성법을
##anbit
작업에서
핵심이다
클래스는
선택할까
편집디자인
입력해
##reh
##ings
단계적
단계에서는
사람보다
##icense
패턴은
API는
스마트홈
지식만
문자열이
부분집합
분야에서는
하나다
정렬하는
이벤트에
배경화면
것이었다
참고서
Ins
오브젝트가
용어들을
콘텐츠와
배치를
그룹핑
옵션들
이상으로
HTML을
자동화에
전달한다
공간으로
불러오는
찾아내는
다운로드하여
된다고
수준이
개선하고
역할에
재미가
의미한다
모니터링하는
결정한다
Review
분산된
Spatial
엔진과
OpenV
##lize
시험의
시험장을
기준선
반복문과
전송과
버튼으로
서브스크립트
측정기
conf
목적지
결합하는
워드프로세서
안전하고
컬렉션의
필드와
공개하는
강력하고
위험성
레벨업
국내에
##관리사
축소와
트랙패드
세트의
토큰을
검토한다
매출을
텍스처를
재질의
스칼라와
##aries
throw
만화와
투명성
곡선으로
장비를
주변의
사업을
Act
##afka
인코딩하기
ESP
SEO
유니온
블렌더
순간을
업계에
인류를
Segment
setup
가득하다
도면을
표본추출
현상을
원소를
가속화
인코더로
드래그하여
정리해봅시다
무엇보다도
프라이머리
##struction
극복하기
C언어의
주인공이
차단하기
눈금자
폭발적으로
습관을
주장한다
ROUNDDOWN
OneDrive
Extension
Puppet
##scape
Support
생기면
터널링
점진적으로
AlphaGo
hello
끝나면
다뤘다
NEW
stats
어려웠던
Volume
Primary
CookBook
수월하게
합리적인
##마인드
까다로운
아이스크림
Inspector
PKI
##ources
그래스호퍼
SIEM
챔피언
AMD
Bevel
CA
CCT
D와
Finder
Flex
Glo
IK
LAR
Lighting
Na
PA
Pool
Saf
WS
WW
fly
gl
ptr
query
tree
url
경매
계신
고루틴
공을
관행
굿노트
권이면
그게
극한
글자가
나왔
다지는
단독
답하기
데커
도티
독점
동그
두잇
듀오
램프
루씬
리지
많았다
말처럼
맞닥
매수
매거진
못한다
무수
뭔가를
바르게
박스를
변이
부와
분자
비구조
선분
속속
스윕
식당
쌓는
쓰자
암묵
어색
없으며
온전히
욕구
이곳
인격
인수의
인메모리
일별
읽지
입맛
있듯이
자판
작고
재직
저주
적게
전의
절로
점멸
점입니다
정성
지출
직군
집을
초간단
톡톡
툴체인
튀는
판타
팬더
편이
피자
행의
행운
형제
##해준다
##기지
##PC
##도메인
##sole
##아의
##보라
##리전
##vo
##vel
##커머스
##비와
##함수를
##FI
##mediate
##TS
##지다
##자산
##자바
##식간에
##IST
##Load
##버그
##버터
##매니
##상품
##네이
##평을
##바이트
##걸음
##폴로
##텔레
##객체
##렸을
##큘러
데이터란
방법이나
개발되고
분석에서
실습합니다
설명하였으며
##env
##ename
알아본
컴퓨트
실행하여
작업환경
살펴보면
게임오브젝트
컴퓨터에게
입력에
입력하면
표현이
표현으로
텍스트가
해결한다
소프트웨어공학
만들어낸
출력할
사례분석
생각하며
운영과
인터페이스로
인터페이스는
경험으로
정렬을
##ister
##해야만
구글맵
비교하고
교육자
익히도록
예측과
대상이
업무와
오브젝트로
연구하는
수학이
공격하기
변화하고
포토샵이
용어에
전문가들은
수행한
수행한다
그룹과
##보고서
##pping
Continu
주제들을
채널에서
가능한가
차원에서
##istent
재미와
현재는
질문할
질문답변
관심과
##lias
HTTP의
시험해
브러시와
변형하여
활동이
인쇄물
스위트
텐서플로로
DB를
유지하고
블록체인에
초보자에게
읽어볼
읽어주기
능력자
구문과
대표하는
시퀀스를
구조체를
절차와
고민이
필터링과
Label
일상이
##된다는
해킹의
Toolkit
딕셔너리를
이해하는데
조금은
Edition
회원들의
앞으로는
에디터에서
예시와
친구들
SNS를
Plus
##try
여기에서
사물인터넷과
텍스처링
순차열
연속적인
그려지는
개수와
종합적으로
스테이징
만나기
탄생한
RNN을
Union
컴파일러를
Organ
받아들
Algorithm
현업에
SW교육
실패한
테두리와
Replic
서적이
Seq
해커의
##encoder
와이어샤크의
SUMPRO
Redux
기계학습의
모르지만
파이어폭
포드를
MongoDB의
있었고
것인지에
거듭나
대처하는
서술형
고전적
언급하고
##ugging
wrapper
맥락을
##raining
##Shot
나오지
FreeRT
선배가
토끼를
Encoder
D프린터
Servlet
인과관계
수년간
THE
ConstraintLayout
flat
Techn
GREP
별책부록
쓰레기
실리콘밸
피그마
쓰임새
잃어버린
고충을
pfSense
컴플라이언스
코르도바
CCTV
맞닥뜨
SUMPRODUCT
FreeRTOS
A형
C의
DFS
FS
IOS
Imm
KNN
OB
PI
PDB
PER
Tre
Tips
VH
cron
dynam
dict
grad
medium
os
sign
tw
task
강민
걸맞
것까지
고수가
곳을
공무원
그뿐만
기르기
꺼내
나왔다
나오고
남기고
다변수
도울
되나요
디리
때에
랜딩
러프
런치
리디
마일
맥에서
면으로
모수
받았다
베지어
보람
본다면
부사장
뷰에
비로소
빅오
선풍기
세이프
소수의
손색이
수입
숨기고
시트로
식품
신분
신세계
안심
안개
앉아
야후
약점
역광
외적
유인
의류
의식을
이자
인형
인칭
인자를
일잘
자꾸
작아
재단
재배치
전성
주지
중반
증분
초래
최악
크래시
탭을
투자를
툴에
트렐
판이
퍼사드
펼치기
픽토그램
한컴
한쇼
허가
화풍
후디
흰색
##포메이션
##기초
##Dialog
##트레이
##resh
##iN
##변경
##보게
##리면
##더더
##Me
##uzz
##데이
##경험
##Board
##시트로
##정책
##대일
##그때
##Action
##교환
##여러
##전화
##들께
##들에서
##습니까
##버린
##마스크
##동물
##매출
##움이
##량과
##증권
##종합
##토피아
##옵스
##따옴표
만들기를
만들기에
활용하고자
이용되는
분석이란
모델러
##ench
##entic
알아봅시다
기술들
도구입니다
##ature
소개하여
디자인으로
실행에
시작하면
시작하면서
정보도
정보들을
클래스가
##alth
선택은
기초로
연산에
영상편집
가지만
연결되는
다른지
개발자들을
명령들
프레스코
##데이터를
계산할
##하지도
부분적으로
특징에
하나도
정렬하고
블록형
블록코딩
전문적으로
##ager
참고해
로그와
실전문제
트리에서
##ility
##ayes
메뉴에서
플랫폼은
이유다
핵심기능을
알려지지
공유와
계층에서
시대에는
모바일에서
주제들
유용합니다
찾아본
역할은
##avig
쿼리문
엔진이
시험은
학생과
파이프라인과
CCNA
도입한
도입할
도메인과
촬영을
리소스와
when
능력향상
동기와
기록된
기억하기
고객이
Arc
컨트롤러를
채우기로
아이콘과
트랜잭션과
리뷰를
에디션
CODE
해킹과
에러가
대비한
엔트리봇
스피너
##하는지에
주기적으로
로컬에서
특별부록
여기저
아트워크
셰이더와
##ignment
사물인터넷을
마케팅의
가상화폐
중간중
검출하기
참여할
체험해
바인드
글꼴을
KeyShot
만나보세요
책임을
명확하고
STS
크롤링하기
발표된
주변장치
계약의
포렌식의
레이블링
GPU의
실수로
방화벽의
데브옵스를
중요성은
다이아
Resolve
정답을
인자로
라우터와
show
구현해본다
PowerShell
세기의
QR코드로
시큐리티의
리더십
세그멘테이션
분석가가
CoreDNS
##atio
RPM
지시어
사건을
ELK
##lusion
결측데이터
Overlay
아름다
##Exec
VirtualBox
부가적인
Asset
SMB
선호하는
IMAP
기다리고
RxJava의
DirectX
Size로
수요가
##KEY
원자적
그중에서도
Property
redux
포괄적인
PPO
그때그때
Presets
긍정적인
Remote
##페이시스
세밀한
로보틱스
libv
길벗출판사
Console
홀로렌즈
우아한
메타버스의
##embly
UMG
수수료
밀접한
산포도
헤매지
홀로그램
Revolve
포워딩
Axis
grep
몰랐던
현명하게
Cinema
가제보
냉장고
최대공약수
BASIC
막강한
백과사전
LARGE
판타지
AB
AW
AMQ
Batch
C를
DO
Fol
Font
FDM
LUT
Site
Tag
VL
Vari
Vulk
WPA
cal
down
equal
pr
soft
tim
ㅣKEY
값만
개관
게놈
겪을
골격
공상
과장
군더더
권위
깃과
넘버
논란
닮은
동등
디노
디파이
래핑
룩업
룰렛
마칠
맞췄
명단
무중
물류
물음
밋밋
배타
벤처
변분
볼록
봇의
부류
분에게
붙이고
브루
브라우
빼고
사소한
서점
성안
셈이다
소형
소위
스팀
시안
압도
없었습니다
역방향
올린
의외
의해서
이프
이른
익셉션
자습
자빅
적립
전압
절댓값
정하는
종말
주저
죽음
직종
찍고
첫째마당
초월
초창
초깃
총합
최장
출입
키포인트
텐데
파레
패리티
포스
피하라
혼잡
화질
##부호
##어리
##Page
##스피
##트인
##sg
##sor
##Sel
##보니
##리며
##nist
##장한
##님의
##면에
##Class
##Factory
##시계
##성으로
##II
##GA
##나와
##게이트
##력에
##긴다
##헤드
##우선
##러미
##베이터
##꾸기
##구간
##구글
##추는
##럽지
##응용
##홀더
함수들을
문제들이
관리자와
예제에서
요약하고
프로그램이란
내용들이
디자인이란
필요하며
적용해서
시작을
연습이
따라가며
사용자화
정리를
그래들
편집하여
변경해
연결해서
단계는
단계부터
실무자가
APT
독자적인
과정도
함께할
명령에
Stabil
요소는
만들어져
만들어졌습니다
반복을
부분이다
분류분석
표시와
경험적
하나입니다
아니어도
아키텍처는
스타일에
##aggle
삭제와
보기를
과학자의
Info
문법의
Provider
평가의
다루는데
이름에
추출해
찾기와
복잡하게
논리를
##exp
External
기계에
js에서
빌드하는
등록된
검증하는
다음은
inner
제품디자인
클립스튜디오
OpenStack
시험에서
장치에
REIN
현실이다
##oggle
##ized
선언문
유지할
블로그와
사물의
브라우저와
접속을
구문의
동기부여
이진화
조회수
스튜디오와
추적하는
현장에
스케치북
수업이
대부분이
주의를
표현식의
취약점에
한글의
나타난
데이터셋의
Short
위젯의
하이퍼바이저
오토데스크
국내의
해킹을
집중하기
집중해서
성장하기
튜닝하기
##ATION
이번에는
##Storage
해설과
생명을
입문서다
진화를
플레이어를
특수문자
디스어셈블
심화학습
Through
인물을
클릭하면
무선통신
튜플의
역량이
Intermediate
페이스북의
OpenCV에서
책임자
Numb
논의하고
실패를
만족할
내려받을
##가능한
로깅과
Particle
연출하는
알파고와
출시하기
Postfix
파이토치로
혁명의
드롭다운
표본화
아무런
아무쪼록
Behavior
하이브리드앱
##Input
##과정을
요즘은
않았지만
행위를
많아서
리포팅
첨부파일
좋을까요
경향이
눈금선
신속한
POSIX
Shader
Guard
페이퍼
##스타일
배웠던
산출물
WORDㅣ
알고리듬을
쏟아져
전제로
ERD
일자리가
Relative
형성하는
연주하기
수백만
Developer
빈티지한
파인더
##ucker
혜택을
알맞게
한빛아카데미
진보된
건너뛰기
##azy
시키기
Styles
하노이
##클루전
##inci
Dimension
만드세요
이르렀
자릿수
##FORCE
퍼포먼스
geom
Explor
스벨트
##polation
##ingPi
게으른
데이터사이언스
지탱하는
애그리거트
##rupt
##ribution
블루오션
##강화학습
HANA
피규어
Olly
Premier
데커레이터
디리클레
트렐로
##entication
Vulkan
REINFORCE
Echo
Hide
HLOOKUP
Loo
Pain
Qual
eval
hard
push
remove
util
variable
갈수록
강하게
거라
것에서
고대
고퀄
고해상도
과금
균일
그랜
나뭇
나란히
내리기
네비
농구
누계
누끼
눈부
다대다
담을
대사
됐습니다
되다
띄는
로프트
리프트
만료
맵과
모핑
무너
묵시적
바나
배율
백본
버린
번개
보낼
보입니다
분들의
비례
송금
수만
순식간에
스텁
시즌
십대
쓴다
알리기
앤드
앱스토어
어닐
없던
엑세스
워밍
이사
이보다
잡스
전방
전한다
절을
절실
접어
조형
증대
지그
지방
찾은
크랙
탐지기
토스트
툴팁
폭을
피커
피팅
피해야
하려는
학점
한쪽
행으로
헤어
현존
##해왔다
##기록
##Vinci
##속도
##RAP
##스펙
##도라
##sw
##eak
##cap
##cast
##rit
##이펙트
##프를
##nold
##patch
##ges
##uent
##가와
##CA
##표본
##dition
##시장
##시각
##선에서
##XE
##나지
##WP
##소싱
##중심
##오버
##오피스
##Http
##fit
##벌레
##겠다고
##합시다
##명세서
##키를
##익스트라
##휴먼
##빈도
##북스
##윈도우
프로모션
함수식
이해의
구성된다
구성하였으며
설명하였고
생성자의
알아내는
관리형
기술한다
기술이나
예제까지
설치법
##legate
작성하지
개념만
따라다니는
테스트에서
컴퓨터나
자동판매
변경하여
실무와
자바에
독자들과
데이터베이스는
해결하려는
Stor
가능해
계산에
반복적
생각과
딥러닝이란
접근과
부분들을
스타벅
특징이다
표시해
동작의
아키텍처로
SQL은
배포에
삭제한다
##ember
때문일
연구실
자바스크립트에
효율성과
사이트와
지원되는
사고가
##이기에
프리젠테이션
강의도
진행되고
자동화의
자동화할
불러올
로봇에
스파이더
리액터
인덱스로
재미도
기획서
기획자의
중심이
예외의
훈련을
규칙에
제시할
제시하며
스파크와
지도로
조작할
내부를
HTTP를
기준이
장치에서
현실에
코틀린과
디버깅하는
단어로
마스터와
체계와
보호된
##IPS
운영체제에
샘플을
조직에서
회전과
필드에
저장소와
파워포인트에
##INE
조합해서
구분해
병렬성과
Arnold
실용적이고
##oss
아이디어와
proc
음악과
재귀호출
업그레이드된
Exper
탐지하기
Compos
Compreh
ext
자체의
방법론의
공학을
Python을
가르치기
일정을
있으면서
참여하기
정수와
습득하는
습득하고
신호의
크리에이터를
교수가
길이를
##ouch
추상화와
계약을
게시판을
##ashion
##Python
MVC의
GPU를
증가하는
잠재고객
독립적으로
CodeDep
과목을
직업이
오토인코더를
주입을
트렌드에
Repository
##anning
Secret
AVD
아카데미
일치시키기
##자에게도
모르겠다
높아지는
출발점
전망을
pandas의
대안을
콘셉트를
##블로킹
##으면서도
언급한
개발자에게도
Flat
주행차
그러데이션으로
주성분분석
##적이면서도
정규표현식의
비트맵과
좌우하는
Tracking
##URL
선형대수학
나눠서
취미로
service
repeat
재밌는
Status
궁극적으로
동의어
RTOS
초중고
꼬리말
배제하고
Physical
카이제곱
배움터
살아가고
과감히
WEB
빼놓을
cpu
##IVOT
Enterprise
based
Life
버그킹덤
QUIZ
SOLID
Legacy
analysis
프리랜서
역직렬화
Transparency
WWW
##매니저
AMQP
무중단
파레토
CodeDeploy
Alex
ABC
AAA
Bro
Cer
CMS
Fre
Fade
Hook
Ill
Jest
Limit
MR
Mock
OU
Right
Round
Sched
Tun
VFX
VALUE
X의
Zig
cr
javascript
next
nginx
pix
right
tidy
turtle
간주
갖췄
거기에
고화
고도의
공짜
관여
교류
굵기
귀납
근거리
글자와
꾸밀
나위
난관
넓히고
년까지
단층
당뇨
대다
데크
됐으면
디앱
때만
랭크
리듬
마찰
말에
망가
모은
물질
미터
미친
민간
밖으로
배로
버프
부재
비어
상급
섞기
선이
성형
성분
소파
소나
시스
시연
식을
신고
안다
안다고
않다면
알렉
앞면
언두
에반
엿볼
엿보기
완결
웨이
웹은
웹으로
유방
임포
잊지
잊어버
작심
장인
정칙
정독
진출
진지
집에
차집합
착각
참석
책들과
추정하기
치열
코칭
콘퍼런스
큐베이스
클레
키스
탭의
토이
팀장
포럼
피에
한자로
해주
해쉬
회문
##부호화
##다양
##어드
##스토리
##ek
##een
##tas
##보험
##nect
##a의
##aff
##MO
##pace
##조치
##비디오
##화는
##진수
##진단
##진흥
##사람
##주일
##저항
##할당
##Lab
##산을
##제로
##관의
##냈습니다
##했는지를
##마이
##매트
##무늬
##유튜
##토믹
##키로
##탐지
##빌리티
##있습니다
##옵니다
##겼다
사용률
만들면
활용도를
##apping
기본서
##ination
실습하는
설명하므로
학습하게
관리가
코드베이스
이미징
소개를
프로그램이다
다양성
필요도
구조에서
작업화면
시작이
시작되는
따라갈
클래스에서
편집은
제공함으로써
머신에
정의해
연결한다
설계가
클라우드에서의
과정이다
아이의
해결력을
##utron
가능성과
배우지
지식iN
접근이
접근하고
그림은
부분과
경험담
##istic
공부단
공부하려는
가상세계
##igration
패널에
이동통신
처음에
Invert
미래에는
윈도우를
평가할
##ateg
플랫폼인
IP를
공격하는
##었다고
시대적
필수로
모바일과
레이아웃에
오디오를
주제인
중요한지
찾아가는
양자화
등록하는
전환과
의미에서
Sprite
계획서
비디오와
사회가
파악한다
학생이나
혼자해봐요
##ogram
활동하고
이해하고자
요청에
개체와
도메인을
촬영된
촬영하고
속도는
접속하는
능력에
어느덧
스크래치는
스케치의
고민해야
대학의
의존성을
링크와
Apple
강력히
게시하기
일상에
취약점과
나타내
그렇다
데이터셋과
라우팅과
트랜잭션을
번호판
부족하다
편리함을
에러와
재귀와
딕셔너리에
대비를
라이트매
Compar
주석문
이슈에
공통적으로
자동차를
수치를
세부적인
헤더의
SNS소통
그리드를
자원의
이루고
세션을
중급자
교차검증
멤버의
하둡과
컨텍스트를
커뮤니티에서
뛰어들
안정화
안정성을
노출하기
혁신의
곡선과
인수로
추상화를
주문하기
##되었는지
레이블을
프로토타입을
경제학
않아서
달라진다
트랜지션의
주고받
주고받는
##erative
비율로
Camtas
서적은
LSTM을
Neutron
모르더라도
슈퍼컴퓨터
Based
struct
물체의
중앙값
Levels로
거듭날
가능하다는
튜링의
세로로
앤서블을
JPA를
사이킷런의
##stract
초대하기
뉴런의
인생이
프로덕트
NFT
INDIR
Common
color
SPSS
쉬워지는
WEEKDAY
Libraries
모서리를
Automate
ERC
에어비
UTF
Standby
Blending
투시도
IPSec
재시도
장벽이
Reality
스와이프
들려주는
지면을
systemd
성취감을
화두가
##mdt
시야를
소양을
시원한
배경지식이
##시켰다
iPad
네온사인
단단히
public
Lookup
구속조건
난해한
##커캐드
사파리
HOUR
##슈타인
선구자
##지금까지
과도한
중소기업
백분율
STUDIO
시리얼통신으로
xlsx
액세서리
두더지
스패닝
듀오톤
dynamic
후디니
다이아몬
libvirt
브라우징
바나나
워밍업
유방암
SNS소통연구소
Camtasia
INDIRECT
BP
CF
CAP
DP
Fres
HA
Jo
Mul
MPEG
NOR
PAT
Patch
Push
Room
TPU
TAS
VUI
XAMP
YAR
ZSphere
clear
dist
dictionary
error
iS
kill
ping
und
yield
간추
감마
감탄
강점을
고마
관문
광선
구경
그간
근원
글의
깊고
깨우
끝난
나오기
낙관
내일
내릴
년간의
뇌와
뉴턴
니즈를
다름
다각
다익스트라
달린
도안
독보
독창
되새
디졸
맺으며
머그
먹기
멜로
면의
묶음
믿음
발자
백만
밴딧
버리고
벤더
보시
보행
보거나
분을
붙이는
브리
블라인
비가
비영
비네팅
빛이
상자를
선거
섬세하게
셀과
소년
소식을
소인수
순번
슈터
스웨
쓰일
에듀
열려
열광
운송
원화
위반
이건
인더
일원
자이로
장별로
적당한
전하고
정수를
좁은
중시
중계
찍는
책만
촉진
캐스케
컨벤
코디
콘트
쿠팡
타자
폼에
품평
품목
하세요
현지
형의
회고
후회
##해석
##다니
##기획
##어보기
##Pl
##Post
##eech
##tl
##ten
##ood
##리버
##not
##noDB
##uting
##시로
##정식을
##선에
##XT
##공식
##전을
##전의
##ICE
##봤지만
##니스트
##안드로이드
##World
##습도
##마저
##렬한
##생의
##투어
##봇을
##집중
##웠다
##았지만
##았는데
##토록
##극한
##절차
##쾌한
##받지
##케이크
##됐고
##슬러
사용하도록
활용하지
이해하라
분석해서
##orter
구성한다
문제에서
학습자가
파이로
관리자의
예제들로
구현하며
처리해야
디자인에서
시스템이란
추가하였다
구조인
적용해야
따라가는
입력의
입력받아
저장하여
제공된
자동완성
변경한다
가지가
정의할
단계가
##elf
제작이
무엇으로
LEN
계산이
출력하고
접근자
경험에서
##epad
기법도
##isco
배경이
확장성과
것이기
성능은
##라이더
종류가
패키지에
참고하기
삽입된
InnoDB
아니라는
문법만
암호학의
수집을
##verter
없는지
공유해
논리연산
컨트롤과
스크립트와
옵션과
발생했을
누구인가
네이밍
우선순위와
##변수의
##imum
개선해
이야기하고
inf
여러분들이
규칙의
이제부터
워크스테이션
조작법
세상과
시험하기
파악하자
행렬식
안내서가
인쇄를
파이프라인으로
요청과
Scope
블로그로
암호화된
검사와
최대화
결합해
렌더링을
IDA
타임코드
타임리프
풀어야
번역기
번역하는
기억이
절차에
카프카와
구분선
식별하는
나타날
활용하는지
전자서
Shot
사실이
IoT를
Symm
넘어가는
JSON으로
비용으로
Tool로
MySQL과
심층강화학습
신뢰성을
##Store
파일로부터
탐지와
입문서이다
맞추는
exercise
노력했습니다
##하시고
해석하는
분포를
Helm
레지스트
기호와
재질을
판단할
Systems
소셜미디어
커뮤니티의
아마존의
디렉터리의
오라클을
소통할
국가직
Self
가변저항
슬라이딩
인수와
키보드와
필요하다면
Alt
깃허브를
단원종합
DBMS를
jQuery를
악성코드를
풀이를
임베딩을
ISP
가상현실과
##herit
균형을
가로등
세대의
프린팅의
NumPy로
있었지만
##ride
##ridge
DataFrame의
대중적인
보완하기
콘셉트와
두려운
차례로
UVW
Flutter
허브와
보충수업
불안감을
글씨와
눈높이
우리나라의
##Exp
건강한
안티패턴
RxJS를
DevOps를
크롤러를
한정된
후반부에는
##Config
##Connection
일으키
사원수
차지하고
##loading
양자역학의
배색하기
공존하는
일부분만
RFID
한마디로
성향점수
시원하게
회화적인
##독자대상
풍성한
교보문고
친근한
하노이의
sklearn
스톱워치
SharedPre
익스포터
policy
Rectangle
초고속
되살리는
##Processor
Hardware
캔버스를
심각한
Creative
##auss
일렉트론
워크로드
Continuous
Organization
여기저기
성안당
OllyDbg
Premiere
그랜트
XAMPP
디졸브
멜로디
블라인드
BLE
Before
Cython
EV
EVM
EBS
FB
From
FUS
FPG
GIS
Github
Gauss
Hy
Hour
Ripp
Sem
Sound
Ve
Version
XAI
blog
each
ls
label
machine
mnist
pom
script
take
vari
vSphere
가산
개구
게재
겪게
고립
긴급
나뉜
농업
놓치기
단연
대치
대충
대공개
드릴
들면
러니어
루미
마틴
만하다
못한다면
무서
뭐야
바닷
반갑
백로그
버는
번만
벌써
베르
변하고
보케
불용어
블룸
블레이드
새퍼
성인
세우
세월
소상
수염
수당
쉬우
스몰
슬기
시기에
신간
실었다
싶지
않다는
애매
액터의
앱이란
야간
약어
어트리뷰트
엔트
엘릭
여자
여덟
오로지
원고
원통
원핫
월의
웹용
유스
일회
일러
일람
일주일
잔차
저도
저희
점에
점근
정식
주니
지망
직급
집대성
착륙
책표지
키의
테스터
팀은
팀에
팀에서
패드
페인터
포크
프랑
해방
해주고
현명한
화씨
##부를
##Par
##Sec
##tes
##tra
##tool
##iti
##리게이션
##MT
##pater
##Each
##key
##ms
##BLAN
##TI
##되므로
##An
##치면
##방에
##물리학
##들인
##능력을
##계층
##점의
##제거
##했을까
##길남
##발성
##실을
##설치
##바운드
##결합
##피니티
##돌이
##음에도
##컨대
##노소
##랩스
##폴리
##층을
##예측
##넥트
##웍스
데이터도
##oning
##하고도
기능별
기능들과
이용자
설정된
문제까지
설명도
생성자를
관리한다
구현이
구현하자
내용만을
필요하지만
추가했습니다
개념이나
적용되고
사용자에
사용자들의
서버는
머신과
머신에서
준비되어
준비사항
준비운동
아이를
아이와
시간표
검색창
프레이
스크랩
배우려면
계산하고
출력용
반복하여
타입이
라이브러리는
생각한
운영의
동영상은
동영상과
많은데
리스트란
소스가
아키텍처가
도움되는
바로바로
세계적
완성도가
##ilt
##uments
색상이
회귀모형
통신하는
수정을
수정해
위치한
숫자만
오류에
컨트롤하기
표준과
들어와
메시지와
플러터의
전달해
공간에서의
우선순위를
개인적으로
쿠버네티스로
되는가
주소에
도커로
대화식
다음의
카메라가
멀티캐스팅
재생하는
훈련하는
훈련시키기
규칙으로
##anding
파악하여
기준에
노하우까지
태그로
PC의
연동하여
전송하는
현실적으로
활동에
업데이트와
DB에
서브루틴
도입하고
##ious
영향력을
어렵지만
어렵다는
분리하는
분리하여
where
솔루션으로
회전시키기
스튜디오로
매개변수로
현장을
교재입니다
영화와
웹사이트와
고객과
spring
공개한
흥미가
적합합니다
Admin
review
깊이를
조건문의
집계와
충분하지
##ASH
이전에는
디바이스에
##licing
병합된
그레이들의
반영하기
LED를
맞춰서
친구를
##tract
대신에
자기부호화
Help
튜플과
Enemy
주도하는
방지하는
길이와
추정기
마우스와
컴파일러가
살아있는
부여하는
좌표를
직관적이고
잠재적
워크시트를
주목해야
감성적인
CodeP
Viewport
간격을
트레이싱
복합적인
비율에
노션은
중요하다는
일래스틱서치를
VBA로
미분과
Matte
Intelligence
프론트
그라디언트
스냅숏
걱정할
관찰자
MariaDB를
MariaDB의
깔끔하고
통계학과
어떠한가
동향을
##Mapping
워크플로우를
삼각대
병행성
달성하기
장소에
##ibrance
치환하기
Meshmix
학원에
NFC
근본적으로
인재를
계열의
##사진을
텔레포트
##velop
##계산서
불확실한
코스페이시스
##Add
물어보세요
가져와서
UTS
replace
왕초보도
##아이디어
Symbols
직면한
Stateful
고품질의
끝나지
모호한
플래너
정보기술자격
Weka
Saturation으로
전술적
무궁무진한
피사체
##umerate
과감하게
Introduction
파스텔
Final
Parameters
RBAC
Reflect
워드프레스의
지니고
KoNL
음료수
디스패치
게이츠
values
DaVinci
데드락
타당성
베이그런트
##tificial
SUBST
토크나이저
웹플럭스
맺는말
operator
단백질
Social
리디렉션
어닐링
##다양한
iSCSI
Ripple
##BLANK
Atom
Alert
BFS
Cog
CAS
Down
Fragment
Hack
Host
IoC
JMX
Mid
NUR
OX
Pod
PRE
Rate
SQ
SaaS
Sample
Tit
VTP
Vibrance
ag
cpp
deb
host
load
make
ssh
같지만
골드
곳은
궤적
그곳
극단
긋기
길고
깨진
남자
낮추기
넣을
노이
놀랄
눈길을
단번에
닫고
대스크
더하고
데이비
돕습니다
동원
되짚
두렵
떠나는
많기
망라
맞아
매퍼
맥의
멘탈
며칠
모르게
목격
바와
바구니
반투명
방침
배분
버스를
보도
보건
보도록
사슬
상어
세세하게
센스
센트
쇼어
수료
스레
스토
스컬
심화된
싶었던
쌓여
써서
아토믹
안경
알찬
야근
약수
없거나
없더라도
연간
오지
오바
올해
우도
워치
원고를
유추
이책
이룰
이끈
인풋
인서트
일찍
일하면서
입수
있길
있겠
재분
재앙
재검토
전단
전설
점화
정글
정합
정하고
조리
중괄호
지나는
지우는
질적
쪽을
착한
창에
촉각
최전
카멜
칼라
컨디션
컨플루
콜드
크라우드
특장
팁으로
판에
팔로우
패커
페퍼
펭귄
포커
표적
하겠습니다
한셀
함축
합병
협상
홍수
화가
횟수를
횡단
흐릿
##포워드
##감도
##부는
##졌다면
##기억장치
##Sheet
##의료
##더리
##ao
##MAC
##Master
##MARY
##Element
##ura
##모를
##bot
##가에
##CAM
##함은
##Field
##용한
##NF
##UN
##dic
##원에서
##O의
##으려는
##정복
##선이
##Al
##Att
##여행
##런치
##식별
##판으로
##전력
##워즈
##나마
##LDAP
##강민
##매체
##팅과
##품을
##디의
##우치
##목마
##거리를
##피디아
##최근
##십시오
##침투
##필름
##랐다
##봐도
##케이드
##옵션
##됐을
##갔다
##뚤어진
프로에서
##orn
파일이나
설정의
모델인
##arb
학습하며
알아둬야
기술입니다
구현해야
알고자
##atory
소개하였다
내용입니다
그리며
이미지는
파이썬이라는
언어도
네트워크관리사
##acer
객체가
저장공간
연결리스트
독자들도
제작자
방식에서
요소별
##oders
응용까지
배열에서의
계산법
라이브러리에서
사진가
분야에서도
저자만의
기법까지
영역만
소스에
공부법
아니고
구글과
##igger
마이크로프로세서
##chain
비교와
안드로이드에
실전편
예측모형
이동시키기
이동평균
과학은
과학자와
탐색하는
Projection
수집기
수집할
알려줄
계층에
시대다
지정과
컴퓨팅이
용어들
forward
누구든지
산업은
산업과
산업에서
자동화로
클라이언트가
전달되는
찾아보자
##imal
복사해
이야기에
inst
기획자가
여러분께
지금껏
강화된
디자이너는
##시간에
변형해
활동하는
방향에
##정보를
프리미엄
키워드와
Scatter
Scroll
보호할
측정값
유니티에
유니티와
엔지니어로
엔지니어에게
암호화의
초보자들을
운영체제가
운영체제에서
렌더링의
배워보기
배워본다
커널과
카드를
Pygame
도서가
패스와
패스파인
번역서
실험하기
성공의
마음의
전자회로
실용주의
로그인과
리뷰하기
넘어선
prop
순환신경망
##ixed
하였고
트랙에
에디터로
익스텐
집필했습니다
자동차가
금융공학
서로의
Substance
Plugin
드라이버의
인물과
동안의
스위프트로
문제점과
##ize로
ASA
보드를
로직의
감각과
미니큐브
크롤링과
발표한
측면의
##outing
iOS의
받아들여
타임라인의
분해하기
다이렉트
Files
##만큼이나
감성분석
내려받아
##가능성
Parallel
##리어스
비전공자를
가정하고
MSF
LAN의
캔버스에
SUMMARY
혁명을
가로로
포드의
장단기
메타버스는
##AVING
Classification
도출하기
회의를
동물의
바꿔보기
arch
break문
Comment
대안으로
이클립스에서
Force
Brushes
통계학의
순회하기
패키징하기
Multiple
극복하는
인공신경망의
ACK
부호화
continue문
Angular의
##bble
##Exception
유도하기
좋을지
대수학
부팅하기
흔들리는
LeNet
Generator
늘어날
나아가는
눈으로만
Actions
##사회의
쉬어가기
DDD를
떨어져
sorted
예정이다
비대칭키
CRM
AsyncTask
감염병
헷갈리는
##연습문제
CTO
할인율
Spotlight
아쉬운
Emgu
벗어난
크레딧
이해관계자
Under
Transpose
진로를
Debug
##dbc
Convolution
FUN
typed
HEAD
Proced
스노우플레이
Retro
줄어들
Making
남녀노소
로드밸런싱
고윳값
그레이스케일
샤프닝
##processing
창시자
어둡게
Sculpt
Scrapy
Horiz
플렉서블
##reshold
##Executor
밋밋한
의외로
초깃값
Stabilizer
현존하는
FUSION
베르누
소상공인
센트OS
재분배
AMI
BL
Cell
Cisco
Dart
DAT
Equal
FM
Fab
Foot
Feather
GT
GA
Hier
Handler
HAVING
Iris
Kib
KPI
Kafka
NER
NVID
OL
ROM
TD
base
ed
first
hanbit
irq
mong
master
prim
template
wait
xv
가다
감쪽
개와
거스
결괏
관통
굽기
귀찮
글이
까닭
꽃잎
끝에는
나지
나눈
낙서
날로
날개
논블로킹
다큐
당면
됐고
될까요
드림
드리고
들었다
들었습니다
루엔
말입니다
맡은
매도
매력을
멸치
모폴로지
못했
무려
밀어
밑거
박스의
반품
발상
밝기와
보시기
봉투
부등
뷰JS
비지
빅아이디어
빌트인
삶이
색다른
서바이
섭씨
세련
세컨
세울
소음
스켈
시너
실려
실었습니다
아인
아케이드
양수
양질의
얼룩
연립
영원
온갖
유강민
응급
이게
이퀄
인플루
일도
자사
잘하기
잠뜰
저마다
전길남
정통
주된
주력
주머니
중개
중에는
즐기고
진수와
찾지
초콜
최후
쿠브
태동
테슬
티처
팀으로
팩스
퍼시스턴
핀치
하우스
할로
함으로써
핫스팟
해보면서
혼용
##포테이션
##부와
##어라
##DN
##stim
##SDS
##tools
##이해
##란드
##변화
##더드
##Mo
##라기
##모토
##가장
##금을
##금융
##흐름
##호스팅
##mer
##ACT
##GO
##질까
##적이지
##안과
##LM
##LAB
##게이터
##제스트
##오면서
##마이너
##생물
##벌루션
##타닉
##Kotlin
##량이
##wrap
##위원
##무게
##월드
##달쏭
##jin
##쓰기와
##앤톤
##셋을
##됨에
##쏭달쏭
##하기만
프로듀
##er와
활용서
활용하려면
개발용
개발하면서
이해하며
분석용
설정이
##arg
학습용
학습자료
프로그래밍도
프로그래밍할
도구상자
내용들
##ley
작성하자
시작에
파이썬에서의
기초한
확인을
편집으로
입력으로
저장되는
사람ㆍ
사람이나
##elnet
준비해
자료들을
표현해
텍스트에서
스마트워크
문서작성
변환해
제어의
반복할
접근제어
결과와
분류에
활용하기에
##oose
애니메이션에
속성들
필터하기
확장성이
삭제된
##chest
입문편
익히며
Inception
탐색의
최적화에
경우를
플랫폼별
IP와
수학은
전체가
변화된
추천할
프레임워크는
번째로
시대에서
필수다
필수사례
컴퓨팅은
##파일을
전략이
Optim
요구를
##학습을
논리력
AWS가
레이아웃으로
누구든
이상인
강의에
슬라이드쇼
유용성
스토리가
자동화와
목록의
타이타닉
Reverse
중심극한
재생목록
선형대
파워쿼리
JSR
디자이너ㆍ
##이어야
학생들도
확률을
확률이
보정과
Trust
도입해
Chpater
Pointer
브라우저가
모의침투
최소화하기
최소제곱
복제하고
등장할
기억하는
매개변수가
정도가
식별하고
##프레임워크
Ada
OS를
품질의
Share
Contact
얼굴의
비용과
project
스토리지의
파라미터와
대비하는
대비하여
메일로
람다와
엔트리와
패킷분석
에디터와
발견하는
##atches
챗봇과
Translation
PHP를
XML을
세부적으로
노력과
생산자
여기까지
클릭으로
메이저리
입체적으로
중간값
Interpolation
기대합니다
CLIP
투자에
혁신이
toString
현대적
인지하고
감각은
열기와
scouter
인코딩과
아웃포
깃허브에
타임라인에서
마이닝을
소리와
결과물이
##ITUTE
USART
달라요
진단하기
편집기로
타입스크립트로
그레이디언트로
노션으로
메트릭을
for문의
유연성
스플래시
포스트휴먼
상용화
QR코드
답변해드립니다
판다스를
판다스로
##Control
블루프린트를
바뀌고
SDK를
##Provider
창출하는
취득하기
행위자
정규표현식을
루트킷
본질적인
learn을
많아지고
Max의
친숙해
macOS의
Token
달성하는
시청자
첨부하여
힘들다
즐겁다
삼성SDS
소유자
양자컴퓨터는
근거한
Poster
asyncio
오프닝
요리책
define
소설책
보간법
없어서는
애드온
정체성
참가자
##visor
##Adapter
알아볼까요
address
단말기
Extract
알려주며
MainActivity
##iii
애니메이트
정기적으로
##versal
Scribble
regression
리다이렉션
의뢰인의
브레이크아웃
편안하게
주관식
수상한
length
가깝게
불어넣는
견적서
Embedded
##adding
##duino
생명정보학
가전제품
Secondary
Clipping
Community
Deployment
##Repository
Vertex
최빈값
이프랜드
고화질
비영리
컨벤션
오바마
패스파인더
Kibana
초콜릿
Av
ALL
Amb
BE
BOW
Cri
CNC
D형
Diff
Fed
Giz
GCC
Ho
Hal
Kaggle
Lat
Location
Launch
MOS
Nano
Perc
POJ
Pucker
QA
Tor
TRU
Using
Wat
Way
WAF
ap
body
css
dd
e교환
hash
md
pd
png
using
wx
ㄴ핵심
가계
개편
거친
걸러
격차
고학년
공기
구석
구하고
국방
권고
권에서
끝을
내어
넓이
넙스
노블
높였다
놓았
느려
다룸
달콤
대면
대략
두껍
둥글
뒷부분
따기
뜻이다
라쏘
러너
리치
막는
막힘
메가
명제
무사
미묘한
바이어
배틀
별명
부자
부인
비기능
빈칸
사망
사태
색감을
샤픈
세탁
시키는
쓰게
아크
아타리
악취
알쏭달쏭
압수
앞다
양식을
엠블록
예언
옷을
완수
용례
우측
원주
유닉
익스트림
인앱
일체
있더라도
잡았다
재능
재설정하기
저전력
정비
조상
조인트
주기를
줄을
줄씩
지옥
직각
집행
짚고
찬사
채도를
채우고
청년
최대로
컴프레
탄젠
테그
퇴근
트랩
팀과
펑터
포톤
하던
학위
해줍니다
해보며
화학
휴머
흡수
##어가
##차단
##Dis
##Date
##Part
##sync
##sive
##ratch
##ira
##아도
##아라
##리다
##하에
##하셨
##로프
##My
##gation
##라의
##비율
##표와
##Un
##BO
##Tool
##지지만
##대비
##대역
##교사
##여일
##진의
##진자
##주도
##Image
##봤을
##안전
##세포
##버스트
##운영
##상황
##베이즈
##급수
##먼테이션
##추적
##싱과
##재그
##재킹
##틀어
##컨설
##률이
##밀하게
##접속
##케이스
##박스를
##박사의
##킵니다
##납니다
##깎기
##으로만
프로그레스
활용은
활용사례
함수적
분석적
분석하며
문제다
##enti
관리는
코딩하며
시스템인
실행하며
##any
정보나
테스트ㆍ
선택자와
언어란
언어적
기초에
##acement
다루게
그래야
편집한
제공하므로
독자이
준비한
##CTL
시간적
방식인
관련하여
Stard
응용에
문서화하기
반복의
생각하자
딥러닝에서
경험하는
배경의
버전에서는
##agios
##change
만드는가
##라이닝
비교하면서
입문하려는
##amed
예측의
통합의
사항들
##ules
최적화의
컨테이너가
문법으로
메뉴바
IPC
통신할
형태에
논리형
수행해야
참조의
참조형
사고는
인식하여
표준의
들어서
기업가
옵션의
##nito
발생기
단순화하기
메시지가
플러터를
채널과
stream
빌드를
마이크로서비스가
불러온
움직일
움직이고
찾아야
쿠버네티스가
프로토콜이
되는데
##imation
Require
현재까지
기획이
쿼리하기
멀티테
멀티코어
Spin
Sphere
질문이나
비디오의
비디오로
##이어서
사회과학
항목별
파악해
##uplic
PCG
학생을
학생들
스택으로
과제로
리액트로
리액트에
서브도메인
측정할
블록체인은
계정의
사물이
엔지니어라면
도메인에
암호화하기
UX는
가치는
초보자는
미디어의
접속하여
분리하고
권한의
반응을
등장하고
대표되는
기억상자
정도다
ARIM
네이티브를
##PACE
공개하기
공개합니다
흥미롭
적합성
식별과
Arrays
require
창의성을
JSON을
모형과
property
에디트
한국인
액션의
행동에
이후로
재귀함수
디바이스의
일부가
문장과
신뢰구간
패킷의
액세스하기
아두이노의
제약사항
예시로
Computer
제목에
실력점검
게이트를
공통점
세트와
발견하기
공식을
진화와
당신도
오늘도
케라스의
시뮬레이션하기
Threshold
예상치
기호로
여행의
출간되었다
멤버십
거래를
추론을
조사한다
안정된
##locity
입문자부터
Maps
노출과
동일성
미니배치
제안한다
##efile
네임드
미국과
호스트에
지표를
RxKotlin
사각형을
과목으로
Studio를
인벤터의
시작해보자
비전공자가
Swatches
다가가
ROLL
규모와
두고두고
control
controller
인류에게
유연성을
Sectin
바라며
AVG
PowerPoint
수험생을
COUNTBLANK
기계학습과
획득하기
개별적으로
인터랙션을
방송을
방송하기
분석가의
커넥티드
완료된
튜토리얼을
사람에게는
다르지
enumerate
면접을
인포그래픽을
비밀번호를
##shift
실기시험
친숙하게
방문해
꾸준한
logo
힘들어
덧셈과
흔들린
올라가
드러나는
Siri
IMAGE
사이언티스트가
거쳐야
Backup
##icture
분석기법
resources
InputBox
유리한
인문학적
DDD의
overflow
MATLAB
지배하는
등급을
Indexed
당연한
피해를
Brigh
위키피디아
쓰레드의
웹소설
반지름
타원곡선
부서별
MCU
살아남기
Flash
지혜를
증권사
##AMPLE
풍성하게
Radio
아끼지
디스패처
나름대로
민주주의
BRDF
HSRP
Skybox
Iterator
클럽하우스
포켓몬
비정규화
##Details
##Open
프로메테우스를
플레어
KEY
PAINT
초창기
에어비앤
머그컵
콘트랙트
엔트리는
Cognito
데이비드
typedef
스켈레
쿠브플로
중심극한정리
메이저리그
Gizmo
POJO
e교환권
테그마크
Stardust
Bug
Bloat
Bayes
Cart
Count
Dump
Ep
FF
Glow
HAL
Icon
Morph
Pivot
R스튜디오
Tri
Use
Whe
Zero
auth
cap
cat
dep
global
history
ne
navig
put
pool
role
so
tra
youn
yml
가며
가방
가면서
각진
간과
개략
거라고
것이지요
결심
과업
관제
구애
구하라
권하고
권에서는
그건
길에
나간다
날이
넓고
넘겨
노선
농장
높고
담론
던지는
덩어리
되지만
될지
등가
때쯤
뚜렷
라운드
레슨의
로켓
룰러
리프레
리플레이
링킹
명을
명목
모멘트
모깎기
몸무게
무명
문서는
문화와
뭔지
미지의
민첩
바깥
발현
밝히고
버려
베드
별표
보낸
부피
분의
분량을
브레드
브러쉬
빈틈
사의
사분
살피
상식을
선견
세터
세종
셀로
손맵
솔라
쉬울
스낵
신나게
실마
싫어
쓰였
안목
앞선
애완
양이
어카
어피니티
엄두
여왕
연상
연예
열리는
옛날
오피
오렐
외주
위성
이펙
입을
자질
잡힌
장래
장악
재조
재테크
적어
전작
정원
정류
정찰
정착
정적인
정체를
제프
준전문가
줄바꿈
지적인
쪽지
참신
창문
책인
책이라
출근
층의
치우
킬러
탈옥
필연
해보
해낼
확고
환상적인
힌트를
##을수록
##해왔
##차례
##Dev
##스위
##SV
##link
##text
##수학
##리프트
##하되
##aim
##님께
##라임
##모바일
##가이드
##FO
##름돈
##시와
##시프트
##OUNT
##청소
##지토리
##치의
##방을
##일수록
##적이며
##값으로
##Link
##소켓
##루프
##루미
##제가
##오차
##엔트리
##색의
##zer
##zip
##크의
##웠습니다
##팩토리
##구름
##바디
##피벗
##재단
##연의
##천재
##럽고
##노미
##하기보다는
사용했다
사용했던
만들기까지
개발한다
##ors
문제들에
실습환경
실습해볼
설명된
학습에서
학습이란
학습하면
생성에
코드로서의
예제들이
소개했다
프로젝트까지
코딩별
코딩하면서
개념까지
시작했고
연습할
정리와
네트워크는
네트워크에서의
기초지식
##ety
##ette
저장장치
화면구성
실무지식
실무자들이
##standing
아이튠
아이들도
제작된
사용해본
응용과
만들어지고
연산자에
가능하면
제어자
계산문제
계산작업
출력층
반복과
시각으로
중요해
생각하게
생각하지
분류하고
표시할
경험하기
필터가
확장자
전문성을
SQL문
참고하여
실전형
익히자
##amfer
예측해
예측에
통합하고
대상의
##보다도
컨트랙
그래픽에
그래픽카드
자신들의
알려드
있게끔
공유된
마치면
필수입니다
템플릿의
위치에서
지정해서
표준에
스크립트에서
모바일용
유형으로
단순하고
스토리라인
스토리지를
##시키자
자동화하고
발전의
개인적인
로봇은
쿠버네티스는
주소지정
의미는
복사해서
모니터링하고
결정적
인스펙
텐서의
수식은
규칙이
질문은
질문하기
계획과
파워팁
날짜에서
클립으로
OpenSS
OpenLDAP
사전을
마스크의
메소드에
변형하는
회사소개
활동은
단어는
단어와
##구조와
업데이트를
프로그래머들이
프로그래머라면
측정하고
Chamfer
촬영할
TCP와
결합하여
능력도
배워봅니다
워드클라우드
이어진다
도서로
등장과
등장한다
궁금하다
매개변수에
상품의
수업에서
전처리하기
의존관계
구분할
흥미롭고
Adapter
나타났다
Arti
위험에
창의력과
IoT의
아이콘으로
국내에서는
스토리지에
액션과
해킹에
관리자에게
디바이스와
문장으로
하였으며
제약을
기기가
이슈가
공통된
토큰과
집필하였습니다
지향의
##ROM
노력으로
시장은
CloudForm
장면전환
장애를
##ucer
응답하기
세션과
NOW
자격시험
정규화와
상상할
##스케치
국가의
종합예제
Map으로
Keyshot
그것도
탄생과
탄생했다
직장에서
혼합하기
미니게임
크롤링을
모습과
Uni
Orchest
계약에
플로어
산술연산
스토어에서
##ISP
결과물의
익혀도
워크시트의
주목할
로딩과
현황을
현황과
Autoencoder
만족도
스케줄링하기
ViewModel
셰이프를
유니캐스트
조립품
비율을
비슷하게
접근법의
shot
for문으로
인류는
바라보기
클리닝
해커가
부담스럽
유틸리티를
가능성에
사라질
application
Workflow
geth
##프리카
홍보하기
나온다
다섯째
터치스크린
파티션의
##tives
자산을
포기하는
독자에게는
JSP의
##spect
##Property
Levels
대처하기
일본의
프런트
공급망
정보보안기사
기여도
헤드리스
C언어를
##riven
장기적인
SVD
선별하여
deep
마주하게
기다리는
Guid
##books
엄선된
바운딩
Twist
발휘할
제출하기
활약하는
Attribute
얻고자
ROUNDUP
장르의
##ctl
DSLR
카운트다운
비활성화하기
괜찮은
궁극적인
명시적으로
비중을
##mitter
Mastering
Coord
보이스앤톤
백트래킹
무언가
헷갈리기
묘사하기
예전에는
파고들
이익을
돌아가기
Slack
##전략을
interface
MyBank
편안한
MISSION
파스칼
Stylize
지역변수와
RC카
세미콜
알아보겠습니다
브라운
우연히
신비한
자본주의
플레이스홀더
차산업혁명의
빠르다
Integr
##WebDriver
##Subject
axios
무지개
QUERY
눈앞에
평활화
의욕을
브릿지
못지않게
메쏘드
##Thread
속속들이
암묵적
파이어폭스
flatMap
최악의
VLLO
softmax
RelativeLayout
고퀄리티
지그재그
##uentd
Illust
OUTER
당뇨병
키스킷
피에조
##마이크로
Symmetry
단원종합문제
루미온
SUBSTITUTE
되짚어
##arbage
베르누이
감쪽같이
인플루언
티처블
ARIMA
young
오렐리아
CloudFormation
A부터
ANS
BMI
Bridge
Cinder
DX
DOS
EDA
Else
Fram
FRP
Factor
Hit
Json
LTE
Lex
Land
Long
MA
Nagios
RMS
R언어
Rasp
TOD
Tkinter
WBS
big
fs
ft
kube
le
long
mk
pe
pick
sl
vm
감지기
감사를
값은
겪었던
경유
고르는
공중
관람
국소
기차
기후
기념
내다
놀자
늘어나
답이
당첨
대선
데서
동력
두었습니다
뒤바
등이다
디즈니
따져
래피드
레인
마땅
맡겨
매입
머무
모래
모릅니다
문학
받는다
법에
벽에
변심
보팅
본서의
부착
브라이
블럭
비즈
비뚤어진
뿌듯
살사
상기
상자의
선명한
세프
소계
소스트리
손전
손익
솔직
수술
수시로
순방향
쉐이딩
스도
스튜
스킵
슬로우
실정
싸움
씬을
알라
알자
애플릿
어간
어우
어둠
얼음
없나요
없어서
엉뚱
연설
오클루전
원숭
웹진
웹호스팅
유실
윤년
이뿐만
익스트
인의
읽기를
잘하고
전유
절대로
접두
주신
즈음
창고
최선을
출석
취재
층을
컨버터
코퍼스
탭에서
툴인
틀림
판을
퍼핏
페도라
펜화
표상
플리커
후배
흐리게
흩어져
##포니아
##감지
##부문
##반복
##VER
##Value
##R을
##culator
##tax
##rt
##이냐
##하리라
##장이
##vlet
##커트
##비가
##비교
##화되고
##For
##Fil
##Framework
##mission
##User
##Block
##원리를
##시킵니다
##지명
##지거나
##대와
##대고
##그마
##교통
##방지
##방송
##IOS
##고요
##나간다
##질라
##안내
##세를
##볼까요
##디비
##미트
##미지
##론하고
##네르
##체로
##목적
##브로
##명으로
##구석
##백준
##줘야
##송이
##뜨릴
##짐에
##됐는지
##박스로
##렸습니다
##쇼핑
##컬러
프로미
##er로
방법만
##apply
함수군
이해함으로써
이해했는지
##orting
설정한
설정부터
문제부터
##arn
##arse
학습기
파이에
구현되는
서비스들을
##문제를
추가해서
##anh
적용하면
작업도
정보만
연습해
환경에서도
따라하면
사용자라면
정리하였다
연산으로
편집편
편집까지
변경에
가지치기
##reat
연습문제로
단계까지
사람이다
자료에
아이들과
구축하려는
배열이란
페이지뷰
중요할
생각은
생각에
신경망에서
배경지식을
프레임으로
소스에서
동작하지
공부하세요
아니기
종류별
보기에서
고급편
참고서가
부록을
입문서는
이동을
메뉴로
유튜브는
추출한
인간처럼
수학적으로
공격이
공유한다
추천해
##ademy
수정된
UIn
필수가
숫자에
다운로
논리와
인증의
인증제도
참조한다
사고에
사고방식을
표준프레임워크
클러스터와
산업을
##처리장치
stop
마이크로서비스는
움직인다
찾아주는
##usic
주소로
대화할
##istogram
전환율
이야기의
instance
가져오기와
지금보다
제품별
작동하는가
수식에
호출의
엔진은
날짜의
클립과
OpenAPI
사전훈련
##estore
디자이너들이
향상하기
향상시켜
브러시의
학생들과
보고서로
회사가
활동의
버튼에
마스터로
마스터하는
보정으로
프로그래머와
자막과
자막에
측정과
도입에
메타포
목적의
정책의
컬러매트
읽어서
복제본
복제와
권한이
피벗테이블
솔루션이
아닌가
##ynchron
고민하지
포트를
스스로를
협업하는
생활과
데이터셋에
Shiny
비전과
강화학습과
압축과
심층문제
반영하는
포맷팅
Expand
Expert
액세스의
라이트맵
토큰필터
검토하고
무엇인지에
상호작용하기
연관분석
자체적으로
Double
파트는
헤더와
아트웍
장애가
Theme
사물인터넷의
기호의
컨텍스트의
움직임이
조사를
검출과
액티비티의
##teger
상상력
소통의
글꼴과
Selective
책임이
인지적
##EEP
위협을
바인딩하기
Acro
Activ
경제의
##ITH
트랜스포트
조언과
정보보호론
네트워킹의
중요성에
철학과
피드포워드
인벤터를
Resolution
대기열
동작하는가
과거에
chart
content
유연하고
바라본
오래전
하지요
##CESS
스프라이트를
appendix
판다스의
쿠키와
News
Disco
Record
세그먼테이션
아래에
아래와
어드밴
중앙처리장치
건축물
운동하기
ADO
것인지를
감사합니다
대처할
유의미한
DHT
##awn
분명하게
이루어지고
Fluentd
벗어나기
규제화
정부의
날씨를
즐겨찾
##uffle
인정받는
유도하는
극대화하기
학원이나
DateTime
ElasticSearch
보관하기
이뤄진
양자컴퓨터가
아티스트가
인프라스트럭처를
호기심과
뛰어넘어
오른쪽으로
사이언티스트의
NPM
기다리기
정형화
Keras를
친해질
##계산기
고속화
구별하기
나라의
막연하게
생물정보
게시물의
마라톤
Topic
비유와
커리큘럼을
NavMesh
XDCAM
인스펙터에서
중고급
그다지
Remapping
능동적인
히트필름
플렉스박스
##ryption
레드햇
정돈된
몰라서
아티팩트
RFM
슬롯머신
지키기
Capture
##확률분포
##PROM
리얼타임
다년간의
덧붙여
토대가
느꼈던
명료하게
Typed
매끄러운
SGD
가리키는
blocking
빈번하게
능가하는
점유율
변호사
##Reduce
불규칙한
인증심사
EXCEL
Forensic
Dashboard
어서션
Account
치명적인
개러지밴드
도수분포
작아지는
Painter
눈부신
스타벅스
알렉사
웨이포인트
클레임
다이아몬드
YARN
눈높이에서
FPGA
Gaussian
Velocity
반갑다
노이만
특장점
Understanding
Footage
Hierarch
거스름돈
Brightics
선견지명
youngjin
손전등
스도쿠
Blo
Burn
Drive
Ess
FRE
Fetch
Gam
GKE
HPA
Hive
IG
ICS
IMP
Lar
Mbed
NIS
Ob
Ps
Routing
Tone
Us
UCS
UCC
Vign
Y축
apt
action
cm
car
draw
empty
graph
kNN
lambda
loop
n개
pg
pw
pyp
ter
가을
가성
간다
간섭
감안
강건
갖기
거미
귀중한
그랬
그들을
근속
기입
긴장
길라
김현
나가고
내내
냄새
노을
늘려
다릅니다
덕분
데이트
동아
디피
뚜껑
레일
리워드
릿지
막을
맵의
메트로
몸체
무어의
미루
바뀔
박스로
받게
밝고
방위
백준
법도
베일
변숫
보인
보이지만
본체
볼트
부적
부르
부른다
분도
비표준
빈도가
빌려
살리는
상수를
서핑
소소
수박
스마
시도를
실사
실체를
심어
앨리스
엉망
엔맵
역순으로
예기
예와
온습도
외워
우지
유해
음의
음성을
의문을
이에게
인치
일독
읽거나
임백준
자아
자라
전만
전무
정산
종이에
주울
줄에
지점을
징후
짜는
짧고
처방
체감
체인지
초록
초매개변수
캡쳐
컨소
컬렉터
코리아
콜라이더
큐와
크루
클리어
탑승
테이터
템포
통로
투자와
파형을
퍼져
펜슬
평소에
포메이션
푸아송
풀다운
합을
형광
힘입
##포털
##포토
##포레스트
##Did
##Dir
##PER
##Picker
##S를
##linder
##cloud
##current
##rics
##how
##과목
##수열
##아키텍
##아트로
##하느라
##로스
##로쿠
##서도
##aise
##Mtl
##조리
##파지토리
##bat
##가오
##FTP
##Fragment
##UC
##UX
##B의
##BER
##dir
##Tra
##대의
##XML
##법에
##교재
##주기를
##ICS
##Qu
##일치
##LR
##WA
##물에
##행위
##버드
##중인
##오류
##마자
##마케
##코인의
##디언
##KDAY
##렌치
##히지
##퍼드
##합격
##았고
##복원
##구의
##배수
##듯한
##웨이의
##없습니다
##노이
##노이드
##잡을
##떨어진
##날의
##줌으로써
##께끼
##젝터
##박싱
##념을
##잠깐
##erber
개발해야
구성하였고
모델이란
##하여야
학습만
파이와
관리해야
기술이란
예제부터
##itter
설치되어
내용에서
디자인까지
##leep
코딩에서
작성하라
서비스란
##ane
개념들이
인공지능이라는
##asm
따라하는
##스크립
선택에
확인해야
다루어야
##etooth
##SSEC
변경이
변경한
변경되는
간단하지만
자바가
자바빈
표현에
Ste
반복해
중요하지
운영하면서
특징ㆍ
경험하게
배경에서
아키텍처에서
스타일이
##agger
구글링
배포의
이론서
고급스러운
일반화된
##emes
Invent
미래신호
트리맵
통계에
연구는
연구과제
형식이
플랫폼이다
추출을
##vera
##verage
사용법부터
색상만
스트레
메서드에
용어로
전략으로
배치하여
참조에
사고하는
기업들
도전을
그룹에서
배운다면
AWS와
메시지에
명령어에
초기에
개인과
다운로드하고
스파크로
##istant
재미난
의미다
타이프
결정에
중심성
재생할
제품군
비트의
Spac
하기만
##분석과
러닝은
라우터를
##thread
OpenFlow
사회와
포인터에
행렬로
VR로
장치가
학생의
학생이
설명하고자
스택에
그러고
인프라와
마지막까지
보정의
텐서플로에서
블로그가
엔지니어들이
더욱이
결론을
미디어를
최대의
의사코드
##tick
장점으로
복제하여
렌더링과
능력의
시리즈와
도서입니다
등장으로
등장했다
이진탐색
패스에
대표이
성공하는
고민할
집합으로
저장소로
대부분을
배운다는
조정과
조정하고
음성합성
적합도
적합하지
한글을
그렇기에
Artificial
전자적
깊이와
업로드하는
데이터셋으로
아이템의
익숙하게
##ASM
Sym
글자에
넘어가기
번호로
기출문제집
##mavera
Nova
Notification
내장형
디스크의
성장한
압축하고
메일링
WebView
신뢰도
##Stat
업그레이드하는
기기로
확대하고
Compute
검토사항
지향하는
사이버보안
자체는
파트를
조인의
장애물을
해시태그
##기술의
분포의
MLFlow
경쟁력이
안정적이고
태스크와
상상하고
기대하는
MapReduce
만나볼
아직까지
애자일을
로직과
익히고자
scroll
Unic
사업의
Text로
##되었을
타임라인을
MVC를
젠킨스와
정복할
트랜스퍼
경계가
독립변수
프로시저를
않을까요
상대적
ROS의
제어문과
직장인이
Param
알파고는
assert
난이도의
생태계의
생태계에
어린이를
탐구하기
둘러싸
확보하는
Mongo
shared
프로세서와
시큐어
##encil
부하분산
익힌다면
미분의
일관성을
클로저의
##자료를
사라지고
이끌고
Reduction
문화의
어디에나
MongoDB를
사랑받는
카테고리별
있었다면
##logue
포기한
pandas를
##되기도
커뮤니케이션을
Tempor
다뤄야
아트보드를
결국은
여기서잠깐
가설을
Formula
여백을
앤서블의
선명도
초등학교에서
HDL
최소화하고
엔터티의
유지보수가
ATM
##phone
bytes
빈도수
살펴볼까요
ToDo
##Serial
달성할
질감의
Filter로
키바나를
어노테이션을
IBM의
##적이면서
높이와
Materials
즐겁고
좌우로
발행하기
빠져들
서블릿의
모으는
##연결리스트
ALTER
reshape
##스타트
성질을
확신합니다
키네마스터로
있으니까요
공부하다가
Flowable
대학교에서
정치적
Attention
줄여주는
플래그를
Relation
간접적으로
포괄적으로
프랙탈
Persistent
##Format
괜찮다
이항분포
##ributes
자극하는
장벽을
LOOP
지리적
탐색기에서
EEPROM
FILE
장착하기
카이스트
Clone
flag
바이오파이썬
초심자
requests
발급받기
이식성
지키고
베타테스터의
각광받고
Package
Term
뮤직비디오
체득할
heading
멈추지
환영합니다
빨간색
componentDid
Signal
수수께끼
common
흘러가는
Primavera
##스러울
허프만
Transitions
mysql
##문화사
##asploit
쪼개기
키즈가오
플루언트
획기적인
발맞춰
Knowhow
##Works
Contrast로
Validation
오렌지
엄격한
Liquify로
Bluetooth
맵리듀스를
SIMD
받아들일
Immutable
PIMS
일잘러
군더더기
Explorer
네비게이션
자동판매기
소나큐브
작심삼
Multic
Vibrance로
NVIDIA
Ambient
달콤한
##MyAdmin
리프레시
Illustrator
래피드마이너
비즈네르
어우러
Acrobat
컨소시엄
Aw
BCP
CN
Cas
COS
Each
Fir
Feed
FTK
Grain
HLS
Heat
Hero
Javascript
Jira
Lo
LQR
Mis
MER
Migration
NG
NIO
Return
SER
Soup
VIEW
WDF
WITH
Z까지
fetch
gray
license
my
mon
memory
rm
raise
sleep
width
x의
you
가산기
갈등
강점과
개조
겉핥
겹치기
경합
계승
공이
권은
글자의
금세
기부
끝판
나가며
납치
내디
넣은
노먼
녹색
높인
놓기
다진
대를
대변
대하는
대수의
덮어쓰기
도어
도함수
되려는
딜리버
때에는
라며
런처
로버트
롤업
리틀
링크로
마감
마이너
막론하고
만일
많다는
말하자면
맵으로
머클
면이
명품
몸으로
못하게
못했다
무음
미사
미주
미소
밀집
배가
백서
뱅크
법선
벽을
보스
복귀
불린
비통
상반
상주
서류
선출
선발
셔플
셸을
손질
손잡이
스머
슬로
승부
아프
아껴
아르
아폴로
않으
어마
얽힌
업적
오목
오큘
옥션
옵서버
외우고
욕심
원동
월간
웬만한
윤정
의지
의문이
이성
이코
이룬
인맥
일론
잔디
재정
재정렬
저널
저녁
적도
적당
적층
정다
정도를
좁히기
중립
증폭
지인
지치기
직선을
차등
차에는
채로
첨자
초점
카나
크래
클레이
키넥트
탐지를
토마
파리
파마
판형
편차
편성
폰갭
폴드
핫한
항해
했는데
호텔
확진자
환상
히스트
##포스
##감에
##부스트
##해설
##다지기
##PART
##RAM
##sn
##table
##type
##ius
##수립
##보를
##보딩
##로이드
##go
##gration
##yber
##조직
##uf
##데믹
##경영
##Cos
##Click
##함으로
##드바디
##Note
##BE
##메시
##시길
##되던
##되지만
##지자
##대는
##터블
##방진
##판에
##전한
##Group
##적용
##Lint
##산권
##소리
##소득
##현상
##카페
##두는
##티어
##생산
##투영
##학자
##역학
##증보
##크스
##임스
##웠던
##명령
##추고
##결함
##였고
##개선
##튜닝
##때로
사용하거나
사용됩니다
데이터링크
방법입니다
이용법
개발부터
개발하고자
이해도
분석도구
실습하고
설명글
##ength
파이에서
구현까지
도구이다
##atural
처리해
처리는
프로젝트에서는
##lease
필요하기
실행한
##ectional
구조도
적용이
적용될
적용해보기
알고리즘들
알고리즘에서
작업노트
정보문화사
게임도
클래스룸
##aly
언어들이
편집이란
입력이
저장해
가지게
정의의
연결의
단계인
실무자의
준비하자
제작까지
검색할
Statis
이해하기가
출력해
사례의
엑셀이
라이브러리나
접근해야
##entation
운영하며
결과적으로
분야에서의
정렬로
동작할
공부는
##aging
##agation
이론으로
##라이크
##rior
보기로
참고로
교육기관
부록C
부록에서
익히면서
예측한다
과학자를
대상에
프로세스는
Instruction
업무는
업무가
완성되는
평가하고
##ANCE
유튜브와
공격자
추천평
복잡도와
수정하여
계층화
다운받아
전략은
Ops
일러스트와
##TPIVOT
컨트롤로
표준이
기업이나
fork
발생하고
않는다는
포함하기
산업이
강의하고
흐름으로
진행했다
전달과
전달하고자
발전한
발전시키는
개인화된
찾아보고
찾아내고
스파인
등록한
이야기하는
제품으로
있는지도
비트코인의
상황이다
제시하였다
##ird
워크큐
사전과
마무리할
단위와
외부로
향상과
어디든
하드웨어에
VR을
전송을
플레이에
플러그인과
##트리스
센서가
업데이트하는
##izing
보정하고
선언하는
유지하면서
리액트는
체계적
CC의
활용해보세요
블로그의
메타클래스
사물과
##ighb
도메인의
검사를
촬영하는
리소스에
샘플에서
복제하는
커널연구회
이어질
풀어보면서
할당량
조직도
기억에
지속해서
네이티브의
웹사이트에서
집합체
전처리의
실제로는
모션그래픽
단축키와
수록해
reverse
Shard
아이디어는
충분합니다
레벨에
스크래치의
국내에서도
부족할
##outes
재귀를
한계에
WebXR
들어가면서
반영하고
트랙의
패킷트레이
캐시를
Comput
Computing
공통으로
발견한
집필하였다
상호작용과
파트에서
##ibility
##하시면
헤더를
DNS를
##는지에
##OMONTH
마케팅에
회로의
소셜네트워크
중간자
내비게이션과
안정성과
액티비티를
입문자라면
상상해
충돌을
책임지는
기울어진
제네릭의
크리에이터의
위협과
##rader
장비와
라이언
Unwrap
구매한
아웃소싱
가공하고
담당하고
인디자인을
##방법론
익혀라
좌표와
경제와
Setting
조명과
데브옵스의
복원력
트랜지션을
CodeCom
애플이
double
간격과
느껴졌던
ROS를
간략화
소비자의
정답은
레코드를
##리어싱
Repe
사고력이
구독하기
구독자가
역전파의
생태계와
어린이가
DOM을
규모에
##프로세싱
프로세서의
취업준비
##ike
수험생들이
DEV
선생님의
드라이브에
도면과
스프라이트의
기계학습을
append
Cursor
Worksheet
유튜버의
문화적
챕터마다
Quantum
##Container
도출하는
회의실
예술과
Graphic
스프레드시트를
스프레드시트의
구간별
입장에서는
디테일한
라이트룸의
엔터프라이즈급
지나지
Skin
Renderer
Outline
일본에서
JavaScript의
나와도
응용프로그램을
대용량의
장식자
CMMI
극복하고
베이킹
PostgreSQL을
하늘을
인생의
Assembly
##계획법
##bserver
생겼지
파헤쳐
Regular
##스티드
생략하고
학부생
가이드라인을
param
허용하는
스탠더드
IMM
정형화된
쉬워진다
안내서다
BERT의
생물학
마이크로컨트롤러를
불과하다
Connection
보유하고
##시대에
Decision
희망한다
예정입니다
극대화할
몰입형
kyobo
TREE
온프레미
중고차
의사소통을
Encoding
RTC
Shadows
전화번호부
DLP
선보이는
예전에
ICMPv
번들링
UNET
Structure
Heap
##HTML
부모님과
급속히
Correction으로
iterable
그로버
plugin
탄력성
대각선
빼놓지
command
뒷받침하는
마블러스
부탁해
Oriented
Grass
Rough
##Bean
programming
말씀을
내림차순으로
시네마틱
만만치
언젠가
GETPIVOT
리지드바디
gradle
중간중간
equals
자빅스
나뭇잎
##RAPH
##유튜브
나뉜다
슬기로운
스노우플레이크
무사히
플로어블
세미콜론
TODO
Essential
힘입어
##아키텍처
CodeCommit
취업준비생
Bur
Ball
Bash
Boost
C나
CUI
Cour
CPS
EF
EPS
Estim
EOMONTH
FC
Facebook
Future
FROM
Gra
HP
Im
Imp
JP
KSQL
Kernel
Let
MAP
Maker
Pick
QoE
Tur
Tile
Tang
TIME
WPF
Writer
X에서
Zone
att
cor
cluster
cgroup
dp
em
effect
fun
field
fold
mm
mode
non
pers
pattern
raw
sed
save
source
ts
tar
tab
tensor
virtual
ㆍ요약
강탈
같아요
걷기
걸릴
계기
공평
급증
기온
길은
깜짝
내결함
낸다
높이자
놓여
뇌과학
다나와
단색
데이드
데일리
도깨
동형
동세
디퓨
딥마인드
따옴표
때에도
뜻하는
래치
레스트
로케일
리믹스
마티
마방진
맞서
매료
맥에
머리를
머터리얼
멱등
면과
명강의
문명
물감
미트
받았던
벌레
변성
보로
본능
부서의
분ㆍ
분량의
불문
비단
빠지지
살린
삽질
상에서
서적으로
선임
세이브
셋팅
소환
소소한
수면
스쿨
스왑
스펀
스플리
시저
시켜
시설
식과
신제품
실로
아시아
압박
앞둔
어시
에스
온보딩
왔습니다
용돈
원가
웹크
육성
이수
이종
인상을
일깨
입학
작전
잘해요
장미
전과
절충
종의
주장을
중력
지저
진리
진수의
집적
창립
처한
청첩
총체
추이를
카툰
커먼
크롭
크래킹
타블
테이크
통째
팔린
펀드
플라스틱
피쳐
피하고
하죠
하므로
한창
한방에
해봅니다
현주소
형사
화성
화재
환자
후진
##감은
##해졌
##해서는
##기까지
##어마
##속으로
##DATA
##스프
##트는
##도스
##eap
##call
##ts
##overy
##rf
##http
##imple
##이던
##리엄
##리거나
##하루
##하겠다
##더러
##gree
##조를
##면으로
##파트
##모수
##가설
##Chapter
##mark
##dle
##JOIN
##되나요
##정을
##대응
##대책
##A와
##교수
##자리를
##사는
##전도
##저블
##ㆍ고
##안의
##Window
##Widget
##들까지
##들보다
##들처럼
##점에서
##양자
##석이
##동영상
##매일
##투엔드
##미를
##블루
##네임
##심리학
##집을
##거리는
##명료
##배기
##권한
##후보
##개정
##얼리
##연속
##연히
##있어
##압축
##됐지만
##냅니다
##박한
##랫폼
##쳤던
##손실
##푸드
##딥러닝
##뚝딱
##하기까지
사용하던
방법뿐만
기본적이고
기본문법
개발까지
분석ㆍ
설명하려고
관리부터
소개함으로써
설치하여
내용ㆍ
코딩도
코딩테스트
실행하려면
서비스나
##antic
적용하는지
살펴봄으로써
따라올
확인란
영상제작
객체는
다루지는
제공하였다
##red
정의어
정의하여
##mploy
효과적이고
클라우드포메이션
독자라도
준비하세요
표현력
##older
제작한다
##ARD
##CTION
패턴인식
스마트시티
요소들이
만들어보면서
제어기
사례들
그림자와
부분부터
분야별로
경험하지
이벤트로
이벤트가
전문서
공부하며
가상환경
##agrant
##igm
시각화할
##라이온
비교해서
입문을
##하였을
##emon
Initial
Inherit
완성하고
완성까지
경우와
자바스크립트가
이름공간
수집해
스마트폰이나
전체에서
변화시킬
시작하기에
계층으로
시대이다
Opera
논리연산자
수행평가
참조하여
기업인
도전적인
도전과제
forEach
발생하면
포함해서
이상이
이상점
Conduct
js는
클라이언트에
발전시킬
다운로드https
도커는
도커에서
차원으로
수준은
수준별
##ists
결정적인
결정해야
Reactive
현재를
기획하는
멀티프로세서
Speech
##분석을
계획의
스파크에서
세상으로
고려하는
HTTP와
시험과
##rames
노하우도
변형을
그러기
일러스트레이터로
방향성을
##endency
리액트가
분할과
특성으로
##실습문제
Chain
블로그는
메타마스크
엔지니어와
검사기
초보자와
초보자라도
Anti
속도의
추상적
따른다
commit
배워보세요
ID를
이어진
PyMC
조직화
번역하면서
##들과의
고민하게
포트와
파워포인트에서
맞는지
필터링을
공개하고
관점과
요구사항의
요구사항에
Arduino
reference
생활에서
업로드하여
데이터셋에서
위험이
존재를
비전문
종료일
넘어서는
모형화
홈페이지형
스토리지와
매핑과
시퀀스와
폴더의
중복을
한계점
반영된
반영했다
신뢰를
나아가고
산업혁명은
작품으로
실력UP
게이트와
친구들이
집필을
진화하고
XMLHttp
연관성을
노력하는
프로퍼티를
특별하게
로고와
점검하고
CloudTra
조인을
조인과
개정증보
IIS
대신할
Python의
CSP
Internal
Interrupt
기대되는
OpenCV와
그것들을
만나고
볼륨과
보드와
중지하기
노트북을
위협에
측면에
소켓을
TensorBoard
상자로
##efined
아웃라인
퀴즈와
##되었지만
스위치를
실패하는
카운팅
독립형
스크린에
기간별
기간에
주식회사
Viewer
##berry
##tine
주입의
세팅과
Replication
Repeat
하다가
블렌드로
구성요소를
엔드투엔드
분기별
과거에는
테스팅과
엔지니어링을
엔지니어링의
chul
조각을
하루를
머티리얼을
와이어샤크를
부하를
예약하기
파드의
Logical
높여줄
색인과
Intent
요인들
회의록
예술가
평면의
NumPy와
문제해결을
담겨있다
어드레
어드레스
##Int
중앙집중
##lines
제외하기
일반인도
다뤄본
대중의
unittest
나열하는
스코프와
본질은
어셈블리어
없애고
월드와
필요할까요
Lambda와
기하급수
분들에게는
사이킷런으로
ELF
분명하다
침입탐지
편의성
재료의
커스터마이징하기
심볼릭
while문으로
##제어문
장소를
캘리포니아
Overview
인정받고
힘들게
기관의
Assistant
Metasploit
용이한
부정적인
빠져나
Events
도시의
강제로
뚝딱뚝딱
뛰어넘을
최솟값과
단추를
따라가면서
##효과를
타일맵
커맨드라인에서
나오게
잡아라
교양서
무시무
무시하기
글머리표
이터레이터와
재무제
SDN의
RequestMapping
Meet
대답을
증감률
차지하는
채팅방에서
궁극의
길러주는
취급하는
HDRI
메카트로
마인드맵
MEAN
색깔을
실습해봅시다
##ceptor
척척박사의
발송하기
Geth
커리어를
더블클릭
phpMyAdmin
급속한
잡티를
iterator
##시켰습니다
WEP
document
비만도
튼튼한
Undo
합쳐서
iPhone
도식화
생애주기
VoIP
Voice
##incip
자랑하는
수작업으로
Squid
방대하고
##amespace
Makefile
예매하기
접수부터
세심한
획기적으로
##정규화
대문자로
입출력을
Nested
넘쳐나는
느슨한
유인물로
트로이목마
유치원
##Transform
Identity
넘나들
태어난
회색조
관해서도
CONCAT
##velte
OBJECT
공상과학
##patcher
##ategy
구경하기
현지화
##독자대상초중급
개구리
일러두기
지망생
NURBS
컨플루언트
Convolutional
Fabric
primary
세컨더리
퍼시스턴스
Watson
wxPython
탄젠트
##uplicate
스낵바
Coordin
UInter
IMPORT
예기치
SymPy
MERGE
비통지
어마어마
오큘러스
정다각형
GETPIVOTDATA
데이드림
스펀지
타블렛
통째로
##mployee
XMLHttpRequest
CloudTrail
Bac
Cr
Clear
Click
Duration
Dense
FO
Glass
HC
IOT
Jun
Jdbc
Kines
Kerber
MM
Mess
Mem
Mouse
NSA
OPE
Ping
Pipeline
Paper
R이
Ry
RDF
Ratio
SI
Side
Slice
Training
Ul
VST
Vim
VDM
bot
cook
cyber
elastic
embedd
eCos
google
height
light
pid
play
position
rb
rem
가죽
간지
개성을
갤럭
걸린
걸까요
결혼
곰믹스
굴절
그치는
근대
글과
기발
까먹
꽂아
끝부분
나눔
나선형
낫다
넘기
년경
노란
노인
노드로
높였습니다
느리게
다방
달인
대본
대담
댄스
더는
두근
들이
디바
디컴파일
디도스
딜레이
따르
때때로
뜨겁
리니어
마퀸
만났을
먼지
멘토링
모았다
몰래
몸을
몸담
못합니다
몽환
무방
무기가
바늘
밖에도
발주
밝혔
밝히는
버스의
범인
벽체
봇과
분수
불평
붙은
사장님
사다리
살짝
소라
수에
숨기
신디
썼습니다
아님
아메
아내
안으로
안목을
앞장
양적
양띵
어설
억제
에게
여타
역공학
엮은
연수
열로
예스
예선
오신
왔던
외우는
요괴
욕토
우위
원한다
원하지
웨인
웹이
육아
음식을
이공
이거
이력을
인트라
인셉션
일대일
입술
자리에
작도
잡스는
장거리
재발
저명한
전위
점의
접선
정오
제자리
제임스
주안
줄리아
중국어
지뢰
지쳐
직결
진열
진술
집킨
착용
찬찬
찾다
책이지만
체중
초단
칭찬
캐치
커질
커팅
컨벌루션
코끼리
콘트라
쿡북
타인의
태도
통용
투자가
특잇
특허
틈틈
팀별
팁까지
파동
파이스
팡팡
팽창
편에서는
풀지
풀리는
프렌치
피격
한걸음
할지를
합산
해적
해서는
했을
헤로쿠
흑인
##해봅니다
##졌지만
##기계
##Down
##Port
##RAN
##Range
##스파
##SI
##late
##o를
##ral
##iod
##이제
##리자
##리눅스
##리데이션
##로틀
##nel
##ners
##Max
##press
##pose
##ED
##님들이
##라서
##라이브
##파이는
##비한
##C의
##Cache
##화해
##F의
##표의
##만은
##Back
##원칙
##시나요
##Or
##링과
##지에서
##정도
##문자를
##사에서
##사이저
##처음
##주어
##주와
##ILE
##Get
##적입니다
##LB
##Line
##Light
##WOR
##WEE
##년생
##버거
##했으면
##했으나
##마드
##마운트
##동작
##운드로
##레온
##투명한
##디터
##타이즈
##실험
##평면
##브리지
##바퀴
##빌더
##노트로
##밀히
##폴드
##층이
##퇴근
##얽힘
사용시
사용성을
사용하고자
##onal
기능들에
구성했으며
##arly
학습단
학습시키는
학습한다면
알아듣
프로그래밍언어
예제들은
소개서
##its
내용들은
처리로
처리하여
코딩하라
코딩천재
작성하면서
실행의
실행될
실행하면서
구조물
구조화하기
시작했습니다
클래스형
선택하라
정리해서
컴퓨터란
다루지만
다루었습니다
편집부터
##etti
저장한다
제공한
머신으로
간단하다
화면은
연결성
효과는
실무에서는
##stalk
아이무
##olver
제작하여
무엇부터
시간도
시간씩
검색한
검색에
검색하여
소프트웨어인
스마트스토어
Stamp
##odes
페이지네이션
중요해지고
우리도
생각된다
접근한다
부분입니다
사진에서
특징인
특징점
특징으로
기법인
레이어드
레이어에서
프레임에
영역은
전문점
공부하자
공부하고자
버전별로
시각화가
시각화하고
##cha
##char
부록에는
삽입한
도움될
바로잡기
과학에서
프로세스에서
메시를
통계로
연구자들이
암호와
조절해
조절과
##lash
수집의
유튜브가
추출할
추천도서
스트로
프레임워크에서
통신에
리눅스는
수정자
이펙트는
다운받을
사이트로
요구된다
전문가에게
배치해
지원센터
컨트롤에
인식이
표준화된
모바일을
합성하는
합성하고
##소스코드
유용하고
스토리로
개인별
찾아오기
수준과
의미의
복사하는
이야기합니다
결정할
ink
재생되는
비트를
작동시키는
질문지
질문하는
러닝이
엔진에서
계획수립
날짜로
조작에
##시간을
##andard
만든다는
연동을
역사상
안내를
회사는
대응의
##정보통신
않은가
파이프라인에
상속하기
Scratch
connect
Pop
매크로로
엔지니어는
하이픈
하이재킹
##ifest
암호화를
촬영에
컬러와
자료형을
속도에
분리해
##opub
읽어들이기
DataSource
권한과
타임라이온
풀어냈다
원칙에
조회하는
추적기
절차형
현장감
현장에서의
성공할
네이티브로
고객에게
공개되어
조합의
Apply
식별자를
Go를
언제부터
인스턴스화
협업의
그렇듯
원격접속
위험성을
포인트로
##ptables
얼굴과
드로우
기출문제의
매핑을
지역화
디스크에
튜닝의
파라미터로
일부로
시나리오에
본문은
병합과
축소하고
람다식을
스피치
Exploit
드로잉에
합성곱층
테마의
이슈와
맞춰진
발견된
딕셔너리로
PHP에서
XML과
연관규칙
노력하고
##하시길
방법론이
케라스와
CNN과
Cloudformation
시뮬레이션과
Thumb
Things
다이어리를
응답을
##ACAC
오픈소스로
해석하고
##meter
연계된
##어진다
거래의
MVVM
움직임과
내비게이션을
커뮤니티와
Docker를
정규화의
습득한
원형으로
국가기술
페이스북을
신호와
강좌는
슬라이서로
슬라이서와
미니포트
노트북의
노트북으로
scale
컴파일러와
##시켜서
##시켜라
받아서
ESLint
호스트와
거리가
왜곡을
왜곡된
단원이
여부에
놀이와
되기도
바이오스
과목은
과목이
주입하기
Partial
Replay
ReactJS
share
shiny
대입하기
VPN의
담아내
for문을
Prep
경고를
크로스탭
크로스사이트
바라보고
부담이
다듬고
Redshift
one
나무를
비정상적인
증거수집
keyword
Logic
쓰이는가
설명해주는
감시하기
어드바이저
디테일을
바둑판
오프라인에서
일본어
실생활의
어댑티브
강사가
너비를
comput
TLS를
매일매일
실천하는
보장하는
가볍고
Policy
Functional
RGB와
macOS에
허브의
수평적
DIST
첨부하기
선물도
Assoc
Assignment
JDBC를
짚어주고
##keh
탈출하기
데몬셋
protected
임무를
에뮬레이션
Surprise
엄선한
심벌의
견고성
아키텍트가
Snort
학문적
커피숍
VSCode
두뇌와
indexing
Attack
그중에서
수단으로
배려한
ConfigMap
누군가는
SNE
활발한
요금제
Constant
reactstrap
궁금해하는
능동적으로
Encryption
Scala
정기적인
맞이하고
선도하는
진도표를
HashMap
helm
아빠가
단편화
LinearLayout
너무나도
FAST
transform
유행하는
인그레
##바이러스
args
머지않
SHA
외국인
유니버셜
callback
그로스
메타버스를
사업자등록번호
Debugging
알아보아요
Password
background
##utorial
모른다면
밀착형
너머의
##이야기
##드리겠습니다
Beanstalk
폭포수
mysq
러스트의
##책임자
##Interval
Business
전반부에서는
collect
세심하게
##ledge
오차역전파법
일기장
##하느냐에
잠그기
한권으로
깨끗한
DNSSEC
가까워질
drivers
기밀성
기쁨을
무관한
##Edit
Magic
##hopper
선진국
Safari
입맛에
##Loader
스팀잇
이른바
Numbers
진지하게
성향점수분석
무서운
프레이머
CodePipeline
전단지
흐릿하게
서바이버
둥글게
휴머노이드
에어비앤비
아이튠즈
다운로더
거미줄
##마케팅
작심삼일
겉핥기
끝판왕
Grasshopper
보로노이
Bacula
Kinesis
특잇값
##WEEN
A를
At
ADD
Aspect
Bag
BCD
Bound
C에서
Cub
Cei
Dr
Don
DIP
Driven
Emb
G마켓
Hex
JPG
Kal
LTS
MIPS
Nu
Natural
ODBC
PU
PG
Pur
Priv
Rib
Root
Sun
Tiny
UC
Val
Wide
WDK
WDM
Wipe
X축
ZAP
boolean
click
current
diff
fit
grant
iT
lg
queue
rest
sync
slice
sns
ui
vol
version
wir
가나
가세요
각국
갈증을
감춰
같아
개만
개최
거기
것만으로는
경비
공연
과잉
교구
구도를
권력
그를
그보다
김대
끼어
난제
남는
남성
내세
녀석
년은
노는
누르기
눈썹
답해
닿으면
대명
도사
도중
도둑
돈의
동양
동굴
되게
디벨
딸기
떼려야
러브
레슨
레스토
로토
말과
말미
맛보는
면에
모터를
모따기
몽키
무력
무릎
무리가
무제한
미스터
받으며
발신
발음
발돋
배시
버리는
병아리
보다는
본서
본서를
볼까
불을
비관
비츠
비순환
빈도를
산책
상탯
성립
세트로
세우는
셰프
소니
속하는
수반
수색
숲속
슈나
슬루
시기를
심오
쌍방향
쓰이나
쓰였다
아톰
안고
압력
액터를
약해
엑셈
연애
영우
영웅
오즈
외우기
욕망
워낙
웨딩
유머
유혹
은은
은폐
은퇴
이관
이노
읽는다
입면
재편
전염
절에서
접하기
정재
좋지만
주유
즉각
증상
지는
지평을
진화된
짜임
차곡
창과
책보다
책상에
초당
총서
축척
충전
치중
카드로
캐러
캠타
커지는
케빈
콘트롤
큐러닝
크립
키가
탱고
테트리스
토르
톤으로
통역
퇴사
트럼
트러스트
트렁크
파기
팬시
퍼스
펼치는
포지
폴라
플럭스
한줄
합류
해보면
향하는
호흡
홀드
화산
휴지
##포렌식
##준다면
##DT
##Demo
##Pie
##스마트
##cal
##의회
##이한
##이번
##이익
##이었던
##수험
##한테
##보그
##리스의
##리라고
##하곤
##로만
##서치는
##nn
##M의
##MA
##pend
##yder
##조의
##장벽
##파이어
##비법
##비트로
##bench
##가다
##가격
##가야
##Center
##에겐
##Node
##Boost
##시설
##OV
##링크로
##대장
##그니
##치가
##전달
##주지
##된다면
##신을
##일과
##인덱
##게이
##들로부터
##능한
##업계
##관리를
##두근
##엔지니어
##Hash
##상관
##레터
##색인
##융합
##글라스
##측정
##베르
##크기
##체가
##클리
##구역
##악한
##였다면
##플랫폼
##줘요
##쓰고
##십니다
##노출
##멘터리
##누스
##짓는
##박스의
##따라
##삼각형
##깁니다
##톨로지
##하기를
데이터필드
만들려고
##스트리얼
활용하려는
함수나
함수ㆍ
##inition
##ecycle
분석결과
##ortion
문제마다
학습서
알아둘
관리까지
이미터
도구에서
프로그램들을
다양하다
설치에
처리란
서비스하는
추가되었다
##anch
개념적으로
시작된다
시작되었다
게임하기
사용자도
사용자별
사용자들은
정리합니다
기초도
레이더
레이턴
입력하거나
입력받은
간단명료
##rew
##lometer
효과적이다
실무까지
실무자를
##eless
아이소
구축된
방식도
개발자까지
명령은
검색해
검색으로
Stan
##raft
모듈이란
조건절
제어하고
계산해
##레이티드
접근성을
그림에서
신경망이란
같은데
머신러닝에서
인터페이스에서
하나에
블록에
동작하기
아니에요
버전업
차트는
차트에서
모델링이
마이크로비트를
##riend
비교하며
종류별로
패키지가
패키지에서
##omm
보기와
참고서로
실전적인
예측한
이동할
처음이라면
사이를
사이보그
통합하여
대상과
탐색할
완성한다
트리로
트리에
연구해
Props
형식화
인간에
##ota
##uman
변화할
복잡도를
##ading
수정이
수정한다
메서드가
필수적이다
형태가
책에서도
싶은가
용어해설
논리의
수행을
수행하면서
수행과제
지원합니다
들어올
자연수
스크립트에
for와
포함되는
이상값
주제별
채널로
가능한지
캐릭터로
프로토콜지향
양자얽힘
##하라고
도커에
Rek
inline
기획안
쿼리로
수식에서
상황은
질문의
지능화
스파크는
스파크가
Colab
조작어
조작의
고려하라
내부적으로
포인터로
시험판
항목이
항목으로
어디일까
iframe
VR에
연동해
변형과
변형하고
대응했습니다
확률론
불러오기와
자유도
마스터를
DB의
요청이
프로그래머로서
개체로
conv
블로그에서
매크로의
정책에
##ifference
초보자부터
배워보고
ID와
도서와
도서명
등장하기
대표적
대표적으로
##ipy
번역한
기억해
기억과
성공과
##들과는
대부분이다
공개한다
마음은
일상과
일상적으로
취약점의
Adam
도와주고
인스턴스와
협업이
real
품질과
포인트컷
위젯으로
아이디어로
넘어갈
번호가
홈페이지에
지역의
부족해
부족함이
이후에는
관리자로
모의고사와
집중하고
편리해진
파라미터의
대비해야
심층적으로
##licit
SSO
것인가에
확대되고
Compress
##IDE
집필된
디스토피아
##거리가
드라이버와
자원과
##기술을
자기가
분포와
감지하는
감지하고
가상화와
추론과
then
일정에
일정관리
검출기
에이콘
정규화를
Enum
판매하는
기대와
기대할
섹션으로
Windows의
페이스북이
OpenCV로
스테이
애자일의
현대인
##DAO
RNN과
전공하는
전공하지
전공자가
제안하는
노트북에서
에이전트를
위협하는
훌륭하게
추정과
##시켜야
경사도
TextView
차이점과
미국에서
호스트의
Vision
다이어그램을
받기까지
단원을
키프레임으로
스위치와
SEARCH
EditText
버퍼를
버퍼와
달라집니다
하시는
시점의
철학자
jQuery의
부품과
시작해도
Reset
소비하기
주고자
직장인들이
정답과
케라스에서
복합적으로
느끼지
LAN과
오차의
리팩토링하기
타이머를
for문과
플러터가
부모와
Secure
바라볼
젠킨스에서
클리닉
가상현실을
파티클의
매니저를
가능성은
마이그레이션하기
마이그레이션하는
Reduce
놀라울
라즈베리파이를
가중치를
홍보물
라벨링
미치는지
사이언스의
##모델을
시행된
개정판으로
Recovery
##GAN의
바뀌어
있었어요
감시와
Princip
##gregate
Mask로
돌아온
포기하고
교환하기
상세페이지를
사람에게도
라이트룸을
보완하는
유의할
실질적
없애는
동향과
SELF
편향과
##ODE
compose
편의성을
리서치를
대회의
브랜드를
##ointer
selenium
창조적인
폴리시
트레이딩을
정규표현식으로
idf
매트랩
DHCPv
책인가요
코루틴을
부트스트래핑
Metal
TestNG
인재가
Animator
##ancer
TFX
Left
특이한
Generic
스펙을
개인정보보호법
parameter
주키퍼를
허용하기
IMDB
태블로를
response
생겨난
배웠습니다
의무적으로
끊임없는
노래를
컨슈머의
모서리가
##Controller의
나오면
빌더로
성격에
서브쿼리의
sizeof
쏟아지는
오해를
떠올릴
희망하는
DROP
숙지해야
##UTION
탑재된
Threading
PMD
Define
자율주행차의
보여주면서
Playback
TRIM
쌓아온
##clud
Remember
웹드라이버를
##aboratory
조종하기
output
반면에
Operators
초판이
regex
MCN
openFramework
##Reg
SqlClient
REPLACE
groupby
다이나모
급속도로
스카이프
이로써
TEXTJOIN
Terrain
손가락으로
Delay
벗어나는
Authentication
탄력적
취합하기
Radial
이직을
##좌표계
REDO
Reflection
##구현하기
##ognitive
Synchron
Syntax
basic
멘토가
디렉터리를
Balance로
게이머
매끄럽게
디펜스
Elect
공지사항
경찰청
Diagram
파운드리
내딛는
Cylinder
안타깝
친화적인
##논리회로
상호운용
LinkedList
Exposure로
tcp
관용구
신선한
크론잡
Generative
파파고
한곳에
비구조화
자판기
실리콘밸리
아름다움
Follow
Experience
Comprehend
AlexNet
치열한
##어드바이저
독창적인
캐스케이드
infopub
전자서명
프랑스
KoNLPy
Titles
카멜레온
칼라링
다큐멘터리
밑거름이
최후의
##위원회
pdf
Orchestrator
Raspberry
Vignette
형광펜
##포토샵
스머지
Repeater
Course
JPQL
불문하고
어시스트
##igmoid
무시무시한
메카트로닉스
UInterface
Kerberos
OPEN
두근두근
찬찬히
콘트라스트
틈틈이
Ceilometer
쓰이나요
캠타시아
##수험생
Alias
AUC
BM
Bind
Border
Ce
CVE
D모델링
Duplicate
Er
Epi
FP
Fly
Factory
Fashion
Garbage
GRAPH
HM
Header
Ipp
Iss
JAX
LU
Loc
LSA
Mc
MST
NA
Near
Pair
Q학습
Rule
So
Sal
SCSI
TA
Tuple
Toning
WAR
Wig
XY
XXE
Zip
core
cast
coding
da
dump
ejs
gp
gap
imp
iptables
lang
location
ms
ml
mp
mark
malloc
send
tanh
video
yum
간이
감이
갖습니다
개개
건물을
것들은
것들과
것일까요
겪어
결재
고난
고령
골든
공헌
공정한
과의
광자
구도와
군중
끝낸다
나비
난수를
날카
넓히는
네모
노벨
놀아
뇌가
다진다
단서
달의
달고
답은
당근
더한
데에는
데에도
데이크
도중에
도표를
되지요
뒤섞
듭니다
디스트럭처
라이터
러셀
레이드
리사
리퍼
리듀
리사이클
리파지토리
만을
많았습니다
매체를
먹방
메디
명언
묶어서
물의
미학
미사용
바보
바른
박자
밖에서
별점
보던
복권
본선
부활
부럽지
분은
불일치
붓으로
브런치
비네트
비모수
빅쿼리를
빈발
뼈대를
뿐입니다
생년
선두
선버스트
세는
셀러리
소거
손이
숲을
스매
시멘
실수의
심심
싱귤
안겨
안다면
알렉스
애스
약점을
양성을
오르
오즈의
온톨로지
옮기
와의
외형
용도의
워킹
원과
웹뷰
웹에서의
의인
이과
이토록
인포
인재로
인력이
인클루
인제스트
일인
일들
읽었던
있느냐
작가는
잘되는
장씩
전직
전에는
전세계
접하거나
정당
제퍼
제러미
종교
주면
주인
지양
진급
짐작
짐벌
집으로
짜기
쪽으로
차를
창으로
찾는다
채움
책이나
천만
초년생
카를
카트
카우치
카스파
캐드
커져
컨퍼런스
컴활
콜리전
쾌속
탄알
탈피
테일러
툴은
퍼소나
펼친
펼침
평판
폐업
포도
포아송
표제어
풀다
프림
프렌드
픽슬러
필라
필압
하부
하한
하락
한발
해본다
허니
호킹
화사
환상의
힙의
##부하
##부가
##졌을
##기둥
##어플
##De
##Dat
##Paint
##R과
##RI
##스넷
##Socket
##oul
##raction
##ias
##itives
##이도
##이버
##보도록
##리트
##하트
##하겠습니다
##로움
##서스
##ne
##ption
##ui
##파워
##ku
##Cap
##Call
##Cmdt
##에이
##드롬
##NUM
##dict
##TCP
##되다
##저자
##던스
##던트
##워드는
##일로
##Le
##들입니다
##픽스
##볼루
##볼륨
##습기
##회전
##분의
##했으니
##품이
##widget
##증강
##zier
##팀이
##급한
##실히
##임에도
##배경
##피를
##플레
##널드
##르노
##쓰는
##든다
##왔고
##뜨리는
##케이
##됐습니다
##됐으며
##렇게
##둥이
##새로운
##샬링
사용으로
사용하려는
사용하지만
데이터그램
데이터스토어
##tio
활용으로
기능들은
기능실습
##TED
기본이고
##inting
##info
개발로
개발되어
이해한다면
이해도가
분석방법
파일처리
구성됐다
문제들은
실습하다
##ars
코드들을
구현하고자
처리에서
디자인부터
코딩책
작성자
작성ㆍ
작성했다
추가되어
구조적인
알고리즘들을
시작하지
연습예제
인공지능에게
게임용
게임이나
게임개발
따라오
테스트란
사용자로
클래스나
선택지
언어학
언어로서
기초문제
확인하며
저장을
자동머신러닝
기반에서
정의하라
연습문제와
사람이라도
설계순서
실무에서의
실무자에게
##stack
##string
아이맥
구축이
해결하면서
패턴들을
모듈이
출력되는
중요해지는
지식이나
실제와
생각하여
생각했다
그림만
그림자를
사진이나
운영환경
##edit
특징의
분야도
분류할
직접적으로
경험도
저자도
##ison
배경은
속성이
확장이
동작원리
공부하지
버전관리
것이죠
것이므로
SQL이
모델링하는
##igin
이론들을
##라이프
##omb
참고하면
로그에
때문이죠
디지털로
미래와
컨테이너화된
윈도우즈
문법이나
Prof
##urate
##veal
IP에
유튜브나
##었다는
##umber
그래픽에서
##udo
공유기
추천을
좋은가
##adow
UI에
다운스트림
컴퓨팅적
##파일로
용어나
전문가용
수행되는
배치한
지원이
지원하지
사고로
인식해
인식에
인식할
들어오
발생한다
발생시켜
프리폼
산업기사
오디오의
Conf
슬라이드로
흐름은
진행을
중요한지를
##시키며
찾아낼
찾아보는
도구로서
다중선형
검증의
개선한
전환되는
의미론
이야기할
모니터링의
여러분만의
지금이
따라하기만
작동원리
##DB를
상황의
강화하는
에서도
계획이
계획하는
제시되어
날짜가
Colaboratory
##estamp
관심사를
단위를
비디오를
향상하는
##andle
연동한
코틀린이
안내하며
대응을
요청의
분할을
분할한다
자막이
Trigger
상속이란
특성상
서브젝트
서브프로그램
서브클래스
측정기준
어렵기
어렵다면
브라우저로
UX가
오버클
경로의
경로에
접속해
입출력의
배워도
배워요
Degree
도서이다
동기가
동기화와
이진검색
컬렉션에
궁금했던
궁금해요
시퀀싱
시퀀스의
루프에서
상품에
영화관
제공한다는
의존하지
##INO
##quency
조합한
조정하여
##지기도
병렬로
단축키는
OS에
구체적이고
수록하고
위험과
Show
익숙하다면
하이퍼링크로
레벨에서
JSON과
기출문제와
proxy
COVID
Java를
행동과
임베드
재귀의
튜닝하는
대비해
압축을
중복되는
해당한다
문장수집
Edges
복습한다
##orea
SSMS
나아가야
엔트리AI
자율성
캐시의
해야만
실력은
DAC
친구들을
검토와
주기적
주기억장치
자동차와
막대한
수치해석
파트의
##시스템의
시장이
##ibero
방법론에
생산성과
Plug
디스어셈블리
유효범위
대신하는
최종모의고사
타이틀을
그리드뷰
오픈소스를
랜덤한
예상됩니다
텍스처의
공학자
공학적
클릭하여
ML을
##생활을
출간되어
멤버에
가상화를
움직임에
있으면서도
체험을
그려보고
입문자나
종합하기
가변성
뉴스가
길이가
채팅하기
버그와
해답이
필요성에
스터디를
필요하다는
클러스터링을
클러스터링의
Object를
소리로
레이블과
##ounce
##주의적
키프레임의
본격실습
않아야
정보보호관리
에이전트와
독립된
Setup
조명의
콘솔에
채색하고
인터뷰ㆍ
doOn
느껴지
ROS와
직업은
오토인코더와
##tinct
Result
트렌드와
원인이
적용해볼
느끼며
자리에서
IDE를
chain
패러다임이
마크베이스
순간에
순간부터
순간에도
통찰력과
방어적
히스토그램을
LSTM과
부담감을
setter
되었는지
Neighb
놀라게
파드에
Workbook
증거를
keys
Logging
문화가
네임스페이스의
챕터에서는
블루프린트로
Azure를
체인과
최신기출문제로
원소의
원소에
요인을
프린팅을
인스타그램에
Recurrent
설명해준다
인코더를
필기시험
GraphX
있었는데
종속변수
댓글을
ADV
데이터프레임을
데이터프레임의
포기하게
독자에게도
mapping
일반인들도
다뤄봤지만
DCL
Forward
스케줄러를
코너에서는
##으로부터의
코로나보드
VPC의
어도비에서
부분합으로
침입차단
파이어베이스를
일괄적으로
바이트코드
재료를
byte
기여를
기여할
스플렁크를
CMake
Flux
Multiply
프로세싱의
분위기에
##Servlet
sequence
불안한
센터에서
색감의
uns
Pandas의
교사가
PostgreSQL의
DQN의
우리나라에서
우리나라에서도
지도학습과
Photom
정밀도와
순수한
TFL
넷플릭
스포이드
선별해
통과하는
대한민국의
스터디룸에서
지켜라
partial
SPAR
진입장벽
스파크라인으로
따라가면
소설을
마인크래프트로
생겨나고
Range로
Kotlin의
견고하게
바운티
당시에는
횟수만큼
Perf
Topology
보내드립니다
Operations
Blockchain
교통사고
도해로
요일별
스크레이핑하기
Area로
러시아
UTM
숙지하고
웹앱을
##ctor
필독서로
올려놓
Curvature
중국의
Clustering
상승장
장바구니에
마이데이터의
원래대로
Markdown
깨닫고
저술한
교육과정에
SRV
로보어드바이저
notepad
Bitmap
design
연쇄법칙
Publish
Builder
살아남을
마켓플레이스
축적된
아쉬움이
지름길을
근간을
근간이
쓰여진
초반에
양자컴퓨터를
가용성을
퀄리티를
오리엔
낯설고
디멘전
멈추고
대화상자를
특강을
릴레이션의
RDBMS의
가깝다
모른다는
외계인
실버분
Chroma
Prime
나름의
언더피팅
Integration
로드밸런서
Margin
반려동물
LIKE
신중하게
레퍼런스를
Progressive
Highlights로
##scribe
비효율적인
이내에
스카이박스
다행히
알짜배기
Actor
무수히
Loops
Stored
Tuning
임포팅
정칙화
인더스트리얼
SharedPreferences
엘릭서
SQS
Procedure
FMOD
세련되게
Posterize로
Fedora
TRUNC
구석구석
##PACES
Threshold로
BugCheck
세종도서
인플루언서
ANSI
세프봇
오래전부터
즐겨찾기에
도수분포표
COSPACES
이코노미
도깨비
웹크롤
Operating
월드와이드
재무제표
넘나들며
VDMML
elasticsearch
아메리
웨인라이트
발돋움
짜임새
캐러셀
Epilogue
데이크스트라
리사이클러
생년월
제퍼디
BC
BOM
BMP
Babel
CIS
Craw
CUR
Cognitive
Den
Dri
DDP
DEEP
Eval
Embed
F형
FT
Fior
GBM
Gym
Hold
Lib
Mi
MX
MZ
Mutable
Msg
OG
Of
PUT
RV
Rail
RQt
Remove
UAC
Va
XLS
YUM
buffer
cli
df
fire
gallery
j를
layout
mock
mail
mutable
move
nil
rc
ray
rad
vis
win
가라
갈무리
같지
개일
개씩
거실
걸림
것뿐
공대
광대역
구출
국립
권이
궤도
그들
그레인
그랜드
근육
기르고
기드라
김영
끌고
끝낸
끝없는
나이트
낙하
난생
남을
남의
남긴
내리
내성
내에서의
너의
높게
누나
눌렀
늘지
늘이기
능률
다다
다들
답할
대지
대여
덮어
돌리기
동떨어진
돼요
두드
드린다
딥페
딱지를
때를
띄어쓰기
래리
레버
로거
리피터
만의
말의
말랑
맛볼
머리에
먹는
모태
무렵
무효
무기로
묶는
미흡
미니어
민스키
반은
발췌
뱁믹스
번씩
볼라
불합격
비약
비싸
비틀기
빅쿼
상거래
셀룰
소외
소홀
소수를
속에는
손해
쉼터
스커트
스로틀
슬립
시본
시점을
시선으로
실망
십여
아동
아홉
암시
어쩔
얽혀
엔스케이프
여성의
여지가
역학
연대
염소
영양
예행
예습
오준
오고
오타
온디
옮기고
와치
왔고
웰컴
웹디자이너
윌리엄
음소
이집
이온
이뉴
일차원
일변량
읽다가
임상
임팩트
입법
잇기
있겠다
장황
재구축
저변
적목
적군
전지
전까지
전방향
접했을
제법
제로의
주름
주방
지어
지친
질을
쪽에
채울
첫인
초를
추첨
축을
취직
친밀
카톡
캐주얼
커즈와
컨볼루
케임
콤마
쿼드
통보
튀어나
특급
티셔
패배
포물
포이즈
폴백
플럼
피크
핀옵스
학사
학계
한도
한때
해보세요
했으며
호가
호응
회분에
흩어진
##포드
##부상
##차곡
##DNN
##Rem
##스런
##도형
##ster
##eyp
##SP
##S의
##llo
##coder
##over
##hn
##hing
##hell
##과도
##수에
##하긴
##하겠지만
##로퍼
##Main
##gen
##yy
##장으로
##모피
##비콘
##비싼
##bo
##가상
##에선
##함의
##Function
##름의
##표에
##BU
##Bee
##do
##원과
##으실
##으세요
##와는
##At
##AST
##법이
##사에
##판의
##주요
##저드
##던시
##게요
##었을까
##현상을
##세일
##관과
##외부
##마을
##상식
##색과
##미노
##입니까
##위한
##위버
##글링
##편에서는
##실제
##초에
##거의
##명이
##머레이션
##내어
##플러스
##셔서
##최적
##군요
##든가
##놓을
##향을
##슈탈
##창의
##알못
##패키
##패니언
##채팅
##접근
##접촉
##풀이
##하기로
데이터세
데이터플로우
##only
##스트레
이용자가
기본정보
개발도구
이해하여
이해되지
분석부터
분석해야
파일질라
문제집
##arial
학습자의
파이보
파이써
생성의
알아가는
코드형
기술서
기술들은
기술들에
예제만
예제들
구현으로
요약된
##aturate
소개되어
설치하지
그리다
디자인하라
작성합니다
작성되었다
시스템에서의
추가하면서
알고리즘인
사용하기도
사용하기에
살펴봐야
핵심이론
애플리케이션이나
선택하면
확인학습
보안관리
자동부호
변경자
변경으로
변경사항
정의서
##ing과
##mpt
설계는
설계에서
실무에서도
##elta
##stream
과정부터
아이리스
표현된
표현한다
##olt
제작은
구축하고자
해결하며
해결하고자
방식이다
API가
API에서
개발자로서의
검색이
Stock
마이클
만들어진다
##데이터의
##데이터베이스
모듈은
모듈화하기
가능성의
제어구조
시각과
지식부터
우리집
문자열은
그림도
사진은
동영상도
동영상이
특징입니다
분류해
표시하지
영역별
전문성
그래프에서
빅데이터분석
동작한다
동작시키기
공부의
버전까지
배포용
이론보다는
삭제한
패키지인
교육학
로그에서
실전처럼
부록에
##기능을
삽입하는
##aml
##했다가
이동한다
통합할
통합개발
바로잡
대상은
Inner
탐색하고
경우에도
Production
메뉴가
이름표
조절기
##vern
사용법이
이유에
이유이기도
##었다면
전체화면
좋은지
##ader
통신이
수정한
UIKit
크기도
형태대로
컴퓨팅이란
논리에
지원과
지원할
##unes
도전하고
유형이
범위는
기계로
강의에서
명령어들
주제도
진행된다
진행됩니다
전달력을
store
빌드할
발전하면서
발전시키기
IT를
차원과
역할의
재미에
차이와
쿼리에
멀티프로세싱
제품이나
작동하고
수식어
오픈프레임
질문들
계획하고
##thes
JShell
##esture
##lix
읽기에
외부의
시험문제
시험장에
if와
PCAP
연동되는
현실화
코틀린에
안내해
자유를
방향의
방향이
선언하고
보호와
보호조치
측정하자
도입부
도입의
도입이
console
영향에
초기화하는
##ife
UXer
경로로
바탕화면
가치에
컬러의
TCP의
결합을
결합도
샘플러
입출력장치
나누어서
시리즈입니다
풀어낸
풀어낸다
솔루션에
##리스타
Delegate
할당자
할당하는
패스란
##ffic
기억하세요
루프로
상품과
영화의
집합에
##sertion
링크의
구분자
조정해
##ensim
프레젠테이션과
프레젠테이션에
나타낸다
협업할
refl
revers
전자공학
업로드한
품질보
존재하는지
자료구조에
비전의
글자로
prom
한국에서
백업의
성장에
튜닝에
강화학습에
압축해서
WebDriver
아마추어
익스체
Compound
실력도
친구에게
Modifier
excel
Subject
유효하지
Themes
셰이더에
사물인터넷이
자원이
랜덤포레스트
자기만의
예상되는
순차적인
클릭을
내비게이터
스칼라로
GAN과
풍부하고
핸들로
NODE
문헌과
뛰어나
자격을
참여를
참여하고
액티비티에서
만화의
만화가
Blink
제네레이터
스위프트에서
교과목
소통이
글꼴은
기대치
개수가
섹션을
충돌과
투자하는
##perties
기울여
보드의
애자일은
##aching
모습일까
screen
추정하는
캡처하여
커맨드를
컴파일러에
바인딩을
##efault
받아야
만큼의
활용법까지
마이닝과
결과물로
단원정리
프로토타입의
프로토타입과
SEC
질의하기
되기까지
워크시트에
퍼셉트론으로
방화벽을
방화벽과
콘솔을
프로시저의
클로즈
느껴진다
직업으로
편집기에서
제어문의
소비자가
악성코드의
직장인이라면
##eshark
PROCESS
알파고를
풀이에
다가온
조립하는
탐구하고
호환되는
호환성을
노션에
케이스를
NETWOR
갖추는
증명서
플러터로
Seaborn
포스트잇
해커와
##컴퓨터교육
넘파이와
상용구
드라이브의
사라지게
마이그레이션을
드롭박스
Current
Worker
포드에
높아진
챕터로
쓰이는지
Bezier
경영학
평면에
한국어로
다형성을
실현하기
적응하기
바꿔서
스크롤되는
물체에
포레스트를
드론을
구간에
돌아왔다
입장을
일반인이
무작위성
대중교통
리스폰
최소한으로
##Chart
##Channel
드래그로
보완하고
않았을
유의점
책과는
그동안의
env
본질에
서술하고
튜링은
사람들에게는
비전공자나
##ship
Lambda의
Options로
Protection
블루프린트에서
정보보안의
##pdump
대회에서
몽고디비
##작업을
노이즈를
벗어나지
macOS에서
matrix
근사한
Collider
##NCY
텐서플로우에
해소해
매뉴얼을
##tifier
주인공과
지루할
난이도별
logging
거짓을
파이프라이닝
기관에서
선물하기
용이하게
expression
폭발적인
아티스트들이
의식과
##Spark
정상성
장부터는
엔진엑스를
가르쳐주는
내역을
화상회의
##사례를
partition
프라이버시를
진입점
집단의
지구를
RxJava를
나이와
이산화
한정자
박사가
명세를
어플리케이션의
구입하기
보편화
나라에서
렌즈의
지오코딩
Perl
발휘하는
애드센스
정체성을
옵티컬
쏟아진
파생상품
오해와
##OWER
절약하는
리턴하는
images
희망을
재밌고
가족과
GRUB
##Module
##eek
MEDI
##MCU
SCM
개방형
쉐이더를
DMVPN
불편한
Callback
고도몰
##versarial
키샷의
##Token
help
MCMC
multiprocessing
Constraints
아티팩토리
모호성
Circular
불가피
축적한
물리학자
OFF
##Result
텐서보드를
arguments
Deli
분량으로
##스토밍
비판적
Normalization
##저장소
EntityManager
깨달음
친근하게
세미나
Buffered
단단한
터득할
skip
Byte
밀접하게
아끼는
임계값
Flooding
types
소식이
손상된
올리세요
주위의
노멀맵
해상도와
드물다
신기한
Robot
##FORM
영진닷컴이
즐거워진다
발맞추어
입출금
집필진은
Extended
세일즈
flexbox
불완전한
청구서
트레이너
##eiver
CubeMX
##cclusion
흔들림을
완주할
멀티플렉서
Divide
급격히
방과후
중재자
WiringPi
파라메트릭
statsmod
Naive
urllib
동그라미
DOF
맞췄다
이르렀다
Composite
Schedule
듀오톤으로
독보적인
보행자
스웨거
##Address
debug
HEADER
결괏값
Diffuse
가계부
앞다투어
일체형
컴프레서
Wheels
neural
마땅한
알라딘
부적절한
Temporal
미사일
지저분한
청첩장
개정증보판
갤럭시
몽환적인
신디사이저
주안점을
아이무비
스트로크
국가기술자격
computed
레스토랑
차곡차곡
Issue
디스트럭처링
시멘틱
ADVANCE
Fiori
MsgBox
딥페이크
셀룰러
이뉴머레이션
컨볼루셔널
티셔츠
포이즈닝
##모피즘
오픈프레임웍스
MEDIAN
AM
Aff
CID
Coun
Clock
Dock
Duck
Drum
ERP
EAD
Every
Employee
GB
Have
Histogram
IKE
JNI
Jump
Kine
LW
Lite
Lift
MY
Mos
MIME
Naver
OT
PV
PY
PID
QEM
Rig
Rally
SON
SBT
SORT
TC
Tink
Tables
Tibero
Vagrant
Widget
Wood
Zag
can
cross
early
flo
flow
gcc
kernel
keyp
look
language
lazy
mo
man
mut
ora
pull
road
routes
su
te
watch
x와
가감
가트
가습기
거두
거죠
건의
것만으로
격려
결승
고리
고지
고개
관객
광역
광섬
괴델
괴롭
구루
군사
규범
그립
그외
그걸
그밖에
금요일
기가
깨지지
꺼짐
꺼내기
끝났을
남기
낱말
낱낱
넓힐
네가
농도
뇌에
눈의
눈동
다르기
대전
대개
더구나
델리게이션
동아리
득점
들지
듯하다
디저
딛게
딥블루
뜯어보기
뜻을
만보기
말한
맡고
매트로
매터리얼
모티브
무손실
문해
문턱
문에서
뮤테이션
미치
믿는
밀려
밝기를
밤샘
방에
방명
방정식을
번은
법령
변할
보더라도
보낸다
보이도록
복셀
본연의
봉인
부속
부프로그램
분담
비결정
비접촉
빈스
뿌리를
상한
색공간
생깁니다
섀도
서랍
선글라스
센티
소용
손코딩
시도가
신의
싶다는
아다
아틀
아픈
않음
알리고
앞의
앨리어스
야외
야마
양면
언박싱
여년
여럿
역순
연말
연혁
열과
염기
염려
예견
오용
오너
오리지
웹퍼
웹엘
웹훅
위장
유투
유창
육각형
은메달
의지를
이길
이겨
인출
인턴
인자와
일방향
임대
잊혀
자발
자비스
자사의
장평
재할당
저서
정면
조지
조화를
주최
주얼리
죽은
줌을
중등
지휘
지분
집안
착수
참과
찾으려면
책이라는
철자
체어
초전도
추려
축제
출장
출생
출퇴근
캐니
캐리커
캠핑
커터
컬링
컴패니언
코렉션
큐빗
타사
탈바꿈
택배
탱크
투과
틀에
파도
파나
파급
파편
팬데믹
펜을
평화
폭이
폰맹
표식
피날
필렛
핑퐁
하얀
함양
햄버거
행간
행맨
행성의
허물
혐오
협의
화일
화염
환자의
힘내
##포럼
##감기
##다이어
##어떤
##Ve
##Vol
##DSL
##스드
##스루
##script
##oser
##ren
##이치
##수는
##보스
##보려는
##보아야
##리먼트
##하드
##더니
##na
##MIT
##EN
##조회
##uit
##uation
##비아
##비는
##bra
##함께
##mount
##d를
##div
##시작
##시고
##되지는
##래픽
##와이어
##문에
##진이
##진다면
##공격
##방침
##주며
##고도
##나가고
##신청
##일러스트
##인에
##인원
##인자
##니얼
##세팅
##업의
##카와
##점으로
##회계
##외한
##오리
##길이
##마의
##코아
##코드는
##코리아
##레라
##우리
##우지
##탈출
##베이크
##히면
##편향
##크라
##체크
##영업
##목표
##담당
##았어요
##단의
##단순
##브레인
##토폴로지
##족의
##백과
##협의회
##피티
##피엔
##재귀
##테면
##YPE
##창출
##걸이
##폴리스
##멀티
##됐던
##셋과
##렸던
##믹서
##특별
##특정
사용되어
사용되지
사용한다면
사용하나
데이터통신
프로는
##onfig
활용하면서
활용되는지
##teral
이용하자
##inbra
분석에서는
파일도
구성되었으며
문제들과
모델들을
설명하지만
학습하다
학습하고자
학습함으로써
##eness
알아맞
관리하자
구현체
도구나
##atest
설치해서
이미지도
##letion
작성하면
실행시간
실행시키는
개념들은
구조란
구조화하는
적용하려는
작업자
시작하라
시작시키기
연습하고
파이썬인가
파이썬이나
핵심점검
##asure
##까지를
##allet
선택한다
언어별
언어이기
언어로서의
컴퓨터처럼
기초통계
확인합니다
확인하면서
확인하라
서버란
편집기를
기반해
간단하면서도
##이브로
연결주의
단계마다
효과주기
사람까지
자바나
APEX
APOC
##elt
클라우드란
독자들
준비학습
아이에게
표현되는
##oles
##icorn
구축해야
소프트웨어란
프레넬
프레퍼런스
응용분야
만들어가는
모듈에서
변환으로
계산한다
출력물
반복하고
사용하는지를
##레이저
우리와
생각으로
접근해
신경망은
사진가의
분야인
분류하여
표시장치
프레임과
확장에
확장현실
동작하도록
공부도
공부로
공부합니다
시각화는
##riting
참고해서
교육에서
교육으로
관계로
관계된
입문에
이동하여
##ubble
사이먼
사항의
디지털포렌식
트리란
트리에서의
연구에서
플랫폼에서의
IPT
공격자의
회귀에서
그래픽스의
스트립
##adcast
리눅스용
리눅스마스터
위치가
컴퓨팅사고
논리적이고
순서도를
기업으로
합성의
AWS는
단순하지만
자세를
플러딩
강의의
Condition
Converter
채널아트
HTML로
자동화가
클라이언트로
움직이도록
찾아보세요
무엇인가를
##used
주소가
차원을
차원이
대화에
##istence
복사본
복사로
기획자와
기획자는
멀티터치
재생성
비트베이크
작동할
Spread
호출할
상황입니다
훈련하고
러닝으로
이를테면
워크벤
관심있는
디자이너라면
읽기만
비즈니스와
향상할
사회는
온라인에
항목과
파악하라
태그에
현실입니다
##트리얼
보고서에서
역사의
회사들이
확률밀도
인프런
활동으로
그러면서
버튼이
다시금
마스터하고
마스터한다
##izz
부트캠
컴파일하고
보호를
보호대책
Chef
대해서만
미디어와
접속할
최대값과
읽어보면
배워볼
반응하기
사운드의
타임랩스
풀어보고
풀어내는
완전정복
등장하면서
할당을
회전을
기록한
기록할
궁금하다면
제한하는
추적을
추적하고
정도만
교재와
웹사이트가
고민에
레시피는
포트란
필터링의
조합하는
스스로의
구분해서
##head
식별자의
Go에서
OS와
OS에서
수록한
컨트롤러에
생활이
업로드하고
NodeMCU
Shop
강조할
집계를
존재의
사실과
##된다고
얼굴이
활성화와
넘어가고
시퀀스에
디스크와
백업하고
집중하는
튜닝과
##ABASE
미션이
회원정보
이메일과
자율적
아두이노에
제약이
테마로
제목이
알림창
딕셔너리에서
맞추었다
금융에서
Transport
extern
PHP는
파트에
CPU를
머리가
시계열을
대시보드의
시뮬레이션의
장면의
인물사진
해석과
해석할
텍스처와
공학과
감지와
연속적
멤버를
경쟁에서
##ugment
참여자
OpenCL
자르기와
Docker의
역량은
역량에
판매하기
판매지수
습득해야
##컴퓨터의
기대를
페이스북은
Keying
그것의
투명도를
만나보자
투자자
스키머
보드에
HelloWorld
미니맥스
제안합니다
모습이
에이전시
##rados
구매를
바인딩과
데브렐
받아오기
##되었기
담당자에게
레이블의
스키마와
단원별
있어야만
기간의
기간이
바이러
철학의
android
프록시의
방안에
Phase
타입스크립트와
이더리움과
직장인의
연출을
Listener
메커니즘과
역전파를
다가가기
어린이들의
소스코드의
수립과
메트릭스
shift
##asso
BIOS
고유벡터
스프레드시트로
구현해봅니다
일래스틱서치와
가상현실의
AVX
유저가
##연구원
가득합니다
##alett
Only
StringBuilder
getter
리더보드
MongoDB에
사랑의
세대가
다섯째마당
체인을
나머지는
현상이
Displ
프로크리에이트로
적재하기
분석가를
어드민
원근법
픽셀과
액터와
걱정은
JSP를
게이트웨이와
##되기까지
##Prot
##Prop
Tele
##과정에서
익숙해지는
익숙해지도록
풍경을
하나하나를
취득할
enc
ent
##도서관
UserDetails
펼쳐지는
SELinux
VPC와
엘리먼트를
엘리먼트에
분들에게도
부분합의
ELMo
정제하기
브랜드의
보장하기
SSH로
패키징과
while문의
헤드라인
GroupBy
근사해
정부는
꾸준하게
AngularJS
Overl
눈높이를
바람이
아름답
인정받
Scale로
일상생활에
극대화하는
인벤터와
선물로
스토리텔링의
SMALL
notice
지점별
유닛의
##산업기사
보관함
시그널을
가르쳐야
발달과
마주치는
DeepD
분들이라면
JSX를
RStudio에서
기다려
코더가
지적한다
UEFI
기원합니다
생겨날
배웠지만
비헤이비어로
어플리케이션을
산출하기
구역으로
원자성
Tween
functions
윤곽선의
일으킬
왓슨의
Period
Attributes
뽑아내기
##vised
Monitoring
떠오르고
누군가의
물어볼
Relational
imm
Streams
OneNote
Distortion
신기술을
탑재한
명령행에서
JWT를
Agents
Asyncio
##ributed
진실을
파인드
휴대폰을
두께를
직면하는
불편함이
##config
반환값이
들려준다
마운트하기
열정과
통계분석을
학술부문
이기적in
CTF
MPLS
prev
이스티오를
그루핑
방해하는
Health
NEO
RestTemplate
회분과
말풍선으로
배깅과
흥미진진
심리적
각광받는
##Resolver
Termin
돌파구
느낀다
끌어올리기
Navigator
미리캔버
OKD
받아들이고
Cookie
##벡터머신
distinct
sqlmap
생긴다
PCIe
WiFi
조심해야
About
Abstract
오디션과
디렉터리에
플레이스토어
SYN
database
차분히
Instant
등장인물의
Types
멈춰있는
Serialization
Robo
그녀의
메이크업
HOG
Simulation
키우세요
대단히
쉐이프의
##Comm
SOLUTION
BOOK
고윳값과
BSP
어르신들을
스무드
베이그런
Glance
전시회
Audition
깨끗하게
Jetpack
psd
Schema
##베이직
아기자기
NUMBER
화장품
화장실
security
generator
소문난
##Android
나뉘어
넓어지고
OpenVAS
어색한
##voke
Trello
twinbra
마일스톤
한컴오피스
자습서
Quality
Fresco
품평과
##notation
sklearn을
Semantic
바닷속
점근적
직급별
##dicate
Horizon
DATABASE
부등식
영원히
SharePoint
Torus
막힘없이
##컨설팅
스켈레톤
구애받지
어카운트
연예인
참신한
Landscape
pickle
원숭이
instanceof
Discovery
TypedArray
Hierarchical
pyplot
대표이사
패킷트레이서
회색조로
이공계
초단기
파이스파크
휴지통
Rekognition
##cludes
SRVCTL
오리엔테이션
DDPG
볼라틸리티
커즈와일
케임브리지
##스트레인트
QEMU
가트너
방명록
빈스톡
웹엘리먼트
피날레
twinbraid
AOS
BDD
Blog
C로
CB
CY
CDB
Du
D에서
Dod
Dot
Dual
DATA
Drag
Email
EDU
Fun
Fork
FIN
Fib
Fail
Faster
Green
GPG
GARCH
GMM
HDD
IRP
IaC
JIR
KT
KOD
LD
Lu
Lin
Lazy
Mut
Mach
NC
N개
NAC
NIC
NIST
Named
Occlusion
Pay
PAM
RH
RAD
Rich
Sav
SATA
Sorter
TM
Toggle
Touch
UWP
VIR
Xml
XAML
Zu
alert
client
drop
echo
fo
fill
factor
high
pt
port
padding
qna
ret
sent
sep
simple
tail
tech
train
toggle
가자
각인
각자가
간트
감당
갑작
값비싼
강국
강렬한
걸음을
겁먹
것들에
게터
게이지
게슈탈
결손
경력이
고흐
고심
고갈
공리
관성
교대
국외
국영
권말
귀엽
글은
글맵
긁어
급부상
기즈
길도
까지는
꾸몄
꿈과
날마다
남편
내어쓰기
넣어서
노련
노후
놓치고
뇌는
누출
누름
뉴스와
다리를
단자
더더
던진다
덮을
데다
데려
도모
도청
도킹
도쿄
돌고
동생
동역학
되자
들은
따르고
또렷
라그
라플
래빗
로서
로저
리타
마젠
만만한
맛을
맞물
매스
명은
모으면
몸소
못하도록
못해도
몽타
무어
무장한
묶은
문외한
물품
미친다
미생물
민원
배당
밸리데이션
범용성
베이크
변해
별다른
보컬
보물을
부연
북한
분투
분권
분기와
불투명한
블라
빠뜨
뿌리
사선
사야
살게
삼고
삼중
상장
상향
선제
섭렵
세운
셀이
셀렉션
셸에서
소송
소양이
손꼽
송ㆍ
수영
순찰
숨기는
스래
슬랩
승차
신화
실물
싸이
쌍의
써도
씬의
아라
아담
않으므로
앞두고
액정
앤트
앤하우스
양도
어릴
어찌
어딘
어렸을
얻지
업리프트
없겠지만
없으므로
여론
연못
열차
영재
예보
예쁘
예컨대
오일
온도를
와플
외벽
요리를
우드
우유
울먼
원서의
웹로그
위글
유아
은유
이의
이면
이긴
이걸
이라면
이차원
이레이저
인어
인조
인권
일간
일부터
읽게
읽히는
입고
자문
잔액
잘하려면
재개
적혀
적의
적금
전해
전가
전류
전등
접지
정한다
조달
존중
죽을
줄기
증설
지성
지극
지났
직위
진부
쫓아
차에
찾기를
채운
책들을
책정의
챕터를
처치
천문
청사진
체육
총괄
추후
캐피
캔들
캡스톤
커졌다
코트
큐오
키에
키잉
탈퇴
터지는
톨러
톱니
투어
튕기기
특공
틀리는
틀리지
팅커캐드
팔의
팝아트
패들
패밀
펜로
편하고
편이다
포렌
폭과
풀며
피터
피클
피연산자
핑거
하니
한양
한달
합성을
합치는
핫키
항등
해를
해온
흔치
흰색을
힘과
##포자
##포스트
##부에서
##기자
##Det
##Doc
##Pref
##PORT
##Phone
##Run
##Rev
##RAY
##스에서
##져요
##stic
##sys
##ilog
##이름
##이웃
##열을
##수익
##아보기
##보드는
##보시기
##리우드
##리면서
##ni
##nap
##MF
##part
##pad
##pting
##prop
##ged
##면체
##파스
##kes
##Car
##Case
##드릴
##드린다
##간다면
##NET
##BACK
##형식
##원이
##지정하기
##직원
##대가
##대에
##래도
##XX
##xl
##자로서
##공간의
##주를
##저자는
##I를
##IAL
##Impl
##Gener
##적이라고
##인력
##ㆍ증강
##L을
##Wh
##Write
##제목
##관이
##분리
##두로
##두면
##두었습니다
##했듯이
##HP
##강좌
##매매
##write
##러진
##블로그
##말랑
##퀴드
##실론
##겠지요
##단어
##브라
##유럽
##유니티
##바의
##바지
##렉터를
##랜딩
##재산권
##널리티
##팡팡
##테리얼
##르며
##애니
##률과
##율이
##온도
##센서를
##착형
##알앤
##패치
##박사
##삭제
##밖의
##쌓기
##띄우기
데이터나
##eriv
##ona
##스트링
함수만
기능적인
이용하지
기본문제
개발하며
개발하려는
분석하면서
##orator
파일만
파일들
구성하였
구성했고
실습한
설명부터
설명대로
학습전략을
파이게임
관리되는
기술적으로
프로그래밍까지
구현되어
구현하는지
요약한
도구도
도구들은
소개해요
설치가
설치한다
내용인
내용점검
처리용
그리스
그리자
이미지나
코딩공략
작성되어
작성해본다
시스템이다
시스템이나
서비스도
서비스입니다
추가하거나
추가되었습니다
추가됐다
##anic
개념에서
개념적인
적용되는지
작업물을
작업공간
게임까지
게임에서의
##asting
환경인
따라만
따라서는
문자나
문자셋
선택적으로
언어라고
언어와의
기초적
서버나
다루거나
편집해
##eta
제공되고
기반과
변경하지
변경되었습니다
##reens
위해선
연결한
연결될
단계적인
단계입니다
사람부터
APP
##stone
준비한다
자료들은
표현하라
제작법
해결하는지
관련자료
개발자들
프레지
스마트자동차
요소다
응용이
페이지만
만들어낸다
문서가
문서편집
가능해진
조건은
배우기에
배우려고
변환에
스프레이
그리기와
생각하라
그림들을
사진편집
운영해
결과만
분야다
분야이다
저자이자
##eptr
하나이다
레이어가
확장한
소스파일
빅데이터란
공부하게
스프링이
아키텍처란
SQL이란
가상ㆍ증강
##agination
모델링부터
이론이나
시각화한
메모지
삭제를
입문부터
##amera
##amAV
예측이
사이퍼
대상에서
세계로의
디지털과
최적화할
컨테이너란
컨테이너화
##ili
##ila
평가한다
##uring
조절할
##vey
수집부터
추출한다
추출해서
수학이나
스마트폰용
자신도
추천과
복잡성과
프레임워크다
수정사항
시대와
UI블록
UITable
위치기반
숫자는
모두에
용어만
요구와
인증서를
##une
표준입력
들어본
들어온
기업에서는
자연과학
##STR
스크립트는
스크립트가
발생하지
AWS로
단순선형
서식의
포함했다
기계에게
산업별
Conc
주제다
스토리의
목표다
저장하기와
전달력
발전시키고
마이크로서비스란
초기의
개인키
찾아가기
리액션
양자텔레
상세화
키워요
등록을
대화가
전환한다
복사할
이야기들을
결정과
기획에
텐서곱
지금과
작동을
질문이
질문해도
제시하기
제시했다
제시함으로써
이제까지
##ther
파워블로
가이드와
조작해
알아야만
비디오에
VR과
책이며
플러그인은
학생은
학생에게
역사에
회사원
회사와
확률은
확률로
과제가
과제에
인쇄하는
##ending
업데이트가
유지관리
키워드가
단축하기
컴파일된
서브플롯
측정을
도입과
도입으로
도입하려는
평균의
어렵거나
하이레벨
##ifi
UX에
스레드가
스레드에서
가치함수
최소화하는
접속해서
##ORY
운영체제는
장점입니다
Dataflow
커널에
이어지고
솔루션과
솔루션인
PySpark
Sera의
구문에
비동기와
안전성을
조직은
기록과
정도면
현장에서는
ARCH
성공으로
카프카에서
의존하는
쓰기와
##query
##quential
조정을
Apps
강력해진
관점이
식별자와
Go로
Good
구체화하기
나타나고
협업과
##ithme
깊이가
실용성
품질에
익숙해야
하이퍼미디어
사실입니다
IoT와
번호나
알파스타
모형에
비용의
전반에서
체크할
REST와
Tool을
집중합니다
복구하는
##관리자
파라미터화
압축된
복습하는
한계는
본문에서는
축소를
트랙에서
테크닉과
테크닉까지
포맷에
스피어
광고의
업그레이드를
드로잉과
LED와
산업혁명이
캐시와
GUI로
Complet
작품들을
가진다
맞춰져
집필하게
집필되었다
집필되었습니다
공식적인
대시보드로
맞추었습니다
금융에
진화의
진화할
exit
example
PHP로
Subversion
Subdiv
플레이어에게
자체로
노력은
노력의
비밀노트
생산하는
생산성이
Projects
출제되고
대신해
자기주도
##area
페이스를
중급편
출간되었습니다
수익화
교차점
카카오뱅크
정수로
##ersc
역량과
태스크의
차근히
상상하기
소통하며
기대된다
기회는
어려움과
Windows에서
페이스북에
Keylight
제네릭과
인지하는
혼합형
리터치
쇼핑몰의
##outine
소켓의
워크플로를
산술연산자
가공을
마이크로소프트에서
swap
법칙과
감정이
라인에서
라인으로
스티키
지표로
결과물은
익혀서
재사용을
##ITY
##ITCH
트래픽의
고정관
일이면
정보보호의
독립적
주목하는
퍼셉트론과
가입하고
Film
복원하고
모음의
스케줄링과
프린터는
대규모의
오토인코더의
프록시를
##PTION
주입식
Phone
ListBox
어린이들은
Light의
확보와
비슷하다
shadow
하루만에
합격에
Desaturate
Preference
아이폰과
방어를
매칭하기
포스트를
넘파이의
##ikube
Mocha
NCS능력
애널리스트
백엔드와
균형감
숨기기와
자율주행자동차
StringBuffer
버스에
콜백을
구동하는
홍보용
Login
네임스페이스를
세대를
Transformation
멀티미디어와
개정판을
개정판이
사이드카
서울대학교
예술을
실현할
프로크리에이트를
과학자들이
감시자
돌아갈
건축가
시도하고
제이쿼리를
게이트웨이를
라이트룸과
리스코프
불가능하다
트위터에
Skill
창출을
Angle
캡슐화와
이력관리
if문과
Notion의
우리나라도
대회를
친숙하고
엔터티를
작용하는
기여하는
독자들에게도
개발자에게는
라이팅과
극복할
##Server
Collision
텐서플로우를
시청자가
해결해주는
##illis
난이도별로
GitHub의
글씨팡팡
바람이다
오케스트레이터
초대합니다
union
정보통신망
프로파일링하기
Pandas를
인트로스펙
일상생활의
건물의
좌우한다
정밀하게
탐험하기
패브릭의
이뤄지고
##bserve
에셋을
##ancing
양자컴퓨터에
초등학생도
초등학생들이
요령을
##Spy
SVM을
근거로
년대에
공백을
샌드위치
맥락에서
마주하는
parse
IMDb
로우레벨
##조차도
인사하는
트랜스포머의
페이팔
과적합을
##TTT
확신이
로드맵을
막연히
페이드인
암호화폐를
바다를
예방하는
프리셋으로
Snow
높이고자
활약하고
전부를
##랜드의
overloading
비활성
능숙한
성격을
성격과
webpack
경력의
라디오버튼
파생변수
떠오른
재정의하기
미세먼지의
경사하강법의
커리큘럼에
전산직
Artboard
Defense
솔리디티의
GridView
알려주지
괜찮습니다
애노테이션을
GCP의
보통의
소품을
명시적인
배색과
직면할
발사체
발사하기
원래의
혼란을
##rypto
바뀐다
항공기
넘어가야
파고들어
##blem
개괄적으로
Slider
길벗알앤
문구를
ClamAV
##지원센터
프랙티스를
살아남는
Stretch
LINQ를
컴퓨터과학의
Manila
Volati
각광을
명칭과
답답하거나
Emscript
벗어날
Engineering
MODE
편견을
받아들이기
큐브맵
TypeScript의
동반자
깨달을
Clova
display
키로거
브라켓
접해본
##플렉서
Workspaces
bootmem
delay
perf
워드프레스를
명료한
Floor
Verilog
올리면
Lifecycle
Square
해상도가
##EMA
효과적입니다
Install
교착상태
기자재
QUIC
치트시트
홀로그래픽
당황하지
collection
놀랍게도
대단한
유망한
웨이브폼
##QUENCY
Anchors
번쯤은
##Output
direct
느슨하게
ㆍㆍㆍㆍㆍㆍㆍㆍㆍㆍㆍㆍㆍㆍㆍㆍㆍㆍㆍㆍㆍㆍㆍㆍㆍㆍㆍㆍㆍㆍㆍㆍㆍㆍㆍㆍㆍㆍㆍㆍㆍㆍㆍㆍㆍㆍㆍㆍㆍ
QUOT
TTY
꿰뚫어
TPR
번거로운
binary
랜드마크
Movie
AVERAGEIFS
##Record
문제풀이
문제풀면서
엔디안
GloVe
이곳에서
VHDL
자꾸만
브루트
##스피어
접어들
extend
Frequency
성형하기
시스인터
undefined
고마운
레지스트리에
FBX
variant
자기부호화기
스레드로
점화식
##Attribute
관통하는
드림위버
아인슈타
이퀄라이저
테슬라
바이어스
ROLLUP
테그마크는
Integrated
left
접두사
FREQUENCY
메트로폴리스
학습만화
Inventor
Multicast
Casc
딜리버리
OpsWorks
Sharding
Computational
DEVICE
tensorflow
ㆍ요약정리
마티네
커먼즈
##개정판
어마어마한
JdbcTemplate
기발한
꽂아두고
NuGet
디벨로퍼
심오한
크립토
홀드아웃
Compressor
스매싱
싱귤래
카를로
필라멘트
##widgets
OGQ
말랑말랑
빅데이터분석기사
reversed
품질보증
NETWORKDAY
##컴퓨터교육협의회
CIDR
KineMaster
낱낱이
Zuul
라그랑
송ㆍ수신
인어공
큐오럼
포렌식을
##eptron
양자텔레포테이션
NCS능력단위
길벗알앤디의
Emscripten
Am
ADB
Ali
Augment
BT
BG
Boo
Band
BLO
Coin
Caff
Fog
FAT
FFT
Front
Gn
Gram
GCE
GAME
HOME
Joint
KNI
Klover
Lasso
Must
Medium
Music
Ni
Ng
N잡
ONN
Outer
Observer
PO
PMI
Palett
Ring
Ramp
Shap
Sier
Sense
SASS
Testing
VGA
Your
Youtube
atom
ban
cb
cloud
clock
dash
eX
element
hot
hex
iss
klover
lower
more
message
native
observe
rand
round
sur
summ
slicing
tag
testing
telnet
vim
x에서
yaml
ㆍ연습문제
ㆍ엔트리
가서
가파
가젯
가나다
각국의
간직
간절
갈아
갖지
같았다
갤러
거품
거칠
거라는
걸고
것임을
겨우
견해
겹치는
경감
계기로
고백
고군
고스트
골고
공원
공시
공감을
광양자
구한
구형
권과
권마다
권리를
귀를
근로
글리
글루
기한
기성
기말
기재
김용
김성
깁스
꿀벌
끝점
끝맺
남길
낮춰
냅킨
넘버스
넣으면
노리는
논증
놓칠
놓았습니다
뉴미디어
단조
단행
단시간에
달달
달걀
담화
대포
도무
되겠지만
둘을
뒤처
드라이
듬뿍
때다
떼기
띄게
라소
랩뷰
런던
로비
롬복
루메트리
리그
리처
리워드는
리토폴로지
마야
마코프
막힐
만다
만났
매월
맥과
맵에
멀미
명실
명예
모순
모쪼록
몸의
못하시는
무상태
문이
미스
미치고
바꿨
박쥐
받침
받았습니다
발짝
배후
배칭
백지
뱅킹
버저닝
번쩍
법정
법인
법적인
벚꽃
보탬
보였다
보겠습니다
복리
복지
복소
북유럽
불리
불만
불순
불쾌
불여일
붙어
붙일
뷰에서
브릭
비콘
비치는
비저장
비틀어
뿌옇
사법
사유
상충
섀넌
선인
설레
성찰
성패
섹터
셸과
수락
순서는
스핑
스코
스미
스포트
슬래시
시겔
신상
신나고
실재
십분
쓰면서
쓰기를
아키
아쉽
안되는
알수록
앱바
앱들을
앱이나
엄지
업비트
없었
에드
에일
엔비
여정의
여개의
연료
열림
올립니다
옮길
운명
원기둥
월요일
웹이란
웹마스터
위기를
유량
융통
은하
이은
이스
이원
일례
잇는
있지는
자의
자영업
장담
장만으로도
잦은
재구
재배
재설계
재실행
전년
전적으로
전화를
점수와
제트
제정
제프리
조시
조치를
주역
주어지는
줄이
줌의
중ㆍ고
증진
지레
지폐
지리학
직선의
질량
질서를
집값
차수
찰스
초상
총계
추격
충성
치즈
치킨
캐나다
코페
큰따옴표
키패드
태극
태도를
테인트
투자의
툴이다
튜브
틴커캐드
팀뷰
팩터리
퍼펙트
페인
포획
품고
플라이
피로
픽스처
필두로
하에
하버드
한가
한입
함을
해내는
행만
헤쳐
헬프
헬먼
현수
현상의
회장
후지
후에도
히프
힘으로
##부팅
##해내는
##반짝
##어지지
##Vision
##Press
##Rank
##스에
##sure
##eet
##Se
##SH
##lan
##lab
##list
##ci
##cut
##come
##변조
##아래
##보내기
##리즘
##ampl
##EP
##Effect
##graph
##ye
##조절
##장애
##uri
##uator
##uDNN
##커싱
##데요
##bon
##C와
##CLE
##Cell
##에너
##금과
##표가
##드림
##Next
##UAL
##원에
##원고
##Over
##Tech
##요인
##되기를
##지기를
##으려
##으려고
##그러운
##그리드
##As
##All
##자까지
##자리에
##공유
##사르
##주가
##Graph
##GIS
##워커
##야구
##ㆍ중
##LTER
##Last
##습하기
##마법
##Header
##운딩
##상은
##타나
##발전
##우편
##역량
##wCmdt
##글랏
##블랙
##블러
##영화
##초보자
##단체
##유전
##복습하기
##내듯
##바꾸기
##렉티브
##재료
##널스
##틀리
##틀넥
##음과
##쓰기를
##십니까
##율과
##밀착형
##센터의
##잡이가
##퓨전
##검출
##검사
##받이
##케이블
##규레이션
##쪽에
##쌤의
##푯값
##숫자
##퉁이
##하기에는
사용되기
데이터소스
방법에서
##tika
활용한다면
활용서이다
기능뿐만
이용하게
기본서로
##init
개발도
개발합니다
개발했다
##ecision
이해했는지를
분석된
분석하라
문제없이
실습의
설명이나
학습자를
생성망
관리법
코드만
코드업
소개이
프로그램처럼
처리량
처리되는
그리면
프로젝트들
필요성이
작성이
작성하려면
실행해볼
서비스들이
개념다지기
적용에
적용시켜
작업이다
시작일
시작한다면
인공지능도
인터폴
핵심기술
게임화
따라하고
사용자들에게
클래스들
##aling
정리의
정리하자
언어보다
확인해보기
레이캐스트
입력받는
제공하라
제공하고자
가지다
정의는
정의에
##look
연습문제는
##mpeg
설계부터
실무는
실무적
##elect
##elcome
과정입니다
데이터베이스가
준비합니다
준비했다
아이돌
텍스트마이닝
무엇에
해결력
해결되지
해결방법
개발자다
검색에서
Study
응용함으로써
문서나
문서화와
가능케
배우다
제어장치
반복이
##레이서
우리말로
생각되는
접근성이
부분이나
운영까지
표시를
##eplay
기법이다
블록이
영역까지
영역에서의
그래프는
동작이
공부법을
공부해도
버전부터
가상공간
구글을
구글에
모델링에서
모델링이란
이론적으로
최적해
마이크로비트로
비교기
비교해본다
교육도
안드로이드용
관계도
관계는
실전까지
예측하여
이동한
이동식
이동하며
인터넷만
##emap
##되어도
과학자는
대상독자
때문이
세계대
Ind
트리플
최적화되어
연구한
연구자가
Problem
다루는지
가져라
##urr
플랫폼입니다
효율이
인간다
인간형
##otor
우선적으로
수학자
이유도
스마트폰에서도
공격으로부터
회귀로
회귀모델
변화로
##udbox
자신감
자신감과
복잡하지
포토샵이나
수정하지
시대입니다
UI가
스케쥴
템플릿에
보고서는
##인터페이스
컴퓨팅에서
전략적으로
요구한다
논리게이트
##expr
지원하며
##서비스를
모니터를
들어있는
모바일까지
옵션에
자세와
서식에
서식화
기계적인
명령어가
Concept
Conversion
HTML에
스토리는
진행해야
목표의
js가
보여준
보여줌으로써
캐릭터는
찾아온
로봇으로
정규성
주소에서
도커가
검증에
검증하고
검증받은
대화창
의미에
의미하는가
카메라에서
이야기다
결정의
결정짓는
기획되었다
익히기에
분산을
분산처리
작동하지
작동원리를
Spyder
호출로
상황정보
상황에서도
상황인식
지능이란
계획에
날짜에
지도의
지도는
OpenMP
CSS에
사전학습
사전지식
디자이너로서
알아야할
##ypher
비즈니스가
향상시키
항목별로
어디를
PC가
반복문에서
연동할
REACT
현실적
역사적인
안내할
안내선을
활동과
그러던
방향키로
Scop
체계화
블록체인으로
concurrent
Char
목적함수
Ant
추상화하기
읽어라
장점인
ID로
타임존
풀어보세요
등장은
안전성과
번역하게
기억하고
구조체란
현장감을
영화가
AR의
spec
수업은
##INCT
LabVIEW
조합과
주의하기
주의하라
Append
AppBar
강력하다
마음먹
적합하게
Adversarial
나타낼
그런트
release
원격제어
전자계산기
전자우편
컨트롤러에서
조건문으로
조건문이란
업로드와
업로드할
위험관리
창의성이
창의적이고
사실에
얼굴에
오토캐
오토메이션
시트에서
모형화와
음악의
음악에
중첩하기
행동이
행동하는
내장되어
부족하다는
모의고사를
이전부터
폴더로
에러의
디바이스에서
출판된
심층적인
Autoc
그레이들을
그레이들로
들어가야
신뢰의
신뢰도를
##Str
테크닉으로
패킷이
Explo
해설로
아두이노로
제목으로
주석과
주석으로
알림의
이슈들
이슈들을
게이트의
게이트키퍼
세트에
친구들에게
주기적인
공식적으로
챗봇은
작은따옴표
사이버전
수치의
수치적
노력에
특수효과
CPU가
머리로
이더채널
대시보드와
여기는
출제유형
Thing
응답시간
카페와
해석에
여행하는
클릭해
판단과
연계되어
출간을
출간하게
멤버와
카카오페이
튜플을
체험하면서
그려야
스위프트는
Enable
Envelop
문제점은
입문자는
선정과
교과서로
##컴퓨터를
Inters
해제하고
섹션마다
Map의
노출이
인공지능과의
##들에겐
기울이고
기울여야
감각이
전공한
미니멀
노트북과
새로이
사업에
TextMesh
상자에
주문을
아웃바운드
어린아이
##프린트
Numer
Git을
Git의
Object로
담당자를
만큼만
감정과
지침이
지침서로
인디자인의
의사결정트리
다이어그램과
되었다는
단원핵심
실수와
##LOG
트랜스파일
진단을
진단과
에이전트가
손실을
하이브를
가격이
퍼셉트론을
기간으로
바이플러그
박스에
모음을
내려야
상식과
부품의
클로바
간격띄우기
오토인코더로
##PTT
true
이더리움을
Reply
하다보면
난이도에
메커니즘의
트레이서
##ired
DOM과
확보가
엔지니어링에
규모로
흑백사진
코어의
메트릭비트
초보적인
CIO
진짜로
##활용법
shoul
BI를
BI의
Desc
서적의
통해서도
증명의
판별자
클리퍼
넘파이를
##iko
부담스러운
파티클을
선생님들은
백엔드를
파싱과
매니저로
매니저와
도면층
사라져
사라지지
레지스터와
혁명이
나무와
파드가
최신기출
UDP를
표본분포
파이어스토어
포드가
Small
유튜버를
아무래도
높아질
높아진다
리더가
네임스페이스와
챕터는
Quad
마련해
Begin
사이언스와
개정판에서
Recognition
예술적
##GAN을
엘리베이터
바꿔야
strict
스크롤링
대칭형
아래의
있었기
Prac
표지와
##gregation
골라내기
구간을
구간만
운동을
블랙잭
블랙보드
시도해
관찰하기
##Proc
##화면에서
CoreOS
대처법
인텔리전스의
textarea
부터는
최단기
않았고
용량을
앵귤러JS
취득을
제너레이터를
공동의
##oston
푸시하기
신경을
신경과학
Analog
엘리먼트의
EXAMPLE
리덕스로
강사들의
응용프로그램의
if문의
기출복원
최소화할
일어난
잘라내
프래그먼트를
구체적으로는
메시징을
꿀팁을
범죄를
Groups
달성한
밸런스를
Collector
방문자를
키바나의
나누어져
DDR
스타트업에서
폴리글랏
ACID
정보처리산업기사
바람직
의견이
생존코딩
다항식의
루비를
수열의
신입생
this와
아름답게
하늘에서
tools
인벤터로
Tracker
##행렬의
가독성이
올라갈
TFTP
의식이
SVM의
습관이
드러머
드러내기
방정식의
강제하기
Regist
Leak
특이점이
Commit
스펙과
Corner
Macro
useState
판정한다
안티바이러스
RxJS의
마주할
선호도
##IENT
parser
스탠바이
부트스트랩으로
리팩터링하기
지은이는
이기종
지구에서
모으고
함정을
청소년들이
defer
과적합과
생겨났
채택한
JVM의
영속화
피보탈
확신을
컨피규레이션
해싱의
객관적
객관적으로
구입한
보편적
보편적으로
프로메테우스와
그라데이션을
스크럼을
ChannelHandler
왓슨은
풀링층
애드혹
경험해보지
상단에
Attach
운전자
레이크의
줄여서
익스플로러의
submit
한편으로는
Dependency
공공데이터포털
물어보면
절약할
어두워
도표로
##Application
DRY
발명의
Strokes
Notebook을
모노터치
전국의
옵티마이즈
색조와
TRIZ
중고등학교
긍정적
능동적
순전파와
셋업하기
얻어오기
그럴듯한
다트머스
##분야에서
옵션바와
CONTE
말이죠
크리타
우려사항
부딪히는
Marker
생동감을
넘어가자
FILTER
레플리카세트
카이사르
register
Fill로
공인인증
반짝반짝
Runtime
불가사의
Strategy
SqlSession
기댓값과
돕고자
표시줄에
지지하는
이세돌을
코딩교육이
애널리틱스의
브레이크포인트
도전해보세요
MINI
##Timeout
상업적으로
페어링
##Encoder
편견과
엑스팩
받아들이는
기분으로
플룸을
컴퓨터공학과
과대적합과
Vuex를
시네머신
재활용하기
플레이그라운드를
UMA
공정성
안녕하세요
애그리게이트
신비로운
인디케이터
Procreate
이진트리의
디펜던시
Ellipse
부각되고
앞뒤로
정량적
Wrapper
dbg
우편번호
optional
거치면서
Dialogflow
집필진이
Tensorflow로
어르신들도
FND에
내공을
대두되고
Anywhere로
##ahoo
offset
RLT
꿰뚫는
넘나드는
되돌아보기
스며들
Execution
##scriber
인증심사원
tcpdump
발판이
파란색
니즈에
OneDrive에
무수한
걸맞은
초래할
블록코딩하기
Flatten
공짜로
대다수의
경험담을
PATCH
killing
발자국
발자취
코디네이터
##PostProcessor
일회용
##폴리곤
Meshmixer
AlertDialog
보건의료
스토밍
Retrofit
드리고자
아웃포커싱
Lathe
흥미롭다
IndexedDB
실마리를
필연적으로
Universal
peer
엉뚱한
##ynchronous
생물정보학
Relationship
SignalR
Mistika
히스트릭스
설명글을
Estimator
Tangent
스플리팅
ConductR
기하급수적으로
디바운
앞장서
DISTINCT
##utorials
wiringPi
전염병
폴라로이드
레이턴시
안타깝게도
카우치DB
월드와이드웹
오준석
온디맨드
음소거
ADVANCED
keypoint
야마모토
유투브
AOSP
Dodge
JIRA
KODU
더더욱
몽타주
지극히
##Detector
UITableView
파워블로거
##ithmetic
인트로스펙션
QUOTIENT
문제풀면서복습하기
싱귤래리티
Caffe
ONNX
고군분투
골고루
뿌옇게
현수막
##ampling
단원핵심정리
기출복원문제
AZ
Average
B형
Bump
Bolt
BPTT
CIN
Cob
DRP
ENI
Emitter
Fid
Fix
FLO
Found
FIR
Fair
GP
G가
Goo
Gun
Getter
Gesture
HW
HATE
Human
INI
IAT
Impor
Je
JT
KAI
LOD
MT
Mor
Mal
Mudbox
NW
NVM
Nmap
OO
OTP
Pf
Pie
PIC
PIR
RST
Ruler
SAR
Sil
Slicing
Tint
Tilt
VO
Vive
Watch
Well
XE
ZO
audio
alias
c의
el
gc
ko
kn
kw
kit
loc
mT
np
pin
perc
route
sq
sim
sigmoid
valid
ㆍ한
가미
가령
간판
간헐
감쇠
감수를
강요
갖는다
개나
거인
거리에
걸리
것보다는
것이지만
결함을
고치는
공놀이
과다
괴물
교정하기
구절
구도의
구간의
권만
귀가
그물
극찬
기쁘
김종
깨짐
꼭꼭
꿰어야
나게
나중
낡은
남용
낮아
너도
넣었다
넷빈
누리고
님ㆍ
단변량
담지
대장
대외
대피
대괄호
더하여
덤으로
뎁스
동인
두자
뒤의
드래
드리는
듣지
들이고
디멀티
따르기
때론
때입니다
떠나요
떼어
레인지
로마
롤플레
리브
마그
마구
만난다
말만
말투
매시
매진
멈춤
명사
명저
모뎀
모터의
모평균
모빌리티
몬티
못했을
무심
무겁
무빙
무턱
무압축
뭔데
바의
바쁘
박해
방출
배선
백프레
버저
벌점
변혁
보색
보았
보배
보려는
보수가
보색으로
봇이
부끄
분실
불연속
붙는
빗썸
빛으로
사자
사토
산다
산란
삽화와
상자와
새싹
색채
생김
생기고
샷을
서피
서예
석사
섞어
섞여
세기를
세피아
셰익
셰이핑
소화
소코
손목
수축
스네
스텐
시급
시분할
신발
실업
아깝
안에서의
앞당
애호
애용
액시엄
야옹
약국
어리
어그
언덕
엑스트라
엠스크립
여건
역작
연마
열다
오락
오르는
외울
우러
우위를
원그래프
월렛
위기에
유수의
음질
이주
이고
이질
이징
일명
일하게
있기는
자제
자르는
잡의
잡히는
재지정
재확인
저와
저학년
전도
전광
전향
전기를
점심
접미
정육
정합성
제게
족제비
좀처럼
좌석
주지요
줄거리
지을
지위
지피
지겨
직전
진자
진료
진척
책들
천체
첨가
추리
축복
춤추는
커튼
코치
콘웨이의
쿠퍼티
쿼커스
퀵스타트
클렌
키운다
타당한
테러
테셀
틈이
팀즈
팁이
팅커캐
파밍
판과
판금
팔과
팩맨
퍼지는
편은
평평
폭증
품은
프랜
플롭
하우
학급
한결
한자와
할리우드
함은
함정에
허락
헤아
호수
확연히
활기
회수
후원
후행
휴일
휴일을
##포함
##부품
##해지면서
##다드
##차트를
##속성
##D와
##Pol
##RNN
##작을
##본문
##스칼
##스콘
##sP
##s에서
##sComponent
##eometry
##ealth
##Sw
##lity
##card
##cache
##cious
##iter
##iation
##Memory
##gn
##님과
##ving
##viz
##파를
##모크
##모도로
##ball
##경을
##가로
##CSS
##화상
##From
##금이
##표에서
##드론
##NP
##Number
##BLE
##BGP
##형태
##dump
##메이터
##시가
##TR
##래요
##자들을
##판별
##주제
##주었다
##It
##I의
##Id
##If
##Geometry
##셨으면
##약한
##봤다
##일즈
##확장
##었으나
##물과
##버렸다
##분기
##두지
##fol
##운용
##매칭
##망에
##생명
##학부
##미래
##Keep
##우도
##wise
##뿐인
##입문
##측의
##베스트
##베이션
##퍼니아
##혼자
##등한
##종이
##팩스
##복구
##악기
##추가
##였으며
##jk
##테이터
##테이프
##덩이
##언티드
##극을
##놓았다
##패널
##책은
##갈아
##걸기
##틱한
##쳤습니다
##앵글
##밸런스
##돈을
##펜슬
##혔던
##깨기
##퀘어
##얗게
##곗값
사용함으로써
데이터들은
데이터테이블
만들었던
만들려는
만들기로
방법들에
활용합니다
기본값을
기본형과
##inator
개발하거나
개발방법론
##ecast
파일비트
설정은
설정값
구성되는
구성되나요
실습에서
설명했으며
설명하지는
학습까지
학습하도록
학습시켜
학습자에게
학습도구
파이낸
기술한
기술하기
기술에서
기술하는
프로그래밍이나
예제에서는
예제마다
도구들이
##attr
소개되는
##ites
설치해야
처리하거나
그리려면
디자인한
##leg
코딩까지
필요하게
필요하면
필요해요
필요하지는
작성하였다
작성됐다
시스템과의
실행기
실행이
실행시키기
서비스까지
추가하였습니다
개념들
구조부터
알고리즘까지
작업들
작업들을
시작하게
시작하지만
시작됐다
정보들이
정보자산
테스트넷
사용자경험
##root
##als
선택법
언어라는
네트워크상의
기초는
기초공략
확인해볼
영상까지
서버용
객체로서의
편집디자이너
입력해서
자동매매
기반구조
변경의
정의부터
화면설계
효과내기
설계해야
실무적으로
실무예제
자료만
##들이는
해결한
해결법
관련성
개발자뿐만
개발자들도
사용해요
검색보다
Stra
요소들의
응용력
응용하고
페이지스
변환할
제어용
출력문
출력까지
반복하며
중요시
지식까지
라이브러리도
라이브러리들을
생각하면서
생각나지
접근으로
접근방법
부분에는
사진작
사진가를
이용해야
스타크래프트
스타워즈
특징값
결과값
분야입니다
어떤가
표시기
표시하려면
리스트가
기법들이
정렬이란
##isc
##isode
있을지를
HTC
확장한다
확장하여
확장되는
전문직
그래프란
동작은
동작하게
공부한다면
원리ㆍ
이론만
##check
##chemy
##라이징
##oment
로그함수
입문해
삽입한다
예측적
이동하도록
통합에
##emble
Inet
Inject
아니라고
완성코드
메시의
메시지는
##illow
포토배
포토퍼니아
통계적으로
메모리로
평가받는
이름만
조절하라
사용법은
없는데
없는가
변화한
변화관리
알려면
통신사
용어도
요구가
오류로
전문가다
사용할지
배치의
배치할
순서의
슬라임
표준으로
모니터와
도전과
그룹화와
모바일앱
합성함수
유형별로
서식이
기계적
강의한
강의실
강의하면서
Cone
유용하지만
진행에
캐릭터들
전달에
발전해온
개인적
ITIL
양자의
##iment
키워주는
키워줍니다
검증한
다음을
차이로
차이에
의미합니다
Reveal
ind
includes
제품은
비트로
작동하게
예외는
훈련시키는
규칙적인
러닝이란
클립에서
가이드다
CSS와
조작한다
고려한다
비디오에서
비즈니스맨
포인터란
항목집합
파악해야
하드웨어가
VR은
VRF
태그가
태그에서
PC용
PC나
반복문이란
장치로
플레이할
플레이하는
REC
현실은
##트리기
역사는
역사에서
##ogen
그러니까
센서보드
과제는
자유의
재미있습니다
##정보의
##정보보호
업데이트하고
파이프라인에서
DBN
유지한
부트는
도입하여
계정에
계정에서
엔지니어로서
##iform
암호화에
검사하는
UX와
오버라이트
오버래핑
경로가
어려운가
초보자들에게
초보자에게는
사용되는가
미디어가
접속과
##opher
결합하고
모양이
샘플원고
읽어본
인스턴트
권한으로
##지향적
워드에서
이어붙
풀어내고
풀어나가는
카드의
카드와
카드뷰
구문으로
도서에
등장하게
원칙의
아닌지
##ipher
조회와
조회수와
번역은
##yna
실험의
현장밀착형
교재에서
ARKit
네이티브는
네이티브스크립트
주의하자
조정한다
AppSheet
적합할
Adap
요구사항과
나타나게
협업에
전자파
전자메일
생활학습
라우팅을
존재할
창의성과
활성화하는
리뷰이
글자체와
번호의
체크섬
체크아웃
지역을
지역성
Java에서
디스크를
집중해야
집중하라
재귀형
디바이스가
시나리오와
본문과
병합을
트랙을
액세스를
생명의
GUI에
작품의
실력향상
친구들은
검토를
애프터이펙트
집필에
상호작용의
상호작용할
지향적
기술이며
##IFS
exception
로컬리티
Subtool
노력하였습니다
파트와
특수화
##tractor
coup
개정된
아트를
해시의
맞춤과
사물인터넷은
##기술이
분포도
매니폴드
##플레이어
##inkcious
이루기
개인정보를
개인정보처리
재질과
연계를
연계하기
입체적
중급자를
출간되는
Python과
가상화에
추론하기
움직임의
소셜커머스
조사에
경쟁하는
##ontal
커뮤니티가
내보내기와
있으신
참여하여
체험하고
Docker로
판매를
판매된
판매액
##angular
스트리밍의
선정한
선정하고
습득한다
습득하게
Interior
기회에
기회와
설명하는데
종합해
페이스북과
Keyboard
신호로
주도적으로
##이라고도
책임감
제네릭을
현대사회
곡선의
발표를
위협이
장비에
캡처와
Unique
구매자
TextBox
##프린팅
가공하여
Git과
깃허브의
법칙이
타임라인으로
거리의
거리와
활용법과
Layer의
감정분석
부여를
비롯된
SWITCH
글로우
되었다면
단원요약
스위치로
재사용과
증가할
##ITbook
USER
달라졌
가격을
기간과
콘솔로
가입자
##만큼은
퍼즐의
채색할
상식이
ROS에서
과목의
직업에
직업군
CD를
나는야
들여쓰기와
학교에
타입스크립트는
정답이
원인은
유니크
운용하는
가정용
출시를
인터럽트를
MSP
MSA
DOM에
Lights
ROI
흑백에서
channel
수립하기
초보탈출
인터럽트의
하루하루
합격의
피처를
통찰과
플러터에서
갤러리에
갤러리에서
구현해보고
젠킨스에
일래스틱서치에
ImageView
선생님들도
전화걸기
일관되게
트위터의
파이토치의
범주화
카테고
위해서도
도면의
사라진다
라즈베리파이의
라즈베리파이와
서명된
슈퍼타입
쿠키의
갱신하는
VM웨어
홍보를
간편하고
리더와
리터럴의
챕터에서
Quest
라벨과
현상과
높여준다
Effect의
##ements
우주로
요인분석
Dispatcher
바뀌지
바뀌었다
출발하여
문제해결력을
저작권을
저작권의
있었으며
점수가
Prism
##Integer
포레스트의
Typekit
완료한
pandas와
##spec
감사드린다
##Props
DataFrame으로
튜토리얼과
Specular
지나면
폭넓고
##Chang
보완할
않았기
유의성
RPN
본질적으로
지시문
JavaScript를
서술적
코너에서
개발환경을
비전공자들도
런타임에
TableLayout
청소기
NLP의
공급업체
꿈꾸며
언급된
캐글을
modoo
정제된
정제하는
재료가
최소화하라
실천하기
##스트럭션
심볼을
재현하기
ATA
SSH를
기여한
optim
창조하는
인공신경망을
끌어내는
이외에
은닉층의
##tified
주인공인
지루하고
##ibrary
베이커
생존율
이끌어내는
unique
캐싱하기
교사들의
뉴런과
소재가
요점정리
커밋과
##ause
회원가입과
직원의
TodoList
크롬에서
Tracks
장단점과
Animated
도시를
격리된
협력하는
근거를
정상적인
형상관리
토론하기
데몬세트
최댓값을
선별하기
인프라스트럭처와
지갑의
화상강
휴대용
휴대전화
뛰어넘기
GOGO
column
주키퍼의
스탠다드
커브를
JSX의
마법사로
태블로에서
안내서입니다
PEB
이산형
핸드북
핸드오프
넷플릭스가
플라스크를
장고의
구별하는
보간하기
바운스
functional
예방하기
표면의
Channels
왓슨을
설득하는
마이크로컨트롤러의
Ajax를
배려했다
음식점
컨설팅을
도해와
누군가가
비유를
시작했다고
대답하는
DRIV
접목한
포괄적
차지할
디버거를
IPython의
strings
CRAN
공감할
NUCLE
감수자의
모임인
충족하는
readonly
궁극적으로는
심리학을
반올림하기
Clusterware
플링크를
Bootstrap
영국의
MEMO
##uckoo
슬라이더를
생기지
DMA
DMZ
옵저버블과
고도화된
GameObject
델리게이터
CheckBox
선보인
넘어가면
내적과
달러를
인과적
align
열정을
정돈하기
민감도
SketchUp
애너테이션을
올림픽
Vufor
논쟁을
다뤘습니다
플래닝
Science
브리지에서
RestController
배움의
대세가
해부하기
users
##ova
##ovie
살아가기
BETWEEN
SK텔레
Consumer
##grind
쓰여졌다
의심스러운
누구보다도
답답함을
프롬프트에서
Delinkcious
상업용
상업적
##Entry
WinDbg를
시키고
벽돌깨기
엑스코드
gilbutITbook
출신의
##번째로
PlayerPref
알리바
##resent
COMMIT
Figure
진도표에
Voting
locals
모방한
재시작하기
설립자
##나가야
##ULT
DApps
스핀락
Floating
만드나요
확률변수의
확률변수와
크리스마스트리
스톱모션
##컴퓨팅교사
SYS
SYSTE
##내용을
나타나도록
LSP
청중을
processing
타이포그라피
##Interceptor
TEST
Embedding
플루언티드
##정규분포
##ragma
INTRO
assign
생소할
##AGS
메타문자들
무궁무진하다
NASA
ㆍㆍㆍㆍㆍㆍㆍㆍㆍㆍㆍㆍㆍㆍㆍㆍㆍㆍㆍㆍㆍㆍㆍㆍㆍㆍㆍㆍㆍㆍㆍㆍㆍㆍㆍㆍㆍㆍㆍㆍㆍㆍㆍㆍㆍㆍㆍㆍㆍㆍㆍㆍㆍㆍㆍㆍㆍㆍㆍㆍㆍㆍㆍㆍㆍ
Physics를
MOV
반가워
트레일
Bokeh
CubeIDE
Firewalld
시중의
멀티플렉싱
##ography
##ographic
환산표
Forensics
선행학습이
영리한
출제경향을
Wireshark
언젠가는
풍요로워
고가용성을
curl
파라메
OpenVINO
팬더스
Technique
FSM
걸맞게
신분증
신세계를
download
배타적
##InputStream
앤드류
Broadcast
버프스위
CAPT
John
보시기에
중시하는
수료증
이책의
OLTP
까닭은
시너지를
저마다의
Launchpad
두껍게
재능이
Requirements
실기시험문제
FFmpeg
때쯤이면
싫어하는
이펙티브
킬러로봇
OpenSSH
Artistic
늘어나면서
##쇼핑몰
Gameplay
길라잡이가
스마일
일독을
Firestore
내결함성
Inheritance
비전문가
Coordinate
숨기거나
Ribbon
iTunes
트럼프
Electron
GRAPHICS
Wiggle
날카롭게
카스파로프
Neighbor
미니어처
이집트
파이써닉
익스체인지
MYSQL
roadbook
광섬유
디저트
오리지널
DeepDive
게슈탈트
기즈모
노련한
톨러레이션
##Generator
표준입력으로
Completable
시스인터널스
KNIME
Palette
atomic
리처드
보탬이
엔비디아
코페와
should
CINEMA
KAIST
mTLS
롤플레잉
무턱대고
백프레셔
생김새
소코반
엠스크립튼
쿠퍼티노
클렌징
DRIVER
NUCLEO
Vuforia
SK텔레콤
Ari
ACP
Bak
Bill
BCL
Bubble
C형
City
Cord
Cost
Cypher
DCT
EFS
EDM
EDATE
Eras
Evern
Fit
Fixed
Fizz
Gist
Ha
Hom
HLL
JO
KOS
KMP
Korea
LP
LUI
LISP
MJ
MAN
Mass
O를
Oc
OSS
OCP
OBS
Pages
PXE
Pillow
QX
Ra
R이나
R소켓
Roles
SIP
SAX
SNC
Stick
TSC
Talk
TXT
TYPE
V를
Weld
Wasm
Yahoo
Zoo
Zep
bag
board
cd
dll
difference
feature
fashion
gen
iM
km
kotlin
mar
p를
pthread
rd
rel
rsync
slot
shape
tun
trim
todo
ver
weak
가역
가리기
갈고
갈피를
갈레라
갑니다
개는
개봉
거는
거절
거인의
게터와
결말
겸비한
고도로
곤충
공사
공항
공들여
공약수
교안
굵은
권순
귀무
그로부터
극히
극적으로
글래스
글그램
기고
기사의
깃을
깃발
깨알
끝도
나기
나보다
나가면서
남들이
남다른
내린
내외부
넓다
넣지
넣는다
노마드
농축
높습니다
높다고
놓는
누를
누리
눈여
늘리고
능률을
니터
님이
다대일
단정
단골
달라도
당당
대행
대수와
더보기
더없이
덕에
도화
독파
돌이
동차
동사
동질
동키
동참
동메달
돼지
되므로
될지도
두음
들도록
들이지
딥마인
뚜루
띄워
래그
랜더링
레티
로테이션
롤러
리프
리플리
리샘플링
마법을
마샬링
만기
만져
만으로
말하지
망토
먹을
멋지고
메르
명심
명백
모스
모킹
모디
모을수록
모조리
모퉁이
몫과
몰려
몰두
몸이
무드
무용
묶고
물을
뭐죠
뭐든
미만
미승
미덕
미스트
바에
반해
발광
발언
밝힌다
밟아
방에서
방지를
버스와
베팅
변칙
별첨
보긴
보아야
복호
볼래
부러
부위
부응
불타
불빛
붕괴
비글
빈의
빠지기
산물
살기
삶에서
삼을
상대로
서양
선입
세네
셋을
셧다운
속을
속이기
손과
솔로
쇼를
쉬는
스칼
스톡
시가
시공간
신조
신생
씨름
악마
앉아서
암흑
애플리
앱도
앵무
야기
양과
업스트림
에도
에픽
엔씨
여성이
역참조
연방
연재
열만
오다
오면
오려
오후
오레오
온풍기
옳은
와서
왔지만
외관
요정
용의
용도와
우린
우노
운세
원서를
웹어셈블
위도
위계
위크
유쾌한
음성과
의도가
이리
이승
익힘
인화
인위
인지도
인바운드
일만
일쑤
일대다
일루미
입찰
입히는
있긴
있습니까
작지만
잡게
장이다
재기
쟁점
접시
접합
접착
정품
제본
조땡
좁혀
종족
종결
좋다고
좋겠지만
주자
준답니다
줄인다
중에도
중도에
지자
지수와
지치지
진전
진영
집게
찌그
창이
채번
채우
책이기도
체커
촉발
촘촘
최우선
축의
출연
취할
치유
칠판
침대
캠프
코타나
콘볼루션
콜센터
콤비
쿠베
큐에
큐잉
킬로
타협
택일
토닝
통통
팁은
팁도
파장
파운
파비콘
판결
판례
판독
펄스
펌프
페치
포그라운드
폰을
폰트를
풀과
피치
픽처
필릿
하모
한워드
함의
헨젤
호평을
화제를
후방
훔쳐
휘발성
흐르
흔하게
##감으로
##부족
##해상
##해나가는
##기존
##기보다
##반응
##어질
##Vue
##Des
##Dao
##Default
##RDD
##본부
##스캐
##스코프
##eil
##SD
##SM
##Sim
##cp
##cpp
##tor
##house
##ief
##이용
##보겠습니다
##보아요
##보려고
##하이
##로케이션
##a와
##aic
##aid
##Mat
##Mount
##pos
##path
##조작
##라운드
##vm
##vid
##uch
##모험
##비언트
##ban
##CV
##Coll
##에디터
##Fl
##름을
##표로
##만리
##호스트
##mon
##NATE
##Bot
##doc
##시드
##OA
##OBS
##T의
##Tim
##핑과
##정으로
##AWS
##치며
##성한
##성장
##방정식을
##턴스
##IVE
##QU
##QASM
##캐릭터
##봤다면
##신고
##인딩
##니의
##Will
##확한
##산의
##었으면
##현재
##세이
##각의
##슨은
##회원
##분들은
##했었다
##했으므로
##했는가
##동기를
##코스
##코틀린
##HR
##faces
##flix
##상부
##디스
##우리가
##위젯
##네스의
##편지
##퍼티스
##퀴즈
##실로
##실시간
##겠어요
##겠습니까
##델브로
##초등학교
##내며
##ZE
##바와
##권의
##피시
##피케이션
##싱크
##최대
##최소
##개요
##개인
##얼론
##연합
##줘서
##윤리
##페셔널
##견을
##견만리
##놓는
##뚜루
##책에
##탄탄
##층은
##층과
##짐을
##끼리의
##긋한
##렀다
##것입니다
##젤리스트
##넌시
##삽입
##찍한
##꽂이
##잖아
사용은
사용하다
사용되며
프로퍼티스
##eros
만들었
##onym
만들기도
활용된다
##aps
##apy
함수도
함수에서의
함수들의
기능성
이용하세요
기본만
기본이다
기본작업
##ini
개발툴
개발하다
개발하려면
이해부터
이해하면서
이해한다는
분석도
문제란
문제인
문제에서의
문제분해
모델들
##ester
학습방법
학습정리
학습모듈
학습목표
파이는
생성기를
관리해
코드화
기술되어
구현되는지
요약을
요약ㆍ
도구들의
프로그램들
다양합니다
처리한
디자인이나
시스템적
실행되지
실행해보고
서비스형
##ONE
추가합니다
추가되고
개념에서부터
구조분해
적용의
적용하며
적용하고자
알고리즘도
알고리즘이나
작업인
작업부터
작업시간
시작했지만
정보주
정보들
연습ㆍ
인터렉티브
핵심으로
핵심이라고
게임엔진
게임그래픽
따라함에
테스트해
##rov
##스크래핑
통해서는
확인하려면
하는지도
보안관
보안에서
##acing
객체에서
다루므로
편집자가
제공되며
자동ML
가지지
##real
##relation
정의로
정의가
연결망
단계다
사람에
사람으로
설계했다
실무자와
##ely
##strip
과정에서는
준비하면서
자료도
자료에서
자료들이
##들이고
구축하거나
시간별
시간만
시간에는
관련해서
개발자에
요소입니다
페이지마다
만들어보세요
모듈러
계산하여
출력이
출력에
출력한다
출력옵션
반복자와
반복제어문
타입은
##레이아웃
시각에서
생각했습니다
접근에
부분인
동영상에서
##edList
리스트는
리스트형
경험해볼
아키텍트의
##oof
있을지도
확장의
전문적
그래프X
스프링은
스프링에
스프링으로
가상과
배포된
시각화란
비교하면
비교연산자
로그라이크
실전을
입문하여
이동에
통합적인
통합적으로
Party
과학이란
때문이지요
Inline
최신으로
미래로
탐색트리
최적화는
##iler
문법도
##ursive
##ategor
IPFS
추출된
추출하려면
인간관계
인간만이
우선으로
자신과
마치는
추천인
##adata
리눅스가
수정해야
STEAM
UI로
필수는
크기는
형태학
지정할
사이트가
요구됩니다
오류처리
전문가로서
일러스트는
논리합
수행과
수행에
수행하도록
지원으로
사고할
이야깃
순서도와
인식된
인식하지
표준인
표준적인
들어도
들어온다
기업체
발생하기
유형은
누구일까요
강의하는
주제까지
슬라이드만
슬라이드에서
js에
##시키지
프로토콜은
프로토콜로
프로토콜인
다운로드해
되는지를
스파이크
다중회귀분석
개선이
전환에
카메라에
복사한
모니터링에
모니터링할
결정트리
중심에는
여러분과
따라하기로
작동할까
Spaces
SpEL
수식자
오픈시프트
제거해
##acking
상황에서의
질문들을
지능정보
OpenQASM
가이드하고
##인지도
##ebar
사회로
사회적으로
사회에서는
포인터가
파악한
기준과
노하우는
만든다면
장치들을
정확성을
플레이를
플레이하기
현실감
현실적이고
보고서와
대응하고
확률에
그러면서도
센서에
센서값
활용할지
단어장
마스터가
업데이트되는
요청하고
유지개선
분할표
분할된
분할하여
키워드의
단축할
Score
Scanner
특성이
보호법
서브버전
측정항목
블록체인에서
Chpt
오버랩
바탕쪽
있고요
최소공
##리기도
##NDER
##ORE
운영체제별
운영체제인
렌더링에
DataSet
능력이다
배워라
타임코드를
커널모드
워드아트로
##loworld
풀어본다
Deformation
구문분석
비동기로
기록기
컬렉션으로
제한과
실험과
절차지향
교재용
영화에서
ARRAY
##자와의
네이티브와
고민과
spin
space
저장소에서
수업과
파워포인트는
파워포인트편
조합으로
조정할
마음과
흥미와
적합하며
한글과
Go와
Advisor
도와드리겠습니다
원격지
컨트롤러로
Shy
강조된
강조점
강조되고
위젯에
익숙하다고
존재로
존재는
존재하지만
하이퍼텍스트
레벨로
글자만
JSONP
비용은
profile
properties
국내에는
전반의
지역에
최고경영
행동으로
네이버에서
부족하여
이후에도
백업을
집중해
성장의
복구를
중복의
중복되지
문장에서
심층신경망
복습을
병합하고
병합하여
테크닉에
포맷과
되어가고
메인화면
생명체
생명공학
산업혁명에
탐지하는
Complex
Composer
실력과
실력에
DAV
발견과
무엇인지부터
집필하는
진화해
진화한
서로를
로컬라이제이션
수치와
오늘부터
방법론은
CNN으로
시계열분석
대시보드에
알아두라
여기에서는
대신증권
응답하는
해시함수
##ACH
카페에
해석기
텍스처로
클릭할
수익창출
Systemd
거래명세서
가르침
NOOBS
뛰어든
판매금액
입문자에게는
스트리밍을
상상이
상상력이
기대해
Netflix
국가공인
좋아할
##ournal
만나서
주도할
혁신은
탄생하게
보드에서
뉴스레터
친절하다
길이에
모습은
장비가
라이벌
##anagement
Uns
추상화의
##시켜줄
사업가
Orange
상자그림
플로이드
차이점이
스토어의
키보드에서
##되었는데
Allocation
활용법에
붙여서
각각을
젠킨스의
프로토타입으로
직관을
실패할
실수는
재사용성
조언이
카운터의
아이패드에
워크시트에서
포트폴리오의
Setter
초급편
네트워킹을
네트워킹과
마법사를
테두리를
만족을
시점과
철학이
프린터에
Views
대규모로
과목별
직업과
Studio에서
CDS
악성코드에
적용해본다
전통적으로
칼럼의
동시성에
가정에서
난이도와
메커니즘에
어린이들에게
호환성이
비율과
엔지니어링과
성과가
Nothing
child
##프로세스
순간이
담아냈다
증명과
프로세서를
아이폰을
아이폰의
경고한다
부모가
##블록을
Seam
히스토그램과
히스토그램으로
RPA를
써먹고
해커들은
CSV로
일치하지
학습하는데
통제하기
파이토치에서
되었으며
되었어요
클로저와
베타테스트
단점이
나무가
파드를
인스타툰
획득한
Workbench
슈퍼스
쿠키를
Basics
##plain
이클립스로
수신하기
리더로
리터럴과
챕터별
사랑스러운
메타버스에
개별적인
마련되어
높여라
Transformer
우주를
우주에서
개정판은
반전시키기
pygame
컴포지션을
컴포지션과
경영자
사이드이펙트
서울특별
임의로
가속기
적응하는
녹음하고
대책을
인코더의
아래에서
점수는
점수에
전망이
표지판
포레스트와
ArrayBuffer
자산과
픽셀아트
구간추정
트리거를
Typeface
취소선
Teach
다뤄보기
까지의
다르지만
기본기부터
창출의
창출하고
제너레이터의
enable
스케줄러의
인텐트를
우분투에서
프론트엔드를
바닥부터
실생활과
튜링이
반사된
편향성
편향된
리덕스를
리덕스의
부분합을
범용적인
엔티티의
사건이
언급한다
캐글의
캐글에
TLS의
코딩맨의
장식의
차례차례
유지보수성
고양이와
PWA를
연습하기에
창업을
인공신경망과
Directional
거버넌스의
방문한
PPT를
정부가
프런트엔드와
시청할
시청자의
해결해줄
샘플링과
상관관계가
상관관계와
SQLite를
SQLite의
##illa
불안정
GitHub를
공용체의
의견은
생존을
login
첨부된
##테크닉
타이포그래피를
DQN을
높이를
인정하는
인정받은
유도한다
코루틴과
힘들었던
학원에서
아나콘다를
부가세
들여다보는
장기간
스토리텔링을
발행된
Hyperled
htmlwidgets
매체에
보관하는
부팅과
업체의
EventListener
여정이
흔들기
올라타
올라가는
생겼다
추세를
정상적으로
파헤친다
Register
RegExp
최댓값과
데코레이터를
스펙큘러
머릿속에서
고성능의
생략하기
가이드라인이
터미네이터
parallel
스탠퍼드
Stacked
실무자들의
마이크를
권장합니다
단추로
지구의
RDD의
InputStream
요건을
터미널에서
원자계
선행되어야
바다로
스페이
표면에
지오로케이션
학문의
##용으로도
리포트를
의도적으로
의도하지
화려하게
VSFTP
두뇌의
희소성
indexOf
고찰한다
쏟아지고
레이크를
브로커로
수단이
subplot
지배할
JWE
암기비법
돋보인다
##시대의
당연하게
Decimal
Relay
objects
떠올려
러시의
에어리어
장르에
가상머신의
커리큘럼이
repr
접목해
채워진
##army
주사위를
black
필독서다
Stateless
LINE
Definition
엘라스틱서치와
PromQL
프리팹과
모노이드
전국에서
전국컴퓨터교육협의회
##ertura
ZBrush의
여섯째
회피하기
앱인벤터로
학생들에게도
AsyncStorage
레플리케이터
메카닉
수십억
왼쪽에
정신을
프로비저닝과
Nullable
동영상으로도
##Access
LOG
mini
SFTP
전사적
전사아키텍처
추측하기
벤치마킹하기
packet
맞이할
Realm
국내외에서
규격과
레드블랙
항공사
각도에서
Hashtable
달러의
스토리보드를
production
일부분을
Calculator
불어넣기
화폐의
##ByName
도로를
수량화
가져온다
modeltest
Istio
고수준의
도래한
Runner
다뤘던
전역변수와
테크놀로지의
RFC
SqlData
붓꽃의
완성해가는
Restful
Chatbot
transition
Weak
빨라지는
피어링
드라마로
대결을
코딩교육을
어려웠다
델리게이트를
불꽃놀이
수리적
체득한
달아주는
아이디와
Lake의
GDPR의
doctest
리얼리티
튼튼하게
Close
sqlite
Snapshot
뉴욕타임
abstract
유동화
componentWill
실체가
조화롭게
기상청
풀어볼까요
기술통계분석
재택근무를
TabLayout
TabBar
인디언
퍼블리시
허팝의
통신망의
##스러워
ndarray의
decl
태양광
##실무에서
세금계산서
##ailover
OutputStream
감상하기
열풍이
White로
options
거치며
인원수
스탠드얼론
관광지
포워더
Iterable
도와주며
드로어블
내공쌓기
도덕적
있음에도
내재된
원드라이브에
NTFS
schedule
앞부분에
업종별
상호운용성
머물러
포토스케이프를
Syslog
웨어하우스의
Communication
Wired
가능할까요
Bottom
NUMA
그레텔
랜드스케이프
호모그래피
INTERVIEW
가끔은
깜박이는
깜빡이기
##PoolExecutor
안성맞춤이다
Groove
quantum
##카메라로
CONCATE
Segmentation
Gloss
Safety
단독으로
정성적
SW교육을
전성시대
##여러분
총합계
Dimensions
##fitting
Fresnel
##Security
검색창에
Hacks
두렵지
스컬프
올해의
##aceroute
이동평균선
install
익스텐트
귀찮은
당면한
할로윈
최소제곱법
Critic
Percona
다룸으로써
원주율
##entist
멀티테넌트
Flashback
Episode
개략적으로
민첩성
브레드보드
솔직히
연설문
Obj
크루스칼
이진탐색트리
Heroku
도어락
카나리아
클레이튼
##riori
디퓨즈
일깨워
##스프링
침입탐지시스템
##독자대상초중급소스코드
비통지자는
Ultra
인트라넷
통용되는
Applying
##인덱스
convolution
openFrameworks
Synchronize
인클루시브
##LeNet
Miarmy
포물선
##BUG
##최적화
통합개발환경
reflect
LWIP
motion
##Volume
immutable
GPGPU
글맵시
마젠토
패밀리
##OutputStream
NETWORKDAYS
Sierra
단행본
명실상부
팀뷰어
Envelope
최신기출유형
박해인
지피지기
테셀레이션
##gnore
##folio
SYSTEM
CAPTCH
Evernote
KOSPI
눈여겨
모디파이어
비글본
앵무새
엔씨소프트
일루미네이션
헨젤과
Hyperledger
Ai
ANT
AUT
Best
Bake
Bass
CAN
CAE
Crypt
Cuckoo
Categor
Der
Dan
DPI
DStream
Elas
ELS
Far
Float
Failover
Gear
GCD
Gopher
H형
HAT
Hole
HARD
It
IA
IGP
JQuery
KL
Len
Low
Nt
NX
NMF
OA
Pa
PIN
Pitch
POC
PGA
QUE
QUnit
RAT
Remo
Sum
SIF
SUR
Tac
Tic
T아카데미
Telnet
TLB
UCL
UGUI
Wik
WLAN
XArray
batch
border
cmd
dApp
dns
ec
future
hy
launch
mag
mul
mask
millis
nn
n단계
namespace
own
px
pair
rpm
sy
single
us
vCenter
x를
xl
yout
ㆍ빅
ㆍ영상
가수
감히
강점은
갖다
같을
거둘
건가요
걷어
걷는
걷고
검수
것에서부터
경도
경이
경청
계발
고사
고무
고개를
고빈도
골프
공의
공제
괴짜
구부
굴리기
근처
금메달
기꺼
김수
깨우는
꺼내는
껍데
껍질
꼬마
꼽을
꽃을
꽃별
꿈돌
끝의
끼칠
나인
난감
낮추고
내며
네스티드
노리
노즐
논한다
농담
누른
누리는
늘이고
늦은
닉네임
님의
다는
다학
다르고
닥터
단을
대에
대거
대항
데카
데이브
데미지
델파이
도스
도용
도난
도널드
동결
돼라
되었던
뒤에서
들로
들으면
디시
딥드림
똥손
뜨는
라곰
런큐
로빈
로이터
론칭
리딩
마운
마빈
마쳤
마니아
말하며
맞을
맞출
매끈
맥가
맨땅
머테리얼
멍젤
명과
명강
명견만리
몰아
몰고
몸매
뭐든지
뮤텍
믿어
박스와
반야
방을
방영
백문이
버터
버림
버락
번갈아
벌고
벌크
보이
보길
보실
보아도
부에
부실
부자가
분이나
분이면
불충
붉은
붙인
붙임
비바
비잔
비서를
비서가
비식별
비재귀
빈을
빠지게
사연
사막
살을
살릴
삼촌
상사
샷의
석학
설비
섬세
센터의
셀링
소중
소재로
속임
속이는
손맛
손해를
솔트
송장
수조
수분
수레
수차례
숟가락
쉽다는
슈미트
스루
스콧
시범
시시각
실종
싶고
싶었다
싶다고요
쏠쏠
쓰러
쓸까
아프리카
안에는
않으면서
않으면서도
알록
알았
애트리뷰트
액체
야사와
얇은
양극
양해를
어포
어림
어긋
없죠
없음을
없지요
에라
에스티
엘비스
엘리스
엡실론
연차
열이
열람
영지식
옆으로
오더
오면서
올인원
외산
외운
외에는
요원
욕실
용감
우주의
운항
원뿔
월부터
위원
위력
위력을
위아래
위스콘
유독
의도에
이단
이너
이재
이겼
이지만
이대로
이기는
이커머스
일방
일환
일하며
임금
임팔
임직원
입소
잉여
자국
잔고
잡는다
장밋
장들에서
저가
저금
저울
전구
전례
전합니다
전결합
절단
정반
젠심
젯브레인
조용
조선
좋다는
좌충
주를
주크
주거
주면서
중견
증언
지호
지운
지평
지지도
직후
진학
질환
집의
집착
찾게
천차
청량
초능력
초점에
춤을
치는
카노
칼로
캡차
컨스트레인트
켜지는
코흐
코포자
콜러블
쾌적
큐로
큐라
키링
키움
탓에
터무
템플
트렁
특집
팀워크
포용
포키
폰의
표출
푸른
풀까요
프롭
플랩
피아
피마
한동안
할머니
해변
해오고
햅틱
행태
헌법
헬리
형에
형상을
호소
호버
홈스
홉필드
확증
후크
휩쓸
휴가
휴식
흐린
흥분
희생
힘은
##포즈
##포인팅
##해보는
##해집니다
##기호
##차기
##Vis
##Valid
##속에
##Dump
##Draw
##Drop
##RIP
##스민
##sl
##sk
##lider
##laim
##count
##tR
##ois
##rus
##ract
##이진
##이팅
##수량
##수단
##아트를
##보우
##프레이
##리액
##리라는
##하더
##하진
##하십시오
##로라
##a를
##aut
##Min
##Man
##Mail
##Material
##Media
##gLeNet
##될지
##면에서
##uid
##커브
##모르
##brid
##kg
##경희
##Card
##Coin
##Future
##드려요
##만별
##mc
##NCE
##dist
##dev
##원소
##시킴
##시대를
##OAS
##Tools
##요령
##되려면
##지털
##지점
##정형
##정치
##대어
##Ag
##Ab
##문ㆍ
##자마자
##여부
##주신
##Grad
##할수록
##셨나요
##나라
##질량
##야만
##폭탄
##값에
##니움
##안이
##안보
##게티
##소를
##소송
##현장
##각을
##카스
##카드로
##볼까
##오프라인
##동향
##HN
##fox
##매틱
##레미
##츠의
##디지털
##미와
##발생
##우돌
##쯤은
##win
##watch
##입출력
##론에
##베르트
##팀은
##컴의
##등급
##았으며
##브넷
##토스테
##클로
##클래
##철학
##내지
##내려면
##추천
##달록
##바를
##바람
##바탕
##바인딩
##권에
##였지만
##냐고요
##후군
##재생
##음으로써
##연금
##막을
##광고
##언맨
##통역
##애플리케이션
##절을
##순차
##즈온
##랐습니다
##책으로
##올린
##엑스
##탄생
##뉴스
##느낌
##케이티브
##겼던
##랗게
##캡슐
##쉽고
##펑크
##하기는
##이터스
사용설명
데이터형과
데이터센터의
프로페셔널
만들라
만들었고
##스트립
활용성을
함수인
기능만을
이용을
이용할까
##inj
이해시키는
분석표
##tions
파일이란
구성해야
문제만
문제지
문제없다
##APE
실습에서는
설명해서
##arter
학습해서
학습법을
생성부터
알아봐요
관리로
관리할까
관리시스템
기술사
기술하여
기술부터
기술했다
기술들의
기술자를
프로그래밍에서의
요약예제
소개하지
소개했습니다
프로그램인가요
처리된
처리하려면
그리하여
그리드로
프로젝트들을
디자인도
디자인한다
디자인이다
코딩된
코딩하고
작성해보기
실행까지
추가되는
##anel
개념들에
적용하려면
작업해
작업흐름
시작하다
시작점이
연습과
연습하는
인터페이
인터파크
핵심적으로
핵심정리
게임기
게임이란
##적으로만
문자만
클래스패스
##alab
컴퓨터도
네트워크나
기초에서
기초탄탄
확인하세요
영상도
영상클립
책은큰
다루다
다루려면
다루었던
다루면서도
다루었고
편집도구
입력하지
저장해야
저장하자
제공을
제공되어
변경될
##rement
##lox
화면구현
연결되고
변수형
변수나
연습문제가
연습문제ㆍ
설계란
##elve
독자로
독자님
과정인
과정들을
데이터베이스인
아이언맨
표현하는지
텍스트만
##olid
제작에서
구축관리
##ARP
해결과
해결하려고
시간복잡
소프트뱅크
패턴도
패턴이란
API란
사용해보고
소프트웨어에서
스마트보드
Stre
Stop
Stencil
응용하면
만들어질
만들어내고
이해하기에
모듈식
제어해
제어에
제어점
출력값
출력하여
출력하자
반복자를
타입들
타입캐스팅
사용하는데
사례까지
중요하기
중요해진
그리기를
그리기에
생각하지만
접근의
접근하여
접근수준
접근권한
##하지요
##entutorials
운영해야
운영되고
동영상제작
##ectrum
특징들
표시하였습니다
리스트나
경험자
AIML
HTS
영역이라고
소스로부터
동작방식
공부와
원리나
버전에서도
것이었습니다
구글이나
이론도
시각화로
시각화까지
컴포넌트란
만드는데
##라이팅
##라이언스
##ries
비교했을
##omaly
##로그램
참고하세요
교육하고
안드로이드는
로그로
실전분석
##기능사
입문하고자
윈도잉
##하였으므로
##하였으나
사이버네
인터넷상의
프로세스로
Ingress
Invoke
업무로
업무용
업무나
완성된다
최적화하고
컨테이너는
##iller
메모리가
윈도우로
연구자와
Pro의
Profil
평가에
평가지표
형식화된
조절을
##lask
IP가
추출기
효율성이
##otal
메서드는
컨트리뷰
##verb
색상별로
회귀에
그래픽은
추천해요
계층은
어려우
다운받은
용어정리
사이트는
요구하고
오류는
전문가에
전문가나
논리식
논리회로의
수행하는지
배치했다
지원되지
참조해
모니터의
기업도
기업에서도
도전하자
모바일로
모바일샵
클러스터롤
옵션이
메시지로
Exchange
산업계
강의할
명령어는
Constructor
스토리에
진행하다
js란
클라이언트에게
발전하면
우선순위에
개인적으로는
불러오
##inding
IT에
로봇에게
##프레젠테이션
정규형과
상세보기
상세정보
키워드는
등록해
등록하여
개선한다
대화의
대화하고
전환할
의미로
의미인가
의미론적
복사를
결정하고
현재가
중심에서
텐서로
멀티플
재생하고
Sport
제거를
제거와
##ackme
하기에
강화를
훈련용
훈련할
규칙은
러닝에서
OpenVPN
CSS는
노드가
##estr
세상에는
단위에
디자이너나
디자이너처럼
고려하지
비즈니스에서
외부화
##이어도
향상하고
HTTP로
시험장
시험장과
어디부터
파악해서
##리에이션
하드웨어로
if를
동시통역
전송할
플레이백
REPT
RENDER
학생도
혼자였다면
스트림으로
배우는가
현실세계
스택이란
안내문
안내하여
활동에서
그러니
과제의
재미있어야
인프라에서
않은데
업데이트에
보정한
보정에
DB와
분할하는
부트가
보호하고
서브클래
도입해야
도입하면
도입되고
블록체인이란
condition
영향과
영향력이
목적지에
##ific
오버뷰
바탕을
초보자용
속도감
속도감과
접속하면
##코딩을
##코딩의
분리를
분리와
##ople
결합의
what
복제를
렌더링할
렌더링으로
comb
인덱스가
시리즈에서는
타임머신
커널이
풀어내
Deform
Defer
비동기적
할당의
회전하고
기록으로
조회수를
컬렉션에서
번역과
번역이
##ffee
제한적
기억의
구조체로
필드명
영화나
스케치와
고민하며
객체지향을
레시피로
카프카에
의존성과
필터링된
while과
공개했다
조합이
스스로가
구분된
구분하고
관점에
OS가
도와드립니다
Arithmetic
깊이보기
업로드된
NodeJS
Nodejs
위험성에
##뿐만이
Shake
포인트가
익숙하고
익숙해진
Contents
존재하고
IoT로
IoT에
스크래치에서
시트와
비용함수
음악이
음악으로
액션바
액션으로
체크와
행동의
부족으로
관리자는
이전과는
집중화
성장과
성장률
MySQL에
강화학습이
일부에
압축해
시나리오는
메일에
읽을거리를
병합해
WebSocket
들어가서
들어가면
신뢰성과
트랙으로
##cription
반응형으로
상관계
해설은
반환받기
제약과
기기들을
대체로
GUI와
라이트를
Compare
주석이
공통점은
친구의
토큰의
토큰으로
집필할
지향성
진화적
로컬에
막대와
노력한
파트별
SNS에서
로고의
로고가
초등컴퓨팅교사
시뮬레이션으로
장애의
인물만
해시를
해시테이블
이모티콘은
이모티콘의
내보내는
해석을
자기회귀
세션에
세션분석
순차회로의
판단한다
페이스타임
스칼라가
출간하는
수익형
CSR
추론의
어디서도
Timestamp
내비게이션의
비주얼라이저
카카오맵
자격이
표기법을
체험한
Docker에서
액티비티에
그려서
##tegr
판매량
입문자들을
습득하기
교과서를
소통과
Interaction
기대하며
기대해본다
국가와
종합쇼핑몰
어려움은
잘못될
좋아하고
프로파일을
페이스북에서
Keystone
투명도가
ASLR
강좌와
주도하고
혁신과
책임의
탄생시킨
아직까지도
현대인의
STAGE
적합한지
혼합현실
감각의
뉴스에
뉴스그룹
사람들이라면
측면과
Unified
Uniform
구매할
버그가
##시켜주는
Text를
iOS용
차이점에
키보드의
ESX
모범답
모범적인
클러스터링과
가공과
가공하는
논의의
논의할
호스트에서
Objects
깃허브로
깃허브와
현업의
MVC와
지침서다
최대한의
다이어그램으로
스티치
지표와
레이블이
있기도
단원에서
SEH
경제성
분해를
분해의
실수하기
##ercad
재사용이
질의어
질의를
트래픽이
아이패드에서
진단하고
현황은
스크린을
포트폴리오에
초급자를
순위와
DBMS에
DBMS와
바이두
박스에서
복원하는
퍼즐과
폰트와
내려받
인터뷰에서
스케줄링의
클로버
상대의
상대참조
Visualization
느껴지지
대화상자로
주입과
##uxili
트렌드의
트렌드가
##JSON
trac
trace
악성코드와
PRODUCT
레코드와
그레이디언트를
Repl
사고력의
비전공자인
운용의
운용성
운용할
##essional
구독자와
역전파와
출시에
생태계는
생태계에서
라우터는
Swagger
다가오고
구성요소와
조립을
탐구해
탐구하는
##문자열
테스팅의
확보하고
IDE에서
chat
코어와
패러다임으로
Mongoose
오차를
접근법과
접근법으로
하루에도
담아낸
비법이
서적과
서적입니다
판별분석
##교육을
취업에
바라봐야
보조기억장치
매칭을
해커는
머티리얼과
DEF
DEBUG
절대적으로
선생님과
settings
통제할
드라이브를
되었을
시그마
윤리가
윤리적인
군집화의
파드에서
라즈베리파이에
서명을
시작할지
핸들러를
핸들러의
획득하는
표본을
굿즈로
Logo
높아져
리더를
문화에
나머지를
현상은
파티션과
개정판입니다
pytest
요인과
제너럴
인스타그램을
NumPy를
가속도를
바뀌게
과학자로
과학자들은
strace
structure
화살표만
단락의
의료와
있었으면
Printing
원근감을
Masking
돌아보기
건축과
운동의
블랙홀
블랙리스트
바둑을
회귀분석을
##riding
Temp
DataFrame을
DataFrame과
대안이
미세한
미세조정
대중에게
라이트룸에서
인텔리전스를
DCOUNT
익숙해지고
지나도
지나가는
하나하나의
오버로딩과
용량의
시리얼라이저
Outlook
인텐트의
바닥에
캡슐화하기
사람들에게도
걸음부터
반사광
신경세포
Datalab
펼쳐서
펼쳐보자
잠금과
초등학교부터
강사들이
너비와
Storybook
Notion을
엔티티와
언급되는
언급하지
블루투스를
워커를
대회에
레지스트리와
일어났
잘라낸
유전체
독자들에게는
스플렁크의
matdist
opentutorials
연필로
Mono
Month
Money
Toast
규제를
커버로스
PageRank
Filters
키바나에서
정부와
장소에서
플로우를
시청자를
스타트업의
매뉴얼이
패스워드를
C언어는
섬네일을
호스팅하기
상관관계를
STL을
STL의
Minimum
##적이거나
불안정한
Overloading
글씨를
Apriori
adb
생존자
정보통신의
교사들이
DHCP와
인정하고
SOA
Assets
전파를
화이트밸런스
PCA를
IO를
매체의
프로토타이핑을
제이쿼리의
확산과
아티스트의
의식의
막막할
페인트통
netstat
드러내
오픈스택을
WinForm
구상하고
근무일
Corners
칼리우
RxJS는
해외의
##스코픽
독학용
nullable
async와
DevOps의
머리글을
사이언티스트는
기능들만
RStudio의
청소년이
Theano
신용도
텔레메트리
Keras로
나이츠
채택하여
태블릿에서
마이크로비트는
##프로그래머
엄선해
후반부는
##erge로
files
##Console
FrameLayout
암호화폐의
##네트워킹
Twitter
당시에
발휘하여
창작물을
애드몹
잡아내기
override
무시할
하드디스크를
하드디스크의
##느냐에
동료들과
캡션을
Operation
TreeView
좀비가
후기입니다
공공데이터를
MakeCode
배경색을
리턴값
Meter
Measure
serial
떨어뜨
에뮬레이터로
DRF
어려울까
발명품
Series의
배포판을
SimpleRNN
코덱과
모노라인
행복을
##파이썬을
비대면으로
위키백과
궁금해할
ZBrush를
SparkSession
일어나는지
RDS를
출현으로
애너그램
##amples
DSUM
##lify
테크놀로
RabbitMQ의
##ucket
FORE
개설하기
막대그래프를
단순화하고
영향력에
통일하기
옵저버블을
핀테크와
도달할
맞이하여
Markup
스니펫
이루어진다
정규분포의
VRayS
로보틱
예산을
유입경로
사람들과의
intro
화두로
Slide
multiple
루마퓨전
쿠폰을
규약을
openpy
녹아든
도래할
##회사에서
Customer
국민연금
배움으로써
스코어링
준비할까요
리모팅
리모컨
Balancing
BoardService
meta
이로미
찍어내듯
시간대별
익스프레스로
JUnit을
##대학원
유발하는
Analyze
NativeScript
피사체를
모르겠는
numpy의
주관적
##스럽고
오리진
전이학습의
Primitives
컬러링하기
Polygroup
Author
기분을
기분이
환영한다
오토마톤
매니지드
##embers
이루어지는지
빨간고
스파이시를
접해보지
RBF
SageMaker를
abs
publish
components
RSTP
집어넣기
느꼈다
무게를
트리밍하기
익스포트하기
Vertical
글상자로
CardView
벌어질
벌어지고
악보를
Squash
혼동행렬
CircleCI
담았으며
드물게
줄어드는
청중의
리졸버의
비결은
외국어를
데이터마이닝의
DTO
Rectangular
그녀는
가르치면서
실어줄
영진닷컴수험생
행정구역
크리에이티브한
즐거워지고
RMAN의
FastText
불러일으키
Geolocation
HttpSession
거치대
즐기며
오름차순으로
MDP를
데이터사이언
선사하는
analy
SAMBA
##Keys
변화시키는가
PPPoE
TTL
끼치는지
에이다부스트
##복잡한
레퍼런스로
반가운
리다이렉트하기
BoW
Handle
etcd
##forc
안쪽에
쿼터니언
그레일즈
응원합니다
출제경향이
못지않은
VCF
최강자
파파와
한곳으로
에니악
엔디언
스마트홈M
Actual
NaN
입맛대로
##voy
##자바스크립트
##폴로지를
RemoteWebDriver
클립스튜디오의
앱스토어에
##시각화
Comprehension
Jest를
에반젤리스트
SpriteKit
라이트매스
Comparable
Commons
뉴턴의
브리핑
브리징
열광하는
레지스트리를
러니어는
쉬우면서도
일회성
##Param
##Any
이끈다
OLAP
mongoose
아웃포커스
아크릴
##Until
뚜렷한
몸무게를
##Device
컨트랙트와
브라이언
손익계산서
Activate
어드밴티지
가성비
강건한
리워드까지
##Serializer
재정렬하기
Statistics
라이언하트
Roughness
Imager
창립자
빠져나오기
DenseNet
Juniper
디컴파일러
재발견
스피치노트
작심삼일에서
겉핥기식으로
AspectJ
volati
무릎을
상탯값
입면도
포지셔닝
간단명료한
아이소메트릭
Sales
gpio
개개인의
필압을
허니팟
화사한
##Database
##파워포인트
리사이클러뷰
CISO
VaR
눌렀을
미흡한
빅쿼리는
학사관리
자동부호기
PCAP내
promise
##FORMUL
Ducking
Mosaic
Tinkercad
구루들의
연말정
##다이어그램
##Command
아기자기한
FINAL
귀엽고
톱니바퀴
##erived
알파스타의
##erscore
Augmented
NiFi
갤러그
도무지
선인장
스포트라이트
한입에
Scopes
MINIFS
GoogLeNet
HATEOAS
드래곤
무심코
스네이크
스텐실
어그리게이션
접미사
##Switch
Straight
Eraser
LUIS
kmalloc
동키카
무용지
애플리케이티브
오다시티
프로퍼티스를
최소공배수
서울특별시
CONCATENATE
Fargate
기꺼이
꿈돌이의
데카르트
맥가이버
불충분한
시시각각
알록달록
에라토스테
에스티메이터
위스콘신
임팔라
장밋빛
저금통
좌충우돌
천차만별
터무니
트렁킹
인터페이싱
초등컴퓨팅교사협회
##uxiliary
matdistudy
openpyxl
Bell
Brain
Blob
Bounce
Cac
CAM
Cron
C프로그래밍
Clean
Coders
DG
DK
DAR
DART
DIG
ENS
EFF
Fro
Ful
Footer
Faces
GR
G형
G와
GL
GAS
Gluster
GDI
Har
HCI
I형
INC
JD
JE
J형
JK
JAGS
JtR
Ken
KOR
KDE
Killer
LR
LK
License
Lomb
Mont
NNC
OV
O와
OData
PAR
Pig
POM
Pipe
Pencil
RU
Rock
Rust
Rcpp
SIG
SCon
Uti
UDK
UCI
WA
Width
X에
bid
banner
cre
cURL
cmdt
cuDNN
dl
di
du
day
every
edu
fn
fol
fps
frame
fail
feat
false
fixed
friend
flask
game
gzip
knit
kmem
late
library
mr
memo
mount
n까지의
normal
pic
priv
pie
pages
pagination
pragma
ratio
sn
sb
sps
sale
some
svelte
zon
ㆍ인공지능
ㆍ클라우드
가법
가사
감추
갑옷
값에서
강을
강사의
같다고
개에
개시
개행
개국
개량
거시
거치는
건조
건지
걸려
것인데
겨냥
계급
골치
곱의
공과
과부하
구를
구의
국기
권할
귀환
그밖의
글쓴
금물
기적
기쁘게
길어
길찾기
김정
김상
끊고
끊이지
끝내고
끝난다
나섰
나레이션
나이프
나이에
나왔습니다
나옵니다
난다
날려
남이
남기는
남들보다
내리고
냉각
넘지
놀지만
놓친
늦지
늦게
다해
다야
다닐
다입력
단비
단련
단짝
닫힘
달팽
달하는
닮아
닿는
대방
대목
대박
대분류
데미스
동화를
돼야
되찾
둘이
둘레
들의
들이는
들인다
등치
등고
등산
등받이
디센트
딥살
떼고
뚫기
띄우는
랩터
럭키
레몬
레코더
로커
로킷
로부터
리베이스
리로드
리모델링
리마케팅
마리의
막아라
만원
만점
맡게
매트리얼
멋있게
메우기
면도
못하더라도
무장
무당
문에
문답
문명의
미드
미치지
미지원
박사의
받으려면
밝힌
백전
버디
버트를
변종
변하게
별자리
보틀넥
볼린
부장
부지
부대
부르기
불고
불친
붓글씨
비휘
비연결
비평가
비인간
사본
사장
사탕
사지만
새별
새겨
새벽
서사
서클
서체의
섞인
선에
선화
세모
센드
속에서도
손의
수고
수퍼
수련
쉴드
스텔
스팬
시모
시드
시킬
시군
시애
시안을
신약
신설
신프로
실은
실장
실증
실숫
실거래
싶게
싶나요
쌍대
쌍둥이
쌓으려는
써포트
쓰거나
씨앗
아처
아시나요
안될
않다고
알겠
애로우
애초에
앤티
앰비언트
약정
양파
양산
어써
어필
어렴
어쩐
얽매
없으니
에이브로
여성을
역재생
연역
영락
예P
오도
오디
오싹
오캠
옮겼다
왔는지
왕자
요긴
요점을
우산
워프
원더
원장
원으로
원하고
웨이트
웹스크래핑
위와
위기의
유체
유향
유휴
유쾌
유토피아
유능한
윤택
윤리를
으로서
은밀한
음모
음표
음량
의약
의구
의도와
의상을
이가
이뤘
이면의
인이
인자의
인정한
인젝터
일컬
일석이
입ㆍ
자르
자스민
잘게
잠든
잡다
잡과
장군
재치
재창
재부팅
저의
저서는
저처럼
저용량
전선
전담
전념
점증
점으로
점추정
접점
접한다면
정거
정성을
정하자
제주
제도의
조력
종로
종량
종횡
좋겠다는
주무
주먹
주가를
주전자
중이며
즉석
증식
지팡
지치게
집라인
짤막
차가
차량의
책장
책정
책이기
책만의
챕터의
청사진을
체류
체결
체력을
초마다
초평면
축과
취하고
층으로
침략
침실
컨커
컨텐
컨버전
컴퍼
케이
코일
코믹
코스를
콘다
콘크
콤팩트
쿠션
클로드
키보
키스토어
타기
태어나
탭으로
테니까요
토치
토폴로지를
톰슨
통화하기
통틀어
툴에서
튜플로
팁들을
판사
판으로
패닝
패럴
패닉
퍼실
펜으로
펴기
평탄
포상
포즈를
폭로
표기를
플럭
핑크
하이어
학자
학회
한참
할지도
합과
합치
합동
해밍
핸들을
했는지
행이
행씩
향수
허리
헤일
헤딩
협력을
형과
형이
호의
호주
호러
화요일
환기
환원
환불
효용성
훅을
훌쩍
히어
히프의
힙과
##포머
##감의
##졌으며
##졌다고
##다시
##기다
##어트
##차는
##차이즈
##D를
##DC
##Del
##Day
##Ph
##RECT
##Row
##Read
##스쿨
##sql
##self
##eor
##Sch
##Sync
##top
##oy
##off
##right
##과천
##수행
##수염
##아침
##프라
##리듬
##더의
##로울
##서적
##M과
##pa
##print
##plex
##Empty
##조명
##장별
##라엘
##라즈
##라시안
##uum
##uard
##uilt
##격을
##파의
##batis
##C를
##Count
##드롭
##mt
##mine
##URE
##Util
##Bl
##Body
##Job
##원근
##원짜리
##시장의
##OG
##되나
##되길
##대표
##대칭
##선언
##와서
##X의
##법도
##자원
##치다
##공을
##공과
##사자
##사설
##사비스
##식이
##턴트
##저히
##Iter
##GR
##GW
##할지도
##워서
##신의
##인구
##Label
##Latest
##WR
##WAN
##소시에
##능력과
##루는
##제법
##제공
##제적
##관에
##관절
##석을
##두었다
##했거나
##오늘
##오염
##티켓
##풍의
##코스터
##코디언
##fd
##fall
##운전
##매핑
##망과
##상속
##상과
##상에서의
##불가
##봇의
##미경
##린이
##wt
##wd
##러티브
##증이
##증명
##론과
##네릭
##근로
##무능력
##팀장
##편의
##퍼를
##실기
##브스
##추론
##결한
##냐고
##키나
##웨이트
##노동
##센서로
##날리는
##있고
##딕션
##칩니다
##빅데이터
##솔루션
사용하더라도
데이터인
데이터들이
데이터플로
만들기의
만들기는
##스트루
방법뿐
##tirq
##tiCache
##tere
##termin
이용되고
기본원리
##inet
##inforc
이해하려는
이해됩니다
분석함으로써
분석모형
분석유형
설정에서
설정하자
##APT
CHAR
설명에서
##aring
학습데이터
학습자들이
학습시키고
파이가
생성하여
생성하라
알아가기
코드란
코드포스
기술로서
프로그래밍이라는
구현은
구현에서
구현하여
구현하려면
요약의
요약할
도구라고
프로그램들이
##itecture
프로젝트나
이미지만
##leb
필요조건
시스템도
실행자
실행하자
서비스로서의
개념들과
개념잡기
구조나
구조보기
적용하지
알고리즘부터
작업물
작업창
시작되었고
정보검색
정보전송
파이썬다운
인공지능에서
인공지능부터
인터네트워킹
핵심에
게임처럼
환경이나
따라가지
애플리케이션용
테스트하자
사용자화하기
##roy
##rott
선택적인
선택자의
언어만
언어이기도
컴퓨터랑
컴퓨터에서의
컴퓨터시스템
네트워크란
확인한
확인해보자
확인퀴즈
보안사고
입력층
입력한다
입력해야
입력하자
입력장치
저장하지
제공하였습니다
제공해주는
기반하여
필요한지를
필요한가요
정의되지
연결하다
단계ㆍ
실무진
실무엑셀
과정에서의
표현력을
구축하여
구축까지
구축하려면
해결합니다
해결된다
해결법을
시간대를
관련성을
개발자와의
사용해온
검색은
프레딕션
페이지별
페이지는
만들어줄
만들어갈
문서마당
문서화하는
모듈형
가능하기
가능했던
조건식을
배우세요
배우시는
반복으로
반복한다
반복해야
타입이란
중요하며
지식들
지식뿐만
생각한다면
생각됩니다
부분들이
운영에서
스타가
##edy
##edelta
특징량
결과에서
분류별
표시하여
표시하자
하나일
정렬해
정렬하여
속성은
속성후보
레이어만
확장해보기
소스코드는
동작할까
원리까지
아니므로
SQLD
가상메모리
차트가
모델링으로
모델링하고
배포가
이론에서
상태정보
컴포넌트가
컴포넌트들을
비교가
패키지란
교육청
안드로이드란
안드로이드폰
관계대수
입문하고
삽입할
예측은
예측모델
윈도의
과학적인
과학적으로
##ulp
세계에서의
세계경제
Init
Intr
디지타이즈
탐색한다
완성과
완성합니다
컨테이너라이저
연구문제
연구방법
연구보안
문법들을
평가가
자바스크립트에서의
암호로
암호기술
##urf
이름도
조절되는
조절해보기
IP주소
우선은
수학으로
수학이라는
사용법까지
이유이다
공격은
찾기가
변화율
##udge
핵심기능만
공유하며
추천하기
복잡해지는
##admin
프레임워크란
수정에
수정하거나
형태는
바꾸다
바꾸지
바꾸거나
오류나
수행하며
인증에
인증기관
배치에
지원하도록
##ung
사고법
인식하도록
모니터에
들어내기
도전에
##STRU
모바일에
모바일팩스
합성한
for를
옵션ㆍ
단순회귀분석
않는다고
Exam
이상은
기계에서
채널이
채널별
흐름제어
목표입니다
전달이
전달하라
공간적
빌드에
발전사
IT가
IT와
쿠버네티스란
##변수와
도구로서의
수준에서의
검증할
검증으로
개선의
역할도
전환의
전환이
전환하고
의미망
이야기하기
결정판
결정체
Reverb
injection
기획자로
중심을
분산의
작동하기
작동한다
작동하며
오픈채팅
제거할
호출자
하기도
훈련의
지능적으로
파워피벗
##irm
지도안
워크를
워크시트로
가이드에
노드렛
사전준비
사전확률분포
단위가
고려하자
##ypes
##시간이
내부자
하드웨어에서
노하우로
Steps
동시성의
연동시키기
##체인식
전송에
플레이헤드
변형해서
역사가
안내와
대응이
디버깅에
자유로워
방향에서
##구조를
##구조의
##정보화
업데이트할
업데이트했다
보정할
텐서플로는
선언을
요청하여
유지한다
유지하며
리액트에서
자막바
자막으로
키워드에
Try
특성의
부트에서
컴파일의
보호기
보호해야
##파이를
##omposition
영향으로
자주하는
물리학의
정책이
평균값과
스레드에
바탕색
초보자나
초보자라면
사용되는지를
접속하고
최대우도
결합도를
모양에
샘플의
의사의
##tices
읽어보
읽어보세요
읽어보길
복제의
렌더링하는
인스턴스로
인덱스에
사운드와
워드의
PyPy
완전하게
도서에서
원칙은
대표님
대표전화
조직적
조직적인
##ipulation
번역된
번역어플
##리티컬
제한을
제한적인
추적할
상품명
실험적
성공하기
스케치로
고객사
spark
수업하기
전처리기와
##INK
##화된다
게시물을
모션에
##heus
##ensity
Arg
Article
전자기기
주는지
품질이
Shelf
익숙할
존재합니다
사실도
얼굴로
활성화를
활성화된
스크래치에
넘어야
JSONPath
probe
한국인의
체크를
체크포인팅
Java로
Java와
부족함을
해킹은
##ressed
이전과
집중식
##예제를
편리합니다
복구의
압축의
압축하여
문장은
문장이
시나리오로
메일과
WebClient
축소하는
그레이들은
반영할
블루레이
블루스크린
##Standard
엔트리의
상관없다
드로잉은
드로잉으로
군집화와
합성곱신경망
자율성을
LED의
LED로
LED제어
액세스할
반환값을
생명과학
생명주기를
유사하게
탐지하고
입문서의
작품이
제목은
제목의
알림과
이슈로
##obot
챗봇에
금융을
Translate
XML의
수치가
플레이어와
자체보다는
프로퍼티의
PDF와
시장과
방법론으로
비밀스러운
조인으로
개정한
장면이
아트와
다이어트
UNIQUE
셰이더가
##igned
인물이
카페의
해석의
예상된다
공학도
클릭한
클릭하기
ML로
메이키
판단하고
스칼라에
입체감을
Python으로
수익이
GAN으로
합계로
정의하기로
무선으로
회로와
일정표
일정하게
조사와
경쟁을
경쟁적
나누기로
뛰어들어
표기하여
만화라는
의존성에
Blind
정수론
태스크에
Envoy
입문자들에게
습득해
상상한
상상력과
Interview
글꼴로
CLR
국가가
종합하여
Keyer
노출을
노출의
스테이터스
충돌체
투자할
투자하면
##View를
혁신적으로
책임과
탄생의
기울기를
교수진의
URL과
URLConnection
전공을
##ldump
크롤링하는
제안된
제안하고
발표했다
scatter
채팅창
캡처를
캡처한
캡처해서
라이센스
버그로
컴파일러는
해답과
퀴즈로
필요성은
스토어를
네임노드
##되었으나
미국에서는
담당자가
감정의
부여한다
되었다고
단원문제
SEQUE
GPU는
GPU에서
여부와
놀이로
실수하는
증가에
증가와
경계선을
아이패드의
주목하고
현황표
Set과
가격과
조명이
데브옵스와
순위화
임포트와
융합을
융합해
융합적
융합하여
융합보안
만족시키는
CodeBuild
시점이
애플펜슬
프린터가
클로스
##프로그램을
##프로그램의
##프로그램만들기
Respon
학교나
##REG
테두리가
Partition
연출할
적용해보고
Reactor
칼럼스토어
유니버스
가정과
출시한
생태계가
어린이들을
꼼꼼하고
자리잡
탐구를
호환이
분기하기
규모를
ISDN
IFTTT
ModelAttribute
CI와
리팩토링을
담아내는
작가다
contain
BIND
서적이다
Prev
##eadm
플러터에
RPA와
써먹기
##mplement
해결책으로
가상현실이
해커톤
해커들이
아카를
자격증은
수험생이
열거하기
절대참조
데스크톱의
데스크톱에서
VBA의
사용한다는
붙여넣기로
선생님들이
##line을
무한히
트위닝
구현할지
Microphone
되었지만
클로저를
스프라이트가
스프라이트와
혁명적인
once
드롭으로
서명하기
판다스와
Logs
Logistic
나온다면
높아지면서
세대별
토픽의
##Content
메타버스와
마련하기
터치와
Adding
베스트푸드
개정판에는
도출하고
인스타그램에서
예술의
있었다는
다형성의
실현될
설명해줍니다
Camera의
동물을
출발해
출발한다
대책의
인코더와
과학자들의
strc
아날로그와
문제해결력
art
arw
분석가와
감시하는
스프레드시트와
Pretti
표지글
커뮤니케이터
숨겨져
자산의
댓글로
완료하기
똑똑똑
ADSL
디테일하게
데이터프레임으로
걱정도
걱정이
포기했던
교환하는
미들웨어를
상세페이지의
JSP에서
커뮤니케이션의
대처해야
라이트룸으로
리스닝
유지보수와
걸쳐서
나열이
생명주기에
익숙해지
지나친
지나치지
풍경과
##Chat
##Child
보완하여
##방식의
앵귤러를
어려워서
어려워요
취득과
취득한다
제너레이터와
environment
인텐트로
인텐트와
ARMv
우분투에
푸시와
ICBM
반사와
월드컵
런타임을
선명도를
##shoot
Lambda를
엘리먼트와
초등학교는
많아질
고전물리학
Words
너비에
응용프로그램과
캐글에서
코딩맨과
리서치의
워커의
이점은
최소화하면서
실천할
유지보수하기
고양이가
작용을
작용할
잘라내는
이루어지지
병행하여
온도센서
while문과
Flame
종사하고
헤드헌
헤드마운트
부드럽고
스크립팅을
Monster
Toe
창업한
거버넌스와
방문자가
PPT로
결제를
플로우차트를
무결성과
C언어와
주인공은
Minikube
실습문제를
이끌어가는
uni
iden
PostgreSQL에
중단점
파이프와
높이도록
Material의
일상생활과
건강을
건강보험
인벤터란
들여다보면
JAVA의
뉴럴넷
스토리텔링으로
DatePicker
Meteor
정밀한
지점에서
몽고DB에
고가의
탐험을
패브릭을
화이트박스
사이클을
매체에서
짚어본다
가독성과
신속하고
확산을
초등학생부터
생겼을
생겼습니다
작성법과
오픈스택의
이더넷의
Region
##대상독자
선별했다
머릿속으로
통과하기
##개발자
호기심이
발달이
발달로
손글씨를
메이븐을
에너지를
개인정보보호의
마주칠
지수함수
하강법의
베스트셀러인
오케스트레이션의
오른쪽에
Softmax
분들이나
리스너를
거쳐서
권장하는
증강현실의
RAND
코더는
팝업창
##클래스의
트랜스포머를
청소년을
청소년들에게
ALB
영문판
장에선
텔레포테이션
브랜치와
마인크래프트를
PEP
제로데이
지적재산권
핸드셰
##시험을
Size와
기원과
기원한다
Manager를
타일링
불확실성의
유리수
은행에서
##사회에
데이터과학을
##Shift
에코백
응용문제와
일으킨
##기반의
람다식의
MACF
케이블의
망고보드의
활약을
활약할
전부는
대학교의
애드포스트
잡아주는
정체는
설득력을
참가하기
Geom
백그라운드에서
뽑아서
성격이
운전하는
Processor
##vision
브로커를
동료를
동료보다
Automatic
Blocks
암기할
앨범제작
단말에
사무직
요일을
요일과
사원수의
##oftirq
도표와
러시로
에뮬레이터를
크리스티
Raycast
접목할
채워지는
Distributed
대기업의
종목의
마크다운으로
Brute
GridLayout
stringr
스크래핑과
NUKE
XD의
관측성
그때마다
##igits
Agile
마우스의
GCP를
가속도계
Presentation
리플렉션을
내림하기
명시하기
전공자뿐만
목소리로
성별을
기억장치의
배경음악과
Coffee
SCA
Scalar
실적을
바닥글에
달려있
Corrector
MAXIFS
clothes
xxv
일시적으로
헷갈릴
코랩에서
아우터
아우른다
넘어가도
콜라보
시뮬레이터에서
EE로
alt
helloworld
열정적인
외곽선과
파고들기
리버싱을
통계분석의
몰라요
학술연구
Slave
##iano
models
Isol
Loader
일자리는
바이오리듬
지브러쉬
GNOME
Weight
해부학
플레이북을
claim
마진과
Archive
MIDI
Tasks
BoardDAO
익스프레스를
Many
Manipulation
record
연령별
스노든
가용성과
피사계
피사체와
가이드북이다
OCR과
##자들에게도
HUD를
얘기하고
표정을
##Enumer
끌어올려
끌어올릴
Startup
tbAdmin
딱딱하고
Cookbook
탐욕적
도약하기
동반자가
멈추는
가져다준
서브타입과
링크드인
덧붙이기
웹캠을
스파이웨어
즐거움과
단단하게
cpus
##One
남겨주세요
조심스럽게
불어넣어
Architect
Eclipse에서
나가야
styled
지브러시에서
교훈을
검은색
출제기준에
HEVC
여유가
주위에서
양자역학은
양자역학이
Prior
민주화
SuperMAC
많을수록
태양계
poly
일어나지
경과에
디펜더
추억의
##Depend
초고밀도
##ereum
People
passport
놀랍도록
조도센서
상대방에게
Solidity
devtools
worker
퍼시스턴트볼륨
##확인하기
views
고쳐야
입증된
WPAN
Anywhere의
계절성
안타까
안타까운
##orphism
Refine
RoBERT
Validator
신중히
진정으로
Creating
Gallery로
비평자
스며들어
최저가
Executor
토크나이징
Wireless
fastai
goto문
웹플럭
드리븐
변천사
펼쳐질지
WordArt로
깜빡이는
소문자로
응집도
패킹과
SRE의
자부합니다
##STEP
##dsl
Extensions
WSGI
VHS
안심하고
##Meter
중간중간에
초월하는
##Select
Shortest
한쪽에
##swith
Lifetime
Certified
tidyverse
대다수
책들과는
SNS소통연구소는
distribution
다각도로
되새김
국가직무능력
##Expression
SharedPreference
세우자
애매한
집대성한
StatefulWidget
Download
aggregate
극단적인
포커스를
사진가처럼
전자회로를
architecture
Horizontal
할로코드
프로듀서의
선형대수의
Trusted
CNCF
Halft
hashCode
대략적인
유닉스의
RadioButton
deploy
navigator
컨트랙트를
회사소개서
DXF
Framer
RMSProp
vmstat
뿌듯함을
소스트리에서
스튜어트
실정이다
실정입니다
익스트랙
전유물
전유물이
출석부
Large
caret
기입하기
보인다면
전무한
Steam
Unicode
Unicast
HDLC
플루언트디
납치된
토마토
EFK
Turb
emac
미트닉
현주소를
embedding
무방하다
아님을
코딩천재의
머지않아
Emboss
Kali
은은하게
퍼스널
Erase
Nearest
XYZ
애스펙트
오르내
카트폴
다중선형회귀분석
unsafe
Photomerge로
SPARQL
Perfect
Crawl
RViz
Rails
호응을
##패키지
클로즈업
Counter
눈동자
잊혀질
IPTables
컴퓨팅사고력을
확률밀도함수
부트캠프
Displacement
RADOS
Saved
sentence
위글러
전가산기
Subdivision
Desaturate로
Alive
글리치
스미싱
융통성
이스라엘
테인트와
인터폴레이션
RLTrader
오준석의
ZOOM
디멀티플렉서
애호가
프랜차이즈
coupon
개인정보처리방침
DispatcherServlet
베이커리
margin
두음쌤
뚜루뚜루
래그돌
레티클
롤러코스터
익힘으로써
지자체
파운데이션
ARRAYFORMUL
DAVERAGE
Teachable
스컬프팅
Objective
CAPTCHA
ElastiCache
SURF
껍데기
나인패치
비잔틴
셀링포인트
템플렛
##Validator
컨트리뷰터
##estruct
Deferred
ESXi
나이츠랜딩
##Anywhere
연말정산
Straighten
에라토스테네스의
GlusterFS
Lombok
knitr
zonel
대방출
등고선
볼린저
비휘발성
시군구
어써션
어렴풋
어쩐지
입ㆍ출력
종량제
콘크리트
##inforcement
세계경제포럼
RoBERTa
국가직무능력표준
Aur
AGI
Bio
Beta
CK
Cod
COP
CRO
D는
DJ
Dream
Demo
Dapp
Dyna
EP
Equ
Eith
EKS
FD
FIF
Flip
FaaS
Fading
G의
GI
GW
Gin
Great
Gensim
Her
Hang
Hidden
Hair
HASH
IB
INN
Jess
JMeter
KR
LB
Lam
Ligh
Last
MD
MSS
Med
More
MRO
MAY
MBR
NBA
Nexp
OPS
ODE
Pat
RTT
Slot
SAT
SIS
SRP
Svelte
Stere
TB
Train
TSh
UF
UND
Uber
Util
Vi
Var
Vray
VAD
War
Wall
Ware
Water
Wallet
XBee
ZRem
am
ang
age
bound
before
circ
dB
fget
fuse
goo
gif
home
heap
ii
iF
iloc
j의
j로
last
material
mmap
media
management
nest
pb
pow
pos
power
pref
pivot
rename
ㆍ컴퓨팅
가명
간극을
감수의
강하다
강도를
강점이
개성이
거장
거지
거주
거점
거창
거둔
거시적
건하
걸렸
것뿐만
것만큼
것조차
게이미
격차를
견인
결절
계보
계기를
고를
고계
고맙
고르
곳의
공변
공구
공배수
과락
관건
광택
광케이블
구획
군무원
권리가
귀속
근래
글귀
급하게
기체
긴밀하게
길이의
김동
김태
꽃과
꽃병
꾸러미
끌리는
끝났다
나씨
나쁘
나도록
나이를
나갑니다
내일을
내러티브
냈다
네스트
넷스케이프
노름
노말
노드는
논스
놀러
높입니다
놓아
놓치는
니콜
다모
다재
다람
다트를
달에
달력을
달성을
당혹
대문
대미지
대푯값
대모험
데칼
도판
도망
도미노
독해
동서
되거나
되풀이
둬야
뒀다
뒤흔
뒷이야
든다면
들기
들게
등호
떠날
떠다니는
라틴
라테
라켓
라우드
라이블
레어
레오
로케이션
룩앤
르네
르쿤
리로딩
마모
마약
마친다
막혀
만년
많았
많을까
말까
말았다
맛보고
맛있게
맞고
맞도록
맡기
맡길
맡기고
매카
먹음
먹으면
멀다
멀티브
멋쟁이
명문
모닥
모이는
몫이다
못하지만
못한다는
몽땅
무균
무기를
문어
뭘까요
미시
믿습니다
밑바탕
바리스타
박싱
반으로
받으면
발화
발병
발상의
발판을
밤을
방금
방패
배드
배압
배움을
버즈
버섯
버리기
번짐
번이라도
범프
법까지
벗겨
벨로
보트
보드로
보았다
보일러
보수와
보았을
본래
봤을
봤지만
부산
부흥
분들과
뷰그룹
비공식
빌게이
빠를
빨강
빼곡
뻔한
사서
사료
사안
삼는
삽화를
새내기
색은
생체인식
섀도우
서두
서문을
설렘
세기에
섹시한
센시
센싱
센터를
셀카
소결
소벨
소잉
손안의
수법
수제
수령
수고를
순조
숨긴
쉐도우
스플릿
슬림
승진
승리를
시차
시에도
식탁
실드
실태
십진
싱그러운
쓰나요
쓸데
씌우기
씨의
아보
아규
아코디언
악기를
암실
양은
어반
어쨌
어머니
언뜻
얻길
얻으려면
얼럿
에폭
에스토
엔틱
여느
역자가
역추적
연비
연ㆍ
열에서
염색
영입
예가
예방법
옐프
오를
오드로이드
오세요
오르기
온전한
올까
왓츠
왔을까
욕구를
욕망을
용기를
용도를
우정
우대
우클릭
운영상
울펜
울트라
원금
원점
원색
원유
원서는
월터
위함
윗주
유격
유즈
음정
의하면
이경
이들도
인티
인내
인플
인력을
인자가
인스트루
일로
일조
일등
일종
일찌
일요일
읽으
잃게
입원
입실
입구
있소
자승
잘하면
잠수
잠들
잡담
잡스의
재형
재배열
재탄생
저를
저에게
적힌
전장
전업
전편
전하며
전까지는
절에
절편
제각
제휴
제책
제스트
제출문제
조만
좋았어요
주부
중도
중입니다
증후군
지칭
지니는
직감
진공
진도를
징검
짜여
짝을
쪽이
차츰
착안
참으로
찾으
채무
책장을
책소개
책속으로
척도를
천장
첨삭
첫번째
초면
초에
초벌
총매출
최적인
최강의
축으로
춤추기
치아
칼만
캄캄
컵케이크
컷을
코앞
코그니
콘셉
콜로
쿠쿠
큐레이터
큐비트를
크지
크리티컬
키오
키체인
킴벌
타야
탄약
털어
토의
토요일
톤의
통화를
퇴치
툴입니다
튀어
튤립
트루
틈을
틈새
티커
파사드
파케이
패시브
퍼널
펜과
편곡
편으로
편지지
펼칠
펼치면
평문
포르
포탄
폭력
표제
표집
푸쉬
풀의
풀잎
퓨저
퓨즈
프랭크
프라임
피카
피상
피셔
하스
하프
하든
학계와
해가
해지
해고
해저드
핸즈온
했으나
향하여
헥사
현시
현관
현역
협조
화제
화제의
환전
환자를
활력을
회선을
후견
훅의
훼손
흔적을
힌튼
힘듭니다
##감치
##감독
##부저
##졌기
##졌는지
##기사를
##어링
##Var
##Deb
##Derived
##Ptr
##Picture
##작동
##스레
##스텐
##스텝
##도시
##so
##sting
##SE
##Sy
##SECT
##SNS
##SOR
##cale
##tens
##olo
##otify
##oPie
##rec
##race
##의무
##hen
##holder
##ities
##이신
##한국
##보단
##리한
##리스를
##로컬
##서로서
##서피스
##ae
##Mon
##pus
##조인
##조립
##장비
##라리
##vr
##util
##커녕
##body
##bee
##가노
##CG
##Create
##Color
##CODE
##화한다
##화되는
##함에서
##호의
##Bal
##BOK
##Blob
##Buzz
##형제
##형식으로
##dler
##원리와
##시죠
##Off
##Own
##Tig
##Tree
##되곤
##지던
##정부
##선수
##AIN
##Audio
##Ass
##자유
##치로
##진창
##공단
##사냥
##방성
##판과
##전국
##주자
##저것
##저자의
##Init
##QA
##캐스틱
##Game
##GRE
##고침
##신뢰
##적일
##인형
##인성
##인다고
##니와
##ㆍ수
##ㆍ문ㆍ
##LD
##Loop
##Location
##Wrap
##소에서
##물리
##들뿐만
##세의
##업체의
##계열
##각과
##픽셀
##카트
##습ㆍ문ㆍ
##제플린
##분들이
##냈어요
##두체
##했기에
##길래
##마음
##엔드로
##Hel
##Handle
##생들이
##레인지
##색상
##디안
##학회
##타이핑
##우주
##우리는
##러티
##위성
##위험
##zing
##zilla
##써의
##베타
##무료
##팀의
##말을
##편으로
##크를
##겠어
##혼합
##등학생
##임은
##임베
##거울
##았는지
##복지
##토피
##클럽
##클러스터
##구는
##구요
##Zone
##백승
##권과
##키워드
##좌우
##재를
##퀀트
##건우
##난히
##막대
##뮬레이터
##통합
##컨테이너
##페인트
##절대
##척도
##칠한
##슈아
##택시
##책에서
##섹션
##웹로직
##께서
##셀로
##북스의
##빠르게
##닫기
##벡스
##허가
##펜으로
##따로
##묘하게
##특징
##핀스키
##하기가
##하기보다
사용했습니다
사용하므로
사용하려고
사용하면서도
데이터랩
프로젝터
##onder
만들기가
만들기부터
방법들이
활용하며
활용하거나
활용하도록
활용방법
활용하세요
함수부터
함수식을
기능이다
이용합니다
이용하실
기본기와
기본프로젝트
기본실습문제
##inal
##inance
개발될
개발이란
개발뿐만
이해될
이해된다
이해시키고
분석가는
설정법
설정파일
구성기
구성합니다
구성됩니다
구성했기
문제별로
문제들로
모델도
실습해본다
설명보다는
##estion
##aration
학습하자
생성되고
관리용
관리적
관리하며
코드표
코드만으로
기술력을
예제ㆍ
예제파일
요약한다
소개로
소개에
소개부터
프로그램까지
프로그램들은
다양화
##iton
설치방법
내용뿐만
처리도
처리율
그리면서
이미지넷
디자인된
코딩만
코딩이라는
필요를
필요시
작성은
실행하도록
실행되는지
서비스와의
##OND
추가를
추가하자
개념이다
적용되어
알고리즘보다
작업용
작업실
작업하고
작업했던
시작될
시작하거나
시작하려면
시작하고자
시작됩니다
시작에서부터
시작했으며
연습용
연습하게
인공지능이다
살펴보세요
핵심과
##ason
##asets
환경도
테스트해야
테스트케이스
사용자와의
##rok
선택했다
선택지를
정리로
언어들
네트워크상에서
기초적이고
연산은
연산이
연산들
보안기술
##acuum
서버리스의
객체들
객체입니다
편집법
편집하라
##ethod
입력받고
저장되어
저장매체
제공일
기반에
가지도록
##rees
연결돼
연결되지
연결되는지
단계에서의
사람만이
설계하라
설계상의
##stall
##store
##stash
준비돼
준비하면
자료원
자료나
아이작
아이클라우드
표현은
표현해야
텍스트는
##olute
제작부터
제작해야
제작하면서
제작하고자
구축하면서
##utures
방식대로
관련돼
##되는데
개발자인
개발자처럼
사용해봅니다
명령이
명령문의
검색기
검색해서
스마트워커
##러리스
응용프로젝트
만들어내기
만들어질까
##드로우
모듈성
가능도
배우려
배우거나
배우더라도
변환된
제어어
제어판
제어한다
계산기를
스프롤
출력층의
반복하지
사례에서
시각의
시각이
시각에
중요와
중요할까
지식인
실제의
실제적으로
실제예상문제
생각하던
문자열형
그림이나
부분적인
운영자를
인터페이스란
결과다
분류모형
표시하거나
컴포즈를
경험하면서
경험했던
기법부터
##ises
테이블은
테이블이
테이블명
AI에게
AIOps
애니메이션이
애니메이션하기
필터에서
영역인
빅데이터에서
동작하고
동작시키는
아니었다
것이냐
SQL문을
SQLAl
가상주소
가상기억장치
구글애
배포해
시각화한다
메모하고
마이크로컴퓨터
비교연산
패키지는
보기도
실전과
입문의
익히세요
익히려는
##ama
예측기
##하였기
##하였지만
도움으로
사이에는
통합한
통합으로
##ematic
사항들에
##ulus
때문이라는
InVision
아니라도
아니라면
최신판
탐색기의
최적화가
포토북
통계적인
메모리에서
윈도우가
Proof
메뉴나
가져가
##urer
수집에
IPMI
효율성에
##owired
수학식
그래픽스와
변화시키고
##udini
자신들이
공유하여
복잡하다
복잡도의
복잡해지고
스트라이드
프레임워크입니다
포토샵에
통신으로
리눅스다
수정했다
시대라고
스케치는
필수불가
숫자야구
보고하기
싶은지
모두는
전략적인
사이트나
##iding
전문가도
일러스트에
수행의
수행하게
수행시간
도형이나
배치형
배치관리자
지원해
지원에
지원하는지
인식으로
인식한다
인식까지
##seek
표준안
들어보
도전의
합성하여
발생을
발생과
레이아웃이
프리즈
프리픽스
포함합니다
포함시키기
이상하게
이상이면
##처리하기
Construction
주제들에
HTML에서
진행될
진행했던
##시키는지
자동화는
빌드의
발전하게
목록화
마이크로서비스에서
초기부터
개인은
개인에게
IT기술
다운로드하는
다운로드받을
스파클
##변수가
##uspend
도커란
다중화와
개선점
이야기도
타이어
##avor
결정론적
현재도
integer
기획할
중심사회
멀티호스트
재생과
제품명
비트레이트
작동시키기
오픈제플린
제거한
제거된
제거한다
제거하라
호출한
호출에
상황에서는
상황별로
질문으로
지능으로
엔진인
계획으로
제시하고자
스파크에
CSS가
사전분포
마무리하는
##estroy
관심도
디자이너들의
고려해서
향상될
사회학
포인터는
시험이라도
항목명
어디에서도
기준은
기준점을
무료동영상
##ramid
장치들
학생부터
스트림에
변형한
스택은
안내하기
안내서로
유용한가
확률론적
활용할까
과제별
마스터의
##정보처리
인프라가
##ends
프로그래머나
프로그래머들의
자막의
키워드인
단축번호
Scapy
CC를
부트에
컴파일하는
개체가
서브쿼리를
서브세팅
측정에
계정이
영향도
영향평가
Pose
매크로에
엔지니어나
엔지니어들은
목적별
##akao
도메인에서
도메인으로
브라우저는
암호화하는
결론적으로
오버헤드
스레드란
초보자들은
자료형이
자료형이란
Answ
미디어에서
접속한
접속한다
추상적이고
분리해서
의사를
복제해
렌더링된
시리즈에
워드와
워드패드
이어주는
Pyramid
완전연결
##리스토
등장합니다
할당문
할당된
원칙으로
대표와
##이더만
##UID
번역의
번역하여
번역했다
궁금할
궁금하거나
시퀀서
시퀀서를
기억되도록
지속가능한
매개변수화
구조체에
루프백
절차의
절차가
영화에
영화처럼
AR은
성공에
성공했다
웹사이트나
고민한
고민하면서
고객센터
레시피가
카프카로
카프카는
파워포인트와
##PATH
while문을
##quit
##quel
조합은
조합논리회로
자연스럽고
링크에
##OPLE
배운다고
Appium
모션을
모션과
한글판
GoF
Ads
프레젠테이션에서
수록각
수록돼
수록하였으며
나타내고
인스턴스에서
전자금융
Color를
실용서
실용화
실용성을
NodePort
위험은
Shear
얼굴인식
오토와이어
아이콘의
##ASTER
종료와
종료자
드로워
넘어갔
음악이나
한국데이터
REST를
매핑으로
시퀀스에서
부족했던
이후부터
모의고사로
집중하여
폴더에서
MySQL에서
복구와
자연어를
재귀로
강화학습이란
일부러
해당되는
시나리오의
시나리오에서
##ATCH
한계점을
Autowired
들어가게
반영하였다
블루스토어
상관없습니다
군집의
되어보자
PHOT
생명과
유사점
산업혁명시대
캐시하기
입문서로서
확대될
확대되는
확대해도
테마에
GUI의
라이트의
예시가
주석에
알림판
친구나
발견을
주기로
챗봇이
상호작용에
##LES
지향을
자동차는
금융에서의
진화에
explain
막대에
수치대로
Subnet
SubTool
연관되어
자체적인
노력할
##lyr
이것저것
##시스템을
CPU는
비밀이
로고에
시계열의
유효성을
점검을
점검해
대시보드에서
##criptor
초등과학
시뮬레이션하는
상수로
심화까지
쓰는지
출제한
출제될
장애에
응답과
DNS와
최종점검
타이틀과
해시와
그리드와
매출현황
카페인
오픈소스의
내보낼
랜덤하게
예상을
예상보다
공학이
클릭했을
메이비
출간되고
GAN은
마케팅과
멤버로
거래량
가르친
thrott
조사하고
경쟁자
##관계형
스피커의
스피커와
뛰어드는
언어로도
안정적
체험단
만화는
그려요
계속될
역량의
Enh
문제점에
문제점까지
원형의
상상도
소통은
Interactive
기회의
기회로
개수는
개수만큼
섹션은
프로파일에
Keyword
스테디
스테퍼
스테가노
투명성과
신호가
투자해
투자하여
강좌로
주도적
주도적인
탄생부터
기울인
명확성
애자일과
제네릭스
##환경을
STACK
혼합하거나
가변인자
교수와
방지하며
슬라이서를
브랜치를
제안을
제안한
위협의
scipy
장비로
측면도
Unreal
구매하는
소켓과
주변을
새로고침
생각하는가
사업부
Academy
Origin
iOS에서
상자수염
워크플로의
아웃풋
스토어와
미국을
미국식
가공할
##장치의
담당자와
붙여넣
생각해보면
지침서입니다
##공학과
##공학자
읽는다면
라인에
스티칭
마이닝에
레이블로
결과물이다
익혀보세요
##주의와
스키마의
단원의
단원으로
Server의
Server에서
좌표로
GPU가
GPU와
지연과
놀이공
분해와
질의와
카운터를
고정시키기
고정소수점
로딩하고
가격은
가격에
데브옵스로
인텔의
콘솔과
지금까지는
마법사의
마법공식
바이올린
임포트하는
융합한
융합연구
복원과
베이즈의
트랜지션과
만족시킬
만족스럽게
시점으로
애플은
주식의
jQuery와
계산기로
공부하는데
느껴보기
과목에
과목처럼
프록시와
##bert
시작해보세요
CD용
##ailability
방안과
##uxt
학교와
직장인을
직장인에게
Parents
셰이프로
레코드의
적용해도
칼럼을
간결성
유니런
가정을
라우터로
라우터에
다가서
##그라운드로
구성요소인
동작하는지를
탐구할
비율의
테스팅을
확보를
분류기로
임베딩으로
Notepad
IDE의
수립을
코어를
코어로
메트릭과
Models
패러다임에
오차와
조각의
조각으로
short
Description
비법서
할지에
고유값
업계를
인젝션을
Pref
Prefix
Predicate
##리스트가
##블록체인
디스플레이를
Sequential
LSTM의
해커들의
##encv
상위노출
유저모드
선생님은
선생님들의
백엔드에서
궁금증이
균형이
다듬어
유틸리티로
일관성의
통제를
통제하는
되었는가
범주와
##자료형
윤리의
답변해
Redmine
only
놀라지
서명과
UDP의
획득하고
getDerived
모르겠지만
슈퍼컴퓨팅
콜백과
이클립스와
##프리터
홍보하는
Logstash
높아집니다
MatCap
블루프린트와
마련할
마련한다
마련했습니다
스캔하고
현상에
색인을
파티션을
##모델의
시행되는
개정판이다
피드백과
##tivate
Classic
Classifier
도출을
도출해
도출할
인스타그램의
Diss
Disc
평면도
다형성과
실현을
출발점이
들어가기전에
바꿔보자
화살표를
typeof
원근감이
중앙에
중앙화
돌아다니
스냅시드
액터에
트리거의
시도할
시도하는
걱정하는
제이슨
미들웨어의
바둑에서
##space
게이트웨이로
관찰하고
감사드립니다
일반인에게
다뤄서
대안적
스캐폴
요즘의
나열한
Specified
메타데이터와
익숙해져
익숙해지면
##Character
Skip
않았거나
않았는데
Forest
창출하기
Out으로
enq
지시를
침투해
가능하다면
공동체
공동으로
ARMA
펼쳐진다
EXTI
애저에서
잠금을
편향을
워크플로우의
워크플로우와
불변의
ProtoPie
NLP를
사건들을
블루투스와
HDMI
##공간과
우리나라는
ELT
매일같이
삼각함수의
정제하고
파이어베이스와
이점과
일괄처리
Max와
Max에서
만약에
보장을
차별과
이루어질
병행하지
정지하기
selector
Polyp
기여하기
리본을
헤드셋
라이팅을
빈도분석
##대학교에서
파일시스템을
opencv
창조한
교과서에
그러데이션을
하이퍼링크와
허브를
##mplates
결제하기
정부기관
마찬가지입니다
DI를
DI와
장소로
장소와
무결성을
서문에서
해소할
매뉴얼은
ACC
주인공으로
출판사에서
광범위하고
Overflow
Override
눈높이로
베이식
색감이
TV를
루비와
중단하기
우리나라에서는
높이려는
하늘과
사양에
Asynchronous
삼성전
들여다본다
대수적
직원을
직원들에게
우리에게는
Meta
notify
곱셈과
되돌아가
차단기
Linux의
업체별
짚어주는
흔들리지
Animations
리스크를
신속히
확산되고
생겼어요
추세다
추세에
##Space
라이노의
셀레니움
파헤치고
드러내는
방정식과
토론을
토론왕
데코레이터와
격자에
MacOS
RxJS가
deque
delegate
DeepR
proto
뛰어넘은
허용하지
심지어는
오프로드
컨셉을
머리글과
실무자들을
스파크라인을
리스너와
matplotlib를
모으려면
피부를
ALU
뷰어에서
##undle
PEOPLE
제로MQ
썸네일을
##TTY
넘어서서
포털의
포털사이트
비행기를
전쟁의
##UDE
##계산하기
플라스크로
트래킹하기
비헤이비어를
심벌을
장고를
터미널을
객관적인
데이터과학자가
구역별로
##Converter
하이퍼파라미터를
삼각형을
서브넷팅
Querydsl
프리셋을
람다식과
CELL
케이블을
케이블과
[...]
